<unk>	0
<s>	0
</s>	0
<pad>	0
<bos>	0
<eos>	0
▁a	-0
in	-1
ing	-2
▁s	-3
▁w	-4
▁t	-5
▁o	-6
an	-7
▁b	-8
he	-9
▁A	-10
re	-11
▁in	-12
it	-13
▁p	-14
▁m	-15
le	-16
▁c	-17
er	-18
is	-19
ro	-20
▁the	-21
ar	-22
nd	-23
▁g	-24
▁on	-25
▁h	-26
▁d	-27
▁f	-28
al	-29
la	-30
ir	-31
at	-32
en	-33
▁is	-34
▁man	-35
▁of	-36
om	-37
▁and	-38
▁st	-39
ck	-40
lo	-41
ith	-42
▁with	-43
or	-44
ld	-45
et	-46
▁T	-47
un	-48
es	-49
▁to	-50
▁wom	-51
id	-52
on	-53
▁wh	-54
▁do	-55
▁sh	-56
and	-57
rou	-58
king	-59
▁are	-60
op	-61
wo	-62
ed	-63
ra	-64
ear	-65
▁woman	-66
ss	-67
her	-68
ic	-69
▁bo	-70
▁pla	-71
ut	-72
▁at	-73
irt	-74
eop	-75
eople	-76
▁Two	-77
▁y	-78
all	-79
▁re	-80
▁play	-81
ting	-82
ch	-83
▁l	-84
oun	-85
ers	-86
▁wear	-87
▁an	-88
▁wearing	-89
▁sit	-90
▁stand	-91
▁people	-92
wn	-93
▁r	-94
st	-95
ge	-96
ide	-97
ur	-98
ite	-99
ild	-100
▁shirt	-101
▁n	-102
oung	-103
ile	-104
▁j	-105
gh	-106
▁lo	-107
▁ch	-108
▁ho	-109
▁ba	-110
▁white	-111
irl	-112
▁co	-113
▁young	-114
um	-115
▁wal	-116
ad	-117
el	-118
▁girl	-119
ot	-120
ue	-121
lack	-122
▁dog	-123
▁fro	-124
▁black	-125
▁out	-126
▁his	-127
▁boy	-128
▁bl	-129
▁be	-130
▁while	-131
▁wat	-132
▁blue	-133
il	-134
▁th	-135
us	-136
ce	-137
am	-138
▁e	-139
▁red	-140
ts	-141
▁grou	-142
ver	-143
▁sitting	-144
▁men	-145
ri	-146
▁hold	-147
▁standing	-148
up	-149
▁ro	-150
▁playing	-151
▁stre	-152
▁child	-153
▁loo	-154
ard	-155
▁group	-156
▁street	-157
oo	-158
▁down	-159
ree	-160
ve	-161
nt	-162
im	-163
▁walking	-164
▁la	-165
round	-166
ow	-167
▁sm	-168
▁her	-169
low	-170
▁The	-171
▁front	-172
▁ta	-173
▁holding	-174
ke	-175
ks	-176
ul	-177
ent	-178
ress	-179
▁he	-180
air	-181
as	-182
▁gra	-183
▁water	-184
ion	-185
ct	-186
▁k	-187
side	-188
ach	-189
▁car	-190
ie	-191
▁dress	-192
bo	-193
▁po	-194
ain	-195
ying	-196
▁by	-197
ump	-198
tle	-199
▁som	-200
▁as	-201
▁for	-202
▁Th	-203
▁up	-204
▁ra	-205
reen	-206
hing	-207
▁run	-208
se	-209
ay	-210
igh	-211
▁S	-212
ack	-213
▁bu	-214
▁wor	-215
▁back	-216
ark	-217
red	-218
uit	-219
▁jump	-220
▁ne	-221
▁An	-222
▁M	-223
▁green	-224
▁women	-225
▁one	-226
ittle	-227
row	-228
▁sw	-229
for	-230
ap	-231
one	-232
▁looking	-233
▁sk	-234
▁sn	-235
▁hat	-236
to	-237
form	-238
▁outside	-239
▁bro	-240
▁rid	-241
▁Three	-242
ble	-243
▁le	-244
ood	-245
ren	-246
arge	-247
ind	-248
▁little	-249
rough	-250
▁large	-251
▁side	-252
▁bi	-253
ther	-254
▁through	-255
▁v	-256
▁P	-257
▁other	-258
ball	-259
ellow	-260
▁snow	-261
▁or	-262
▁brown	-263
▁yellow	-264
▁two	-265
erson	-266
▁ball	-267
lass	-268
▁sp	-269
▁tra	-270
ly	-271
▁over	-272
em	-273
ian	-274
yc	-275
ure	-276
▁from	-277
▁their	-278
▁into	-279
che	-280
▁fo	-281
ng	-282
▁person	-283
▁ma	-284
xt	-285
▁con	-286
ning	-287
▁hand	-288
▁build	-289
ink	-290
▁children	-291
lder	-292
▁building	-293
alk	-294
▁next	-295
ig	-296
rowd	-297
▁near	-298
▁F	-299
▁small	-300
other	-301
▁some	-302
▁dressed	-303
▁crowd	-304
▁jack	-305
ight	-306
▁jacket	-307
ving	-308
▁clo	-309
▁so	-310
▁grass	-311
board	-312
▁te	-313
ate	-314
ground	-315
dy	-316
walk	-317
age	-318
▁wa	-319
▁running	-320
▁riding	-321
▁se	-322
ph	-323
▁People	-324
▁around	-325
ling	-326
ange	-327
▁off	-328
▁another	-329
ield	-330
ount	-331
▁sc	-332
ycle	-333
ep	-334
▁C	-335
▁pa	-336
cer	-337
ick	-338
▁field	-339
ru	-340
▁table	-341
▁sidewalk	-342
▁Man	-343
lasses	-344
▁beach	-345
▁cam	-346
ist	-347
ff	-348
ity	-349
dle	-350
▁orange	-351
ross	-352
▁fa	-353
rying	-354
▁mo	-355
▁go	-356
ine	-357
▁it	-358
▁air	-359
▁ar	-360
ture	-361
▁pink	-362
▁stands	-363
▁per	-364
▁jumping	-365
▁sits	-366
▁blo	-367
▁watch	-368
▁beh	-369
▁sun	-370
▁behind	-371
sh	-372
▁work	-373
iling	-374
ip	-375
ne	-376
te	-377
▁pic	-378
▁un	-379
▁perform	-380
ter	-381
way	-382
▁com	-383
get	-384
▁tal	-385
▁background	-386
ire	-387
▁park	-388
ans	-389
ating	-390
by	-391
und	-392
▁top	-393
▁cl	-394
▁dr	-395
▁bike	-396
▁head	-397
▁wall	-398
cing	-399
▁read	-400
ice	-401
▁sho	-402
▁city	-403
▁rock	-404
▁girls	-405
ves	-406
▁picture	-407
▁player	-408
▁alo	-409
ud	-410
ame	-411
▁camer	-412
▁bic	-413
▁looks	-414
▁shor	-415
uitar	-416
▁par	-417
veral	-418
▁guitar	-419
▁hair	-420
▁sur	-421
▁bus	-422
▁that	-423
ountain	-424
ool	-425
▁dan	-426
▁dogs	-427
▁clot	-428
ill	-429
do	-430
pp	-431
▁camera	-432
ches	-433
ub	-434
▁W	-435
▁talking	-436
▁wood	-437
▁gu	-438
▁B	-439
▁ac	-440
ething	-441
les	-442
▁something	-443
ors	-444
ant	-445
phone	-446
lle	-447
▁ph	-448
▁mid	-449
▁older	-450
ccer	-451
▁walk	-452
▁along	-453
eat	-454
▁walks	-455
ants	-456
▁bri	-457
▁working	-458
▁hel	-459
▁blond	-460
▁lady	-461
gether	-462
▁together	-463
▁soccer	-464
ive	-465
▁food	-466
▁skate	-467
▁As	-468
▁colo	-469
▁ad	-470
▁boys	-471
▁gray	-472
▁ben	-473
▁smiling	-474
ore	-475
if	-476
ign	-477
▁bicycle	-478
ction	-479
our	-480
▁game	-481
gg	-482
kes	-483
ket	-484
▁uni	-485
qu	-486
▁O	-487
▁has	-488
▁him	-489
▁road	-490
▁Asian	-491
▁plays	-492
▁guy	-493
▁them	-494
▁uniform	-495
ation	-496
ll	-497
▁us	-498
shirt	-499
▁comp	-500
▁holds	-501
pe	-502
▁Se	-503
imb	-504
▁pre	-505
▁sand	-506
▁je	-507
▁Four	-508
umb	-509
▁swim	-510
▁bench	-511
ale	-512
are	-513
▁skateboard	-514
ath	-515
▁br	-516
▁che	-517
▁suit	-518
▁climb	-519
▁shorts	-520
▁kid	-521
▁stage	-522
▁glasses	-523
▁dirt	-524
▁pants	-525
sing	-526
▁und	-527
gs	-528
▁abo	-529
▁pur	-530
est	-531
▁get	-532
▁carrying	-533
ies	-534
mer	-535
▁under	-536
▁coup	-537
▁pain	-538
ped	-539
▁pro	-540
ward	-541
▁bal	-542
▁sing	-543
▁face	-544
▁flo	-545
▁baby	-546
▁tree	-547
▁mountain	-548
ha	-549
▁base	-550
▁wait	-551
▁outdo	-552
▁couple	-553
▁G	-554
oto	-555
▁Several	-556
hes	-557
▁old	-558
▁ha	-559
▁en	-560
▁tan	-561
▁fem	-562
▁boat	-563
▁taking	-564
▁tri	-565
ell	-566
▁hor	-567
▁foot	-568
▁fl	-569
▁mic	-570
▁pool	-571
ag	-572
ull	-573
▁stri	-574
▁jumps	-575
▁each	-576
▁sign	-577
▁doing	-578
ok	-579
▁long	-580
▁race	-581
ping	-582
▁bas	-583
led	-584
ust	-585
▁chair	-586
▁micro	-587
▁coat	-588
▁dark	-589
uth	-590
▁basket	-591
▁across	-592
▁watching	-593
▁mus	-594
mp	-595
uring	-596
▁shop	-597
▁jeans	-598
▁mot	-599
ican	-600
▁day	-601
▁area	-602
▁male	-603
▁middle	-604
▁Y	-605
▁cat	-606
▁photo	-607
▁att	-608
▁team	-609
ple	-610
▁hands	-611
met	-612
▁ve	-613
▁spe	-614
▁band	-615
▁store	-616
▁helmet	-617
ence	-618
▁rest	-619
▁bar	-620
▁room	-621
▁who	-622
▁ground	-623
ugh	-624
▁de	-625
▁horse	-626
▁motor	-627
▁wind	-628
ome	-629
▁performing	-630
▁being	-631
ry	-632
stru	-633
▁gat	-634
ired	-635
▁toy	-636
▁swing	-637
▁eating	-638
ey	-639
ol	-640
▁sweat	-641
▁surf	-642
▁mouth	-643
▁baseball	-644
ful	-645
▁female	-646
▁music	-647
▁using	-648
▁L	-649
▁color	-650
▁Ch	-651
jo	-652
▁Wom	-653
▁op	-654
▁football	-655
▁ex	-656
glasses	-657
▁purple	-658
▁striped	-659
▁mar	-660
▁set	-661
▁arm	-662
▁ten	-663
▁she	-664
rel	-665
▁ca	-666
cks	-667
ment	-668
ming	-669
▁look	-670
▁toward	-671
iv	-672
▁sl	-673
ty	-674
ess	-675
▁runs	-676
▁cross	-677
▁train	-678
struction	-679
nis	-680
▁fis	-681
▁prep	-682
▁tre	-683
▁adul	-684
▁window	-685
haired	-686
▁sunglasses	-687
ner	-688
aper	-689
▁enjo	-690
▁ag	-691
▁whe	-692
▁microphone	-693
▁past	-694
▁Young	-695
▁ob	-696
▁clothing	-697
▁There	-698
▁tennis	-699
ght	-700
ching	-701
▁reading	-702
oking	-703
▁three	-704
ak	-705
aur	-706
▁bot	-707
▁its	-708
ee	-709
ents	-710
vered	-711
ade	-712
ted	-713
cean	-714
▁cap	-715
▁flow	-716
▁players	-717
▁dis	-718
▁fla	-719
▁app	-720
▁show	-721
aring	-722
rest	-723
▁outf	-724
▁ocean	-725
▁bright	-726
▁during	-727
▁basketball	-728
▁kids	-729
▁motorc	-730
ance	-731
lderly	-732
▁restaur	-733
leep	-734
use	-735
▁sa	-736
▁watches	-737
▁again	-738
▁climbing	-739
▁restaurant	-740
▁can	-741
▁pass	-742
▁stick	-743
▁outfit	-744
ging	-745
▁fire	-746
▁mark	-747
▁against	-748
man	-749
ix	-750
str	-751
▁bow	-752
▁smile	-753
▁rides	-754
▁dancing	-755
▁elderly	-756
▁umb	-757
rella	-758
▁throw	-759
▁umbrella	-760
ft	-761
▁li	-762
▁bag	-763
▁open	-764
ces	-765
very	-766
▁One	-767
▁dri	-768
▁hill	-769
▁high	-770
▁about	-771
▁trees	-772
▁posing	-773
io	-774
▁des	-775
▁wooden	-776
je	-777
▁I	-778
▁they	-779
▁ri	-780
▁having	-781
ated	-782
stum	-783
▁floor	-784
▁covered	-785
▁drin	-786
▁costum	-787
▁outdoor	-788
▁swimming	-789
lley	-790
▁all	-791
▁market	-792
▁getting	-793
▁waiting	-794
ort	-795
▁colorful	-796
▁construction	-797
ruck	-798
▁cle	-799
utting	-800
▁workers	-801
▁shirts	-802
ily	-803
▁mat	-804
▁busy	-805
▁very	-806
▁trying	-807
aning	-808
▁bear	-809
▁motorcycle	-810
▁singing	-811
ial	-812
vers	-813
od	-814
ycl	-815
▁pol	-816
strum	-817
▁instrum	-818
ron	-819
▁gr	-820
▁cart	-821
▁fence	-822
▁This	-823
▁Woman	-824
▁night	-825
end	-826
ier	-827
ller	-828
▁ice	-829
▁cell	-830
▁compet	-831
▁kit	-832
▁met	-833
▁book	-834
ast	-835
▁hu	-836
▁lad	-837
▁new	-838
▁fe	-839
▁D	-840
vel	-841
▁bat	-842
▁path	-843
▁light	-844
iff	-845
ject	-846
ition	-847
▁H	-848
▁han	-849
▁stair	-850
▁line	-851
▁board	-852
▁laying	-853
▁Some	-854
▁clothes	-855
ys	-856
▁ev	-857
chen	-858
less	-859
pack	-860
▁Men	-861
▁kick	-862
▁inside	-863
▁pie	-864
▁body	-865
▁hats	-866
▁ride	-867
▁sleep	-868
▁truck	-869
▁paper	-870
▁making	-871
▁beard	-872
cket	-873
▁brick	-874
▁grassy	-875
▁kitchen	-876
gra	-877
▁bik	-878
▁pus	-879
▁others	-880
▁backpack	-881
▁surround	-882
▁cellphone	-883
▁river	-884
▁"	-885
ler	-886
▁track	-887
ac	-888
▁takes	-889
▁art	-890
▁cour	-891
▁laugh	-892
▁big	-893
▁full	-894
▁metal	-895
▁towards	-896
als	-897
wing	-898
sc	-899
▁enjoying	-900
ny	-901
▁ready	-902
iz	-903
ckey	-904
▁mach	-905
▁step	-906
▁cor	-907
▁cow	-908
▁af	-909
▁lake	-910
▁tank	-911
cor	-912
ding	-913
▁drum	-914
br	-915
tic	-916
ines	-917
▁cre	-918
▁hard	-919
▁Child	-920
▁trick	-921
▁painting	-922
oot	-923
pla	-924
ses	-925
▁me	-926
able	-927
dler	-928
▁count	-929
▁sweater	-930
▁sub	-931
▁piece	-932
▁gather	-933
▁photogra	-934
▁pl	-935
▁Five	-936
▁above	-937
▁R	-938
▁tr	-939
der	-940
▁am	-941
▁class	-942
▁going	-943
art	-944
iving	-945
▁many	-946
we	-947
ere	-948
▁box	-949
▁kne	-950
▁pra	-951
hered	-952
rican	-953
▁stone	-954
▁several	-955
ird	-956
ium	-957
ved	-958
▁hi	-959
merican	-960
ym	-961
ones	-962
▁bes	-963
▁snowy	-964
▁brid	-965
▁vest	-966
▁dance	-967
▁worker	-968
▁surrounded	-969
co	-970
ons	-971
▁fr	-972
ched	-973
room	-974
riend	-975
▁wave	-976
elling	-977
▁colored	-978
▁convers	-979
▁crowded	-980
▁uniforms	-981
ork	-982
▁tur	-983
▁onto	-984
▁adults	-985
▁outdoors	-986
▁snowboard	-987
ists	-988
▁cra	-989
▁sha	-990
▁tod	-991
▁smiles	-992
▁shopping	-993
sp	-994
▁wheel	-995
▁beside	-996
▁toddler	-997
▁dra	-998
▁house	-999
▁E	-1000
▁bre	-1001
▁lea	-1002
▁lif	-1003
▁poin	-1004
▁drinking	-1005
ary	-1006
uch	-1007
▁pul	-1008
▁phone	-1009
▁fountain	-1010
▁2	-1011
▁gear	-1012
▁pole	-1013
aut	-1014
▁Af	-1015
▁rain	-1016
▁teen	-1017
emp	-1018
amily	-1019
ening	-1020
▁boot	-1021
▁door	-1022
▁stud	-1023
▁after	-1024
▁hanging	-1025
iew	-1026
▁ap	-1027
▁ele	-1028
▁hit	-1029
▁lap	-1030
▁lot	-1031
ement	-1032
▁subway	-1033
▁gathered	-1034
▁jo	-1035
▁chas	-1036
▁carri	-1037
▁event	-1038
ich	-1039
sel	-1040
▁away	-1041
▁leap	-1042
▁catch	-1043
▁skirt	-1044
▁bridge	-1045
▁costume	-1046
aged	-1047
ates	-1048
ffit	-1049
iful	-1050
unch	-1051
▁gym	-1052
▁Many	-1053
autiful	-1054
▁friend	-1055
▁flowers	-1056
▁vo	-1057
ather	-1058
gging	-1059
▁ballo	-1060
▁attemp	-1061
▁African	-1062
▁graffit	-1063
▁leaning	-1064
ane	-1065
ime	-1066
▁we	-1067
bble	-1068
▁ski	-1069
▁arms	-1070
▁make	-1071
▁rope	-1072
▁appear	-1073
▁comput	-1074
▁family	-1075
▁object	-1076
▁sleeping	-1077
▁ey	-1078
hair	-1079
ious	-1080
▁does	-1081
▁offic	-1082
▁preparing	-1083
▁take	-1084
▁short	-1085
▁forest	-1086
▁fishing	-1087
▁Children	-1088
▁graffiti	-1089
lic	-1090
▁fil	-1091
▁cont	-1092
▁four	-1093
▁stro	-1094
▁steps	-1095
▁hockey	-1096
ash	-1097
ong	-1098
▁no	-1099
▁asian	-1100
▁plaid	-1101
▁pract	-1102
▁shoes	-1103
▁machine	-1104
▁prepare	-1105
▁beautiful	-1106
app	-1107
eep	-1108
▁guys	-1109
ish	-1110
▁pat	-1111
▁win	-1112
▁cur	-1113
▁equ	-1114
▁pub	-1115
▁conc	-1116
▁like	-1117
▁adult	-1118
▁glass	-1119
▁police	-1120
▁selling	-1121
▁N	-1122
suit	-1123
▁stairs	-1124
bee	-1125
out	-1126
ring	-1127
▁wet	-1128
▁setting	-1129
be	-1130
ho	-1131
arf	-1132
entle	-1133
ersey	-1134
▁list	-1135
▁sunny	-1136
▁racing	-1137
▁volley	-1138
fe	-1139
▁pe	-1140
▁sky	-1141
isbee	-1142
▁chairs	-1143
▁corner	-1144
▁jersey	-1145
▁throwing	-1146
av	-1147
▁opp	-1148
▁fore	-1149
▁rocks	-1150
▁pushing	-1151
▁putting	-1152
▁shirtless	-1153
▁volleyball	-1154
▁bet	-1155
▁pose	-1156
▁ramp	-1157
▁stat	-1158
▁tall	-1159
▁view	-1160
yclist	-1161
▁parade	-1162
▁public	-1163
ps	-1164
▁cup	-1165
▁have	-1166
▁numb	-1167
▁cowbo	-1168
▁equip	-1169
▁sweatshirt	-1170
▁sil	-1171
iting	-1172
▁blow	-1173
▁flip	-1174
▁drink	-1175
▁plast	-1176
▁gentle	-1177
▁roller	-1178
hic	-1179
ined	-1180
▁kis	-1181
▁both	-1182
▁fruit	-1183
▁slide	-1184
ween	-1185
▁bed	-1186
▁hot	-1187
▁flag	-1188
▁shou	-1189
▁couch	-1190
▁between	-1191
▁computer	-1192
▁laughing	-1193
▁pictures	-1194
ats	-1195
cture	-1196
▁dist	-1197
▁spea	-1198
▁stop	-1199
▁vend	-1200
▁party	-1201
▁displa	-1202
▁plastic	-1203
▁someone	-1204
▁American	-1205
▁equipment	-1206
▁instruments	-1207
▁wr	-1208
▁ent	-1209
▁fish	-1210
▁pick	-1211
▁rail	-1212
▁scen	-1213
▁check	-1214
▁trail	-1215
▁vehic	-1216
▁works	-1217
▁ladies	-1218
ase	-1219
hed	-1220
rete	-1221
▁gar	-1222
chool	-1223
▁hood	-1224
phones	-1225
▁woods	-1226
▁bottle	-1227
de	-1228
ally	-1229
▁glo	-1230
▁squ	-1231
iding	-1232
▁stru	-1233
▁poses	-1234
▁which	-1235
▁concrete	-1236
▁ear	-1237
▁tat	-1238
▁gold	-1239
▁winter	-1240
▁playground	-1241
ace	-1242
ope	-1243
ric	-1244
▁but	-1245
▁cig	-1246
▁pit	-1247
▁bird	-1248
▁apron	-1249
▁bucket	-1250
▁midair	-1251
▁statue	-1252
uff	-1253
▁mas	-1254
ggles	-1255
ience	-1256
▁dock	-1257
▁shovel	-1258
ert	-1259
ery	-1260
▁Bo	-1261
▁emp	-1262
▁net	-1263
ering	-1264
▁anim	-1265
▁home	-1266
▁yard	-1267
▁reads	-1268
▁cowboy	-1269
ms	-1270
bor	-1271
too	-1272
▁ind	-1273
▁ite	-1274
▁pad	-1275
▁spor	-1276
▁stra	-1277
▁seated	-1278
▁cooking	-1279
▁practic	-1280
os	-1281
▁Fr	-1282
▁St	-1283
ctor	-1284
ests	-1285
▁aud	-1286
▁was	-1287
▁left	-1288
▁bikes	-1289
▁veget	-1290
▁number	-1291
▁tattoo	-1292
lee	-1293
▁ban	-1294
ators	-1295
ining	-1296
▁happ	-1297
▁what	-1298
▁attire	-1299
▁distance	-1300
els	-1301
ini	-1302
head	-1303
▁roo	-1304
▁ser	-1305
▁blan	-1306
▁appears	-1307
▁station	-1308
▁buildings	-1309
▁instrument	-1310
cl	-1311
sk	-1312
ban	-1313
ber	-1314
▁ed	-1315
ical	-1316
▁bags	-1317
▁beer	-1318
▁bowl	-1319
▁fall	-1320
▁just	-1321
▁tent	-1322
▁cream	-1323
▁grill	-1324
▁where	-1325
▁wrest	-1326
▁cutting	-1327
▁pulling	-1328
▁crossing	-1329
az	-1330
ns	-1331
ned	-1332
▁Girl	-1333
▁plat	-1334
▁cliff	-1335
▁newsp	-1336
▁paint	-1337
▁vests	-1338
▁Little	-1339
fet	-1340
ony	-1341
▁vi	-1342
alle	-1343
aret	-1344
▁cut	-1345
▁var	-1346
▁bare	-1347
▁land	-1348
aching	-1349
▁rider	-1350
▁right	-1351
▁leaves	-1352
▁school	-1353
▁cigaret	-1354
ug	-1355
ely	-1356
top	-1357
▁pot	-1358
ading	-1359
ights	-1360
orses	-1361
▁elect	-1362
▁scarf	-1363
▁nearby	-1364
▁Frisbee	-1365
▁blanket	-1366
▁carries	-1367
▁showing	-1368
▁mountains	-1369
▁vegetable	-1370
pher	-1371
▁inf	-1372
▁Grou	-1373
▁edge	-1374
▁mart	-1375
▁Women	-1376
yclists	-1377
▁structure	-1378
arm	-1379
cal	-1380
▁Ind	-1381
▁mul	-1382
▁rela	-1383
▁court	-1384
ctators	-1385
▁filled	-1386
▁horses	-1387
▁bowling	-1388
na	-1389
cert	-1390
ings	-1391
look	-1392
▁few	-1393
▁fix	-1394
lding	-1395
▁pile	-1396
▁break	-1397
▁bubble	-1398
▁mother	-1399
▁friends	-1400
▁musician	-1401
▁performs	-1402
hle	-1403
ins	-1404
ser	-1405
ven	-1406
▁ce	-1407
ival	-1408
nding	-1409
▁goal	-1410
▁post	-1411
ens	-1412
▁al	-1413
eling	-1414
▁cars	-1415
▁boots	-1416
▁lined	-1417
▁vendor	-1418
▁display	-1419
▁driving	-1420
▁martial	-1421
▁snowboarder	-1422
du	-1423
key	-1424
ffee	-1425
▁mud	-1426
▁drums	-1427
▁lying	-1428
▁shore	-1429
▁Person	-1430
▁flower	-1431
▁parked	-1432
▁goggles	-1433
▁cigarette	-1434
cher	-1435
ives	-1436
▁mil	-1437
▁arts	-1438
▁time	-1439
▁flying	-1440
▁country	-1441
▁parking	-1442
▁smoking	-1443
▁vehicle	-1444
set	-1445
ugg	-1446
▁kn	-1447
itary	-1448
▁eyes	-1449
▁form	-1450
▁shot	-1451
▁spla	-1452
▁flags	-1453
▁talks	-1454
▁concert	-1455
▁dresses	-1456
▁painted	-1457
▁railing	-1458
▁listening	-1459
▁practicing	-1460
ike	-1461
ered	-1462
▁fun	-1463
▁dire	-1464
▁rode	-1465
▁Group	-1466
▁alley	-1467
▁athle	-1468
▁close	-1469
▁rocky	-1470
▁younger	-1471
▁prepares	-1472
▁swinging	-1473
▁skateboarder	-1474
ail	-1475
olo	-1476
uck	-1477
fety	-1478
ivid	-1479
▁dig	-1480
▁exp	-1481
▁hik	-1482
▁res	-1483
▁bull	-1484
▁diff	-1485
▁gymn	-1486
▁roof	-1487
▁there	-1488
ighting	-1489
▁coffee	-1490
▁safety	-1491
▁jackets	-1492
▁newspaper	-1493
▁photograph	-1494
▁conversation	-1495
cu	-1496
ids	-1497
ise	-1498
men	-1499
ater	-1500
rown	-1501
▁Boy	-1502
▁rep	-1503
▁coll	-1504
▁pres	-1505
▁bunch	-1506
▁empty	-1507
▁items	-1508
▁relax	-1509
▁waves	-1510
▁ladder	-1511
▁onlook	-1512
▁bathing	-1513
▁bearded	-1514
▁kicking	-1515
▁audience	-1516
▁costumes	-1517
▁gentleman	-1518
▁competition	-1519
ige	-1520
irc	-1521
ush	-1522
ural	-1523
▁put	-1524
erent	-1525
▁this	-1526
▁scene	-1527
▁facing	-1528
▁gloves	-1529
▁spectators	-1530
▁skateboarding	-1531
ton	-1532
upp	-1533
▁qu	-1534
▁yo	-1535
ette	-1536
ized	-1537
▁mon	-1538
▁desk	-1539
▁mask	-1540
▁neck	-1541
▁spra	-1542
▁uses	-1543
▁rodeo	-1544
▁suits	-1545
▁cement	-1546
▁drinks	-1547
▁giving	-1548
▁staring	-1549
▁various	-1550
▁bicycles	-1551
▁cleaning	-1552
▁stroller	-1553
▁different	-1554
ays	-1555
ales	-1556
fore	-1557
▁cla	-1558
▁ham	-1559
▁not	-1560
ctive	-1561
▁lawn	-1562
▁meal	-1563
▁biker	-1564
▁scoot	-1565
▁bikini	-1566
▁balloon	-1567
▁sliding	-1568
▁pointing	-1569
▁onlookers	-1570
alm	-1571
enc	-1572
ual	-1573
cord	-1574
▁fol	-1575
▁row	-1576
▁tow	-1577
▁tub	-1578
cting	-1579
▁sold	-1580
▁viol	-1581
▁among	-1582
▁leaps	-1583
looking	-1584
▁Indian	-1585
▁before	-1586
▁surfer	-1587
▁Someone	-1588
▁platform	-1589
▁competing	-1590
▁gathering	-1591
▁surfboard	-1592
bb	-1593
eth	-1594
nic	-1595
▁Con	-1596
▁kay	-1597
▁lit	-1598
▁med	-1599
▁mem	-1600
▁wed	-1601
athon	-1602
iness	-1603
▁cake	-1604
▁part	-1605
▁match	-1606
▁obser	-1607
▁splas	-1608
▁screen	-1609
▁silver	-1610
▁sports	-1611
▁teenag	-1612
cts	-1613
ulp	-1614
▁tro	-1615
allow	-1616
▁circ	-1617
▁feet	-1618
▁sweep	-1619
▁coming	-1620
▁streets	-1621
▁speaking	-1622
▁vegetables	-1623
pes	-1624
▁im	-1625
▁gets	-1626
▁rais	-1627
▁talk	-1628
▁sculp	-1629
▁teams	-1630
▁waters	-1631
▁helmets	-1632
▁wedding	-1633
▁military	-1634
▁classroom	-1635
lf	-1636
mo	-1637
ken	-1638
nel	-1639
rin	-1640
▁ur	-1641
cers	-1642
pped	-1643
rist	-1644
self	-1645
▁Six	-1646
▁int	-1647
▁ref	-1648
▁tie	-1649
▁bath	-1650
▁crou	-1651
▁fing	-1652
▁garb	-1653
▁incl	-1654
▁trad	-1655
▁bride	-1656
▁produ	-1657
▁sings	-1658
▁animal	-1659
▁laptop	-1660
▁violin	-1661
▁chasing	-1662
▁counter	-1663
▁individ	-1664
▁kissing	-1665
▁business	-1666
▁tradition	-1667
mas	-1668
vert	-1669
▁din	-1670
▁huge	-1671
▁clown	-1672
▁purse	-1673
▁climbs	-1674
▁surfing	-1675
▁electric	-1676
▁traditional	-1677
ars	-1678
avy	-1679
eng	-1680
foot	-1681
irro	-1682
read	-1683
▁card	-1684
▁pull	-1685
▁sled	-1686
▁sort	-1687
▁mirro	-1688
▁tries	-1689
▁artist	-1690
▁walkway	-1691
▁marathon	-1692
▁students	-1693
aw	-1694
oe	-1695
ops	-1696
▁da	-1697
case	-1698
▁airp	-1699
▁chef	-1700
▁same	-1701
▁trun	-1702
▁decor	-1703
▁skier	-1704
▁sunset	-1705
▁barefoot	-1706
▁fighting	-1707
▁attempting	-1708
th	-1709
oks	-1710
ator	-1711
▁bur	-1712
▁end	-1713
▁gun	-1714
▁slo	-1715
▁wra	-1716
ticip	-1717
ustom	-1718
▁cand	-1719
▁exam	-1720
▁indo	-1721
▁life	-1722
▁shad	-1723
▁tire	-1724
▁vide	-1725
▁makes	-1726
▁females	-1727
▁writing	-1728
▁kneeling	-1729
sed	-1730
▁cr	-1731
cuss	-1732
▁leg	-1733
▁son	-1734
▁sto	-1735
ession	-1736
▁place	-1737
▁signs	-1738
▁waits	-1739
ristmas	-1740
▁mirror	-1741
▁runner	-1742
▁waving	-1743
▁blowing	-1744
▁outfits	-1745
▁project	-1746
▁shoulder	-1747
aff	-1748
▁ty	-1749
ides	-1750
▁tun	-1751
aches	-1752
inese	-1753
▁gard	-1754
▁says	-1755
ticolo	-1756
▁balan	-1757
▁cheer	-1758
▁enjoy	-1759
▁inter	-1760
▁multicolo	-1761
ki	-1762
ape	-1763
ram	-1764
tes	-1765
ung	-1766
▁har	-1767
▁cele	-1768
▁seen	-1769
unette	-1770
vertis	-1771
▁alone	-1772
▁block	-1773
▁chain	-1774
▁faces	-1775
▁urban	-1776
▁father	-1777
▁tables	-1778
▁bubbles	-1779
▁discuss	-1780
▁officer	-1781
▁scooter	-1782
▁skating	-1783
▁advertis	-1784
▁brightly	-1785
ia	-1786
ib	-1787
ied	-1788
▁Do	-1789
iant	-1790
▁gro	-1791
chair	-1792
lders	-1793
lling	-1794
▁bald	-1795
▁golf	-1796
▁good	-1797
▁hole	-1798
▁legs	-1799
▁meat	-1800
▁oper	-1801
▁site	-1802
▁happy	-1803
▁celebr	-1804
▁collar	-1805
▁course	-1806
▁follow	-1807
▁lights	-1808
▁gymnast	-1809
▁balloons	-1810
▁particip	-1811
▁musicians	-1812
▁headphones	-1813
▁overlooking	-1814
ab	-1815
▁Sm	-1816
ners	-1817
▁Work	-1818
▁pier	-1819
▁stad	-1820
▁stun	-1821
▁tool	-1822
▁cover	-1823
▁leans	-1824
▁asleep	-1825
▁fixing	-1826
▁grocer	-1827
▁helping	-1828
▁leather	-1829
▁Construction	-1830
▁photographer	-1831
ese	-1832
ous	-1833
▁In	-1834
band	-1835
lage	-1836
▁mag	-1837
▁ped	-1838
arate	-1839
ative	-1840
▁five	-1841
▁made	-1842
▁sell	-1843
▁wears	-1844
▁diving	-1845
▁office	-1846
▁repair	-1847
▁sticks	-1848
▁string	-1849
▁swings	-1850
▁waterf	-1851
▁microsc	-1852
▁sandals	-1853
▁stadium	-1854
▁sculpture	-1855
▁umbrellas	-1856
▁foreground	-1857
alf	-1858
ang	-1859
ips	-1860
ffic	-1861
vice	-1862
▁bra	-1863
uddle	-1864
▁chur	-1865
▁pack	-1866
▁well	-1867
▁booth	-1868
▁canoe	-1869
▁giant	-1870
▁plate	-1871
▁stuff	-1872
▁video	-1873
▁custom	-1874
▁musical	-1875
▁passing	-1876
▁shallow	-1877
▁officers	-1878
▁multicolored	-1879
za	-1880
spe	-1881
ult	-1882
lesc	-1883
orch	-1884
▁cas	-1885
▁eat	-1886
▁eng	-1887
▁gre	-1888
▁smo	-1889
▁way	-1890
▁star	-1891
▁tour	-1892
▁toys	-1893
▁below	-1894
▁dirty	-1895
▁leash	-1896
▁trash	-1897
▁hiking	-1898
▁doorway	-1899
▁drawing	-1900
▁teenage	-1901
▁washing	-1902
bs	-1903
amp	-1904
dge	-1905
▁Wh	-1906
bers	-1907
▁ass	-1908
▁fur	-1909
▁mix	-1910
▁mom	-1911
▁ste	-1912
▁sus	-1913
ached	-1914
estri	-1915
ughter	-1916
▁heads	-1917
cordion	-1918
▁church	-1919
▁comple	-1920
▁falling	-1921
▁picking	-1922
▁present	-1923
▁traffic	-1924
▁accordion	-1925
▁performance	-1926
ew	-1927
ral	-1928
alls	-1929
back	-1930
ness	-1931
ught	-1932
▁fin	-1933
allen	-1934
aster	-1935
▁feat	-1936
▁hall	-1937
▁pond	-1938
▁prof	-1939
▁spot	-1940
▁clean	-1941
▁cloth	-1942
▁laund	-1943
▁straw	-1944
▁includ	-1945
▁skiing	-1946
▁throws	-1947
▁upside	-1948
▁digging	-1949
▁brunette	-1950
▁reaching	-1951
▁conversing	-1952
mb	-1953
zz	-1954
que	-1955
ages	-1956
cial	-1957
▁kha	-1958
▁nap	-1959
▁pet	-1960
▁van	-1961
▁vis	-1962
osing	-1963
▁move	-1964
▁prin	-1965
▁seem	-1966
▁tack	-1967
▁balls	-1968
▁guard	-1969
▁inspe	-1970
▁males	-1971
▁prote	-1972
▁shows	-1973
▁teeth	-1974
▁hoodie	-1975
▁resting	-1976
▁catching	-1977
▁sweeping	-1978
▁direction	-1979
ou	-1980
ics	-1981
lead	-1982
slee	-1983
▁fre	-1984
▁hur	-1985
▁lab	-1986
▁log	-1987
▁tou	-1988
acher	-1989
stand	-1990
▁atop	-1991
▁cold	-1992
▁deep	-1993
▁soft	-1994
▁coats	-1995
▁fight	-1996
▁flies	-1997
▁gives	-1998
▁garden	-1999
▁passes	-2000
▁singer	-2001
▁tunnel	-2002
▁Chinese	-2003
▁catches	-2004
▁hugging	-2005
▁leaping	-2006
▁relaxing	-2007
▁Christmas	-2008
▁microscope	-2009
res	-2010
ret	-2011
▁Gu	-2012
affo	-2013
ront	-2014
uals	-2015
work	-2016
▁act	-2017
▁fan	-2018
▁sea	-2019
cross	-2020
neath	-2021
nival	-2022
▁cafe	-2023
▁fest	-2024
▁hose	-2025
▁shoe	-2026
▁Black	-2027
▁beige	-2028
▁stack	-2029
▁stret	-2030
▁stunt	-2031
▁suspe	-2032
▁desert	-2033
▁plants	-2034
▁scaffo	-2035
▁sleeps	-2036
▁stream	-2037
▁telesc	-2038
▁tracks	-2039
▁tricks	-2040
▁dancers	-2041
▁daughter	-2042
▁shoulders	-2043
▁wrestling	-2044
▁underneath	-2045
ca	-2046
ina	-2047
ino	-2048
its	-2049
▁Co	-2050
ient	-2051
▁dun	-2052
▁eye	-2053
▁how	-2054
▁rob	-2055
enter	-2056
erman	-2057
fight	-2058
light	-2059
oline	-2060
pping	-2061
▁balc	-2062
▁fair	-2063
▁fram	-2064
▁pupp	-2065
▁colle	-2066
▁round	-2067
▁tramp	-2068
▁hammer	-2069
▁karate	-2070
▁moving	-2071
▁points	-2072
▁trunks	-2073
▁contain	-2074
▁jogging	-2075
▁without	-2076
▁carnival	-2077
▁swimsuit	-2078
▁telescope	-2079
▁z	-2080
bla	-2081
uzz	-2082
▁So	-2083
▁Sp	-2084
▁fig	-2085
arrow	-2086
cking	-2087
dling	-2088
ental	-2089
wards	-2090
▁cane	-2091
▁held	-2092
▁help	-2093
▁hula	-2094
▁kind	-2095
▁mess	-2096
▁ring	-2097
▁town	-2098
▁appro	-2099
▁books	-2100
▁curly	-2101
▁kayak	-2102
▁racket	-2103
▁square	-2104
▁produce	-2105
▁suspend	-2106
▁performer	-2107
▁splashing	-2108
▁trampoline	-2109
cas	-2110
com	-2111
ife	-2112
lat	-2113
ord	-2114
ute	-2115
▁es	-2116
▁bel	-2117
▁exc	-2118
▁low	-2119
▁ret	-2120
▁sax	-2121
▁ter	-2122
eding	-2123
▁brus	-2124
▁deck	-2125
▁knee	-2126
▁lays	-2127
▁lone	-2128
▁must	-2129
▁wire	-2130
selves	-2131
▁Small	-2132
▁hiker	-2133
▁magaz	-2134
▁mural	-2135
▁refle	-2136
▁spray	-2137
▁taken	-2138
▁crying	-2139
▁dinner	-2140
▁fallen	-2141
▁makeup	-2142
▁underw	-2143
▁wooded	-2144
▁passeng	-2145
▁surface	-2146
▁wetsuit	-2147
▁matching	-2148
▁opposing	-2149
▁bicyclist	-2150
▁crosswalk	-2151
▁including	-2152
▁themselves	-2153
▁wheelchair	-2154
oph	-2155
iers	-2156
ital	-2157
ular	-2158
▁Old	-2159
▁key	-2160
▁pin	-2161
ature	-2162
fully	-2163
▁nose	-2164
▁tong	-2165
▁wine	-2166
icycle	-2167
▁sheet	-2168
▁third	-2169
▁center	-2170
▁closed	-2171
▁dances	-2172
▁infant	-2173
▁pulled	-2174
▁sewing	-2175
▁Workers	-2176
▁cyclist	-2177
▁members	-2178
▁rolling	-2179
▁stuffed	-2180
▁attempts	-2181
▁individuals	-2182
aks	-2183
let	-2184
udy	-2185
yle	-2186
▁Te	-2187
rink	-2188
road	-2189
▁cri	-2190
▁dry	-2191
▁rug	-2192
scape	-2193
ustic	-2194
▁goes	-2195
▁jugg	-2196
▁rece	-2197
▁These	-2198
▁lunch	-2199
▁paved	-2200
▁pulls	-2201
▁stare	-2202
▁steep	-2203
▁blouse	-2204
▁circle	-2205
▁picnic	-2206
▁speaks	-2207
▁sprink	-2208
▁balcony	-2209
▁grocery	-2210
▁himself	-2211
▁pitcher	-2212
▁profession	-2213
ara	-2214
ipe	-2215
ond	-2216
per	-2217
tom	-2218
lers	-2219
ster	-2220
▁lay	-2221
▁mop	-2222
▁see	-2223
▁cons	-2224
▁hoop	-2225
▁puts	-2226
▁turn	-2227
illing	-2228
▁bever	-2229
▁sandy	-2230
▁slope	-2231
▁trans	-2232
leaders	-2233
riental	-2234
▁bottom	-2235
▁button	-2236
▁driver	-2237
▁drives	-2238
▁figure	-2239
▁formal	-2240
▁indoor	-2241
▁pushes	-2242
▁saxoph	-2243
estrians	-2244
▁opening	-2245
▁windows	-2246
▁softball	-2247
▁staircase	-2248
ads	-2249
▁At	-2250
cted	-2251
dium	-2252
icem	-2253
yard	-2254
▁col	-2255
▁gaz	-2256
▁pan	-2257
▁rub	-2258
▁Here	-2259
▁bent	-2260
▁cond	-2261
▁cook	-2262
▁most	-2263
▁robe	-2264
▁shoo	-2265
▁skis	-2266
▁slee	-2267
▁tele	-2268
▁tile	-2269
atting	-2270
▁boxes	-2271
▁fresh	-2272
▁heavy	-2273
▁local	-2274
▁porch	-2275
artment	-2276
▁chases	-2277
▁device	-2278
▁hurdle	-2279
▁podium	-2280
▁puddle	-2281
▁athlete	-2282
▁foreign	-2283
▁shaking	-2284
▁festival	-2285
▁keyboard	-2286
▁overalls	-2287
▁bicyclists	-2288
pt	-2289
▁i	-2290
ger	-2291
oes	-2292
apan	-2293
lane	-2294
▁Guy	-2295
▁New	-2296
▁adj	-2297
▁bou	-2298
▁den	-2299
▁don	-2300
▁mer	-2301
illow	-2302
place	-2303
▁curb	-2304
▁farm	-2305
▁fenc	-2306
▁jean	-2307
▁loun	-2308
▁nice	-2309
▁pian	-2310
▁ship	-2311
ashion	-2312
uggage	-2313
▁chalk	-2314
▁clear	-2315
▁grind	-2316
▁groom	-2317
▁kicks	-2318
▁robes	-2319
▁stool	-2320
▁swims	-2321
▁dancer	-2322
▁design	-2323
▁enjoys	-2324
▁hikers	-2325
▁travel	-2326
▁fingers	-2327
▁pouring	-2328
▁reaches	-2329
▁shaving	-2330
▁wrapped	-2331
▁covering	-2332
▁marching	-2333
▁teenager	-2334
▁waterfall	-2335
fts	-2336
gon	-2337
lls	-2338
whe	-2339
▁AT	-2340
▁tw	-2341
ails	-2342
ible	-2343
ited	-2344
merg	-2345
ried	-2346
tend	-2347
test	-2348
uses	-2349
apers	-2350
▁dust	-2351
▁fabr	-2352
▁gate	-2353
▁palm	-2354
▁sale	-2355
vement	-2356
▁Older	-2357
▁arena	-2358
▁barbe	-2359
▁birds	-2360
▁khaki	-2361
▁ledge	-2362
▁mound	-2363
▁oppon	-2364
▁piano	-2365
▁poles	-2366
▁sword	-2367
covered	-2368
▁blocks	-2369
▁cloudy	-2370
▁pillow	-2371
▁laundry	-2372
▁luggage	-2373
▁policem	-2374
▁attached	-2375
▁checking	-2376
▁jumpsuit	-2377
▁paddling	-2378
▁customers	-2379
▁gentlemen	-2380
▁shoveling	-2381
▁teenagers	-2382
ka	-2383
bat	-2384
ced	-2385
ift	-2386
jam	-2387
ouf	-2388
▁ke	-2389
itor	-2390
time	-2391
▁cho	-2392
▁def	-2393
dress	-2394
ively	-2395
osite	-2396
range	-2397
▁amus	-2398
▁bran	-2399
▁carp	-2400
▁lies	-2401
▁lift	-2402
▁lots	-2403
▁pair	-2404
▁polo	-2405
▁port	-2406
▁seat	-2407
▁type	-2408
▁denim	-2409
▁hangs	-2410
▁image	-2411
▁pajam	-2412
▁sheep	-2413
ouflage	-2414
▁colors	-2415
▁fabric	-2416
▁fenced	-2417
▁golden	-2418
▁living	-2419
▁paddle	-2420
▁shadow	-2421
▁evening	-2422
▁tractor	-2423
▁airplane	-2424
▁backyard	-2425
▁juggling	-2426
▁opposite	-2427
▁oriental	-2428
▁railroad	-2429
▁shooting	-2430
▁balancing	-2431
▁camouflage	-2432
▁protective	-2433
▁motorcycles	-2434
".	-2435
cy	-2436
ls	-2437
wk	-2438
pan	-2439
vis	-2440
▁di	-2441
anta	-2442
iple	-2443
land	-2444
oney	-2445
ower	-2446
ured	-2447
▁Dog	-2448
▁eit	-2449
▁pos	-2450
▁vac	-2451
ident	-2452
inned	-2453
tered	-2454
▁cast	-2455
▁plan	-2456
▁poss	-2457
▁raft	-2458
ertain	-2459
inning	-2460
▁cones	-2461
▁escal	-2462
▁frame	-2463
▁moves	-2464
latable	-2465
▁bandan	-2466
▁either	-2467
▁poster	-2468
▁skirts	-2469
▁tongue	-2470
▁garbage	-2471
▁happily	-2472
▁soldier	-2473
▁floating	-2474
▁pavement	-2475
▁position	-2476
▁firefight	-2477
▁landscape	-2478
▁saxophone	-2479
▁inflatable	-2480
ti	-2481
cut	-2482
eds	-2483
ets	-2484
oon	-2485
vol	-2486
▁ju	-2487
aped	-2488
▁far	-2489
▁orn	-2490
▁rou	-2491
▁sec	-2492
▁sum	-2493
▁sup	-2494
tyard	-2495
▁beam	-2496
▁camp	-2497
▁club	-2498
▁eats	-2499
▁kiss	-2500
▁refe	-2501
▁wild	-2502
▁chest	-2503
▁dread	-2504
▁goods	-2505
▁shoot	-2506
▁shown	-2507
▁trump	-2508
▁walls	-2509
▁buying	-2510
▁flight	-2511
▁goalie	-2512
▁headsc	-2513
▁laughs	-2514
▁riders	-2515
▁harness	-2516
▁married	-2517
▁pajamas	-2518
▁serving	-2519
▁soldiers	-2520
▁touching	-2521
▁courtyard	-2522
▁entertain	-2523
▁scaffolding	-2524
▁professional	-2525
."	-2526
ds	-2527
ma	-2528
ory	-2529
ten	-2530
uro	-2531
▁Ar	-2532
▁gl	-2533
bile	-2534
hood	-2535
line	-2536
mers	-2537
stra	-2538
tery	-2539
▁aco	-2540
▁egg	-2541
▁foc	-2542
▁hay	-2543
▁map	-2544
▁mod	-2545
▁pig	-2546
▁rac	-2547
▁sim	-2548
ister	-2549
▁Male	-2550
▁boun	-2551
▁chop	-2552
▁fans	-2553
▁meet	-2554
▁sets	-2555
▁toss	-2556
ention	-2557
▁Santa	-2558
▁boats	-2559
▁bread	-2560
▁broom	-2561
▁float	-2562
▁heart	-2563
▁invol	-2564
▁peace	-2565
▁shade	-2566
▁snack	-2567
▁socks	-2568
▁tools	-2569
▁towel	-2570
▁youth	-2571
apanese	-2572
skinned	-2573
sleeved	-2574
▁German	-2575
▁barrel	-2576
▁carpet	-2577
▁caught	-2578
▁floral	-2579
▁kneels	-2580
▁neckla	-2581
▁parach	-2582
▁bucking	-2583
▁jerseys	-2584
▁welding	-2585
▁acoustic	-2586
▁american	-2587
▁bandanna	-2588
▁carriage	-2589
▁cheering	-2590
▁crouches	-2591
▁rollersk	-2592
▁backpacks	-2593
▁backwards	-2594
▁escalator	-2595
▁rollerbla	-2596
▁suspended	-2597
▁marketplace	-2598
▁advertisement	-2599
day	-2600
erc	-2601
ilt	-2602
nds	-2603
rop	-2604
aker	-2605
cent	-2606
erby	-2607
erse	-2608
ipes	-2609
lymp	-2610
stac	-2611
ucas	-2612
▁Che	-2613
▁fir	-2614
▁fly	-2615
▁ges	-2616
▁loc	-2617
▁six	-2618
▁tar	-2619
▁war	-2620
▁York	-2621
▁cere	-2622
▁dump	-2623
▁fast	-2624
▁half	-2625
▁neon	-2626
▁pipe	-2627
▁pony	-2628
▁sink	-2629
▁supp	-2630
▁tops	-2631
▁tube	-2632
shirts	-2633
▁Seven	-2634
▁White	-2635
▁candy	-2636
▁drive	-2637
▁plane	-2638
▁plant	-2639
▁plaza	-2640
▁polka	-2641
▁rests	-2642
▁rugby	-2643
▁seems	-2644
▁start	-2645
▁stove	-2646
▁teamm	-2647
ucasian	-2648
▁dining	-2649
▁hooded	-2650
▁motorb	-2651
▁obstac	-2652
▁paints	-2653
▁raised	-2654
▁storef	-2655
▁thrown	-2656
▁airport	-2657
▁animals	-2658
▁compete	-2659
▁gesture	-2660
▁guitars	-2661
▁runners	-2662
▁teacher	-2663
▁athletic	-2664
▁brushing	-2665
▁magazine	-2666
▁opponent	-2667
▁sticking	-2668
▁amusement	-2669
▁decorated	-2670
▁underwater	-2671
▁presentation	-2672
ik	-2673
ws	-2674
bow	-2675
cue	-2676
gan	-2677
med	-2678
rol	-2679
unk	-2680
usk	-2681
▁Ca	-2682
like	-2683
uffy	-2684
▁Blo	-2685
▁ext	-2686
▁use	-2687
akers	-2688
ungle	-2689
▁appl	-2690
▁cone	-2691
▁liqu	-2692
▁only	-2693
▁pige	-2694
▁rout	-2695
▁thin	-2696
▁trip	-2697
▁warm	-2698
ations	-2699
▁exerc	-2700
▁heels	-2701
▁money	-2702
▁muddy	-2703
▁sandw	-2704
▁sport	-2705
▁thumb	-2706
chestra	-2707
▁action	-2708
▁finger	-2709
▁gravel	-2710
▁jockey	-2711
▁jungle	-2712
▁sleeve	-2713
▁attempt	-2714
▁bending	-2715
▁ceiling	-2716
▁climber	-2717
▁fashion	-2718
▁frisbee	-2719
▁haircut	-2720
▁herself	-2721
▁hitting	-2722
▁protest	-2723
▁redhead	-2724
▁referee	-2725
▁sharing	-2726
▁student	-2727
▁trumpet	-2728
▁cyclists	-2729
▁grilling	-2730
▁obstacle	-2731
▁sporting	-2732
▁checkered	-2733
▁examining	-2734
▁operating	-2735
▁photograp	-2736
▁policeman	-2737
▁participating	-2738
so	-2739
ech	-2740
ggy	-2741
ica	-2742
iny	-2743
umn	-2744
zer	-2745
etra	-2746
hawk	-2747
ills	-2748
▁adm	-2749
▁beg	-2750
▁dem	-2751
▁fen	-2752
▁try	-2753
hound	-2754
ility	-2755
inery	-2756
locks	-2757
rench	-2758
▁also	-2759
▁care	-2760
▁ears	-2761
▁knit	-2762
▁lane	-2763
▁moto	-2764
▁ribb	-2765
▁wide	-2766
etrack	-2767
isting	-2768
ycling	-2769
▁eleph	-2770
▁focus	-2771
▁model	-2772
▁neigh	-2773
▁order	-2774
▁outst	-2775
▁print	-2776
▁ropes	-2777
▁wagon	-2778
▁cleans	-2779
▁cobble	-2780
▁native	-2781
▁rowing	-2782
▁studio	-2783
▁summer	-2784
▁things	-2785
▁benches	-2786
▁drummer	-2787
▁feeding	-2788
▁hallway	-2789
▁bathroom	-2790
▁headband	-2791
▁practice	-2792
▁vehicles	-2793
▁headscarf	-2794
▁horseback	-2795
▁machinery	-2796
▁motocross	-2797
▁orchestra	-2798
▁racetrack	-2799
▁discussion	-2800
▁individual	-2801
▁pedestrians	-2802
▁photographs	-2803
▁snowboarding	-2804
dd	-2805
ex	-2806
go	-2807
me	-2808
ges	-2809
hib	-2810
iet	-2811
ilo	-2812
mat	-2813
mon	-2814
uba	-2815
▁Mo	-2816
▁On	-2817
▁tu	-2818
ache	-2819
aked	-2820
ards	-2821
gged	-2822
ibly	-2823
reet	-2824
rier	-2825
▁She	-2826
▁ble	-2827
▁emb	-2828
▁reg	-2829
▁sal	-2830
▁tag	-2831
▁you	-2832
aking	-2833
aters	-2834
erial	-2835
iddle	-2836
jects	-2837
ption	-2838
▁arch	-2839
▁dish	-2840
▁entr	-2841
▁hosp	-2842
▁leaf	-2843
▁load	-2844
▁muzz	-2845
▁puck	-2846
▁sack	-2847
▁song	-2848
astern	-2849
iewing	-2850
yhound	-2851
▁Blond	-2852
▁Brown	-2853
▁cloud	-2854
▁coach	-2855
▁finis	-2856
▁patio	-2857
▁racer	-2858
▁smoke	-2859
borhood	-2860
▁banner	-2861
▁boxing	-2862
▁bushes	-2863
▁fruits	-2864
▁garage	-2865
▁patter	-2866
▁slides	-2867
▁speech	-2868
▁bottles	-2869
▁excited	-2870
▁interse	-2871
▁routine	-2872
▁barbecue	-2873
▁electron	-2874
▁hospital	-2875
▁mustache	-2876
▁sandwich	-2877
▁dreadlocks	-2878
▁passengers	-2879
▁skateboards	-2880
▁intersection	-2881
fa	-2882
ady	-2883
eum	-2884
lit	-2885
loy	-2886
uts	-2887
▁BM	-2888
▁Br	-2889
▁Ro	-2890
▁Sh	-2891
▁sy	-2892
boat	-2893
cess	-2894
down	-2895
iler	-2896
irth	-2897
quet	-2898
roon	-2899
▁aqu	-2900
▁aut	-2901
▁dim	-2902
▁nur	-2903
▁own	-2904
▁tho	-2905
▁vil	-2906
▁wea	-2907
aller	-2908
ently	-2909
house	-2910
pherd	-2911
truck	-2912
▁amid	-2913
▁bass	-2914
▁bill	-2915
▁keep	-2916
▁navy	-2917
▁pine	-2918
▁sail	-2919
▁surg	-2920
ightly	-2921
▁Crowd	-2922
▁Olymp	-2923
▁ahead	-2924
▁brush	-2925
▁exhib	-2926
▁fancy	-2927
▁funny	-2928
▁helps	-2929
▁paras	-2930
▁rough	-2931
▁sells	-2932
▁super	-2933
▁Street	-2934
▁bikers	-2935
▁maroon	-2936
▁museum	-2937
▁narrow	-2938
▁protes	-2939
▁baskets	-2940
▁indoors	-2941
▁leading	-2942
▁leaving	-2943
▁observe	-2944
▁patient	-2945
▁petting	-2946
▁stopped	-2947
▁tattoos	-2948
▁beverage	-2949
▁entrance	-2950
▁hillside	-2951
▁possibly	-2952
▁tattooed	-2953
▁boardwalk	-2954
▁handstand	-2955
▁microphones	-2956
▁neighborhood	-2957
eb	-2958
ded	-2959
flo	-2960
hou	-2961
ior	-2962
ook	-2963
wel	-2964
▁Ho	-2965
colo	-2966
ency	-2967
ions	-2968
▁Mus	-2969
▁bla	-2970
▁buy	-2971
▁cab	-2972
▁cal	-2973
▁del	-2974
▁dep	-2975
▁lan	-2976
▁pee	-2977
▁pen	-2978
▁tax	-2979
brary	-2980
fting	-2981
ially	-2982
onstr	-2983
rence	-2984
rents	-2985
▁Fire	-2986
▁Lady	-2987
▁bars	-2988
▁belt	-2989
▁brow	-2990
▁burg	-2991
▁calf	-2992
▁clay	-2993
▁duck	-2994
▁dune	-2995
▁free	-2996
▁item	-2997
▁lamp	-2998
▁main	-2999
▁mall	-3000
▁scre	-3001
▁spar	-3002
▁writ	-3003
ethnic	-3004
vision	-3005
▁Girls	-3006
▁Large	-3007
▁chase	-3008
▁condu	-3009
▁emerg	-3010
▁first	-3011
▁hotdo	-3012
▁lines	-3013
▁merch	-3014
▁organ	-3015
▁pitch	-3016
▁puppy	-3017
▁reach	-3018
▁rural	-3019
▁scuba	-3020
▁seats	-3021
▁terra	-3022
irthday	-3023
retched	-3024
tending	-3025
▁chains	-3026
▁defend	-3027
▁dishes	-3028
▁fluffy	-3029
▁mixing	-3030
▁moment	-3031
▁mostly	-3032
▁ornate	-3033
▁rubber	-3034
▁silhou	-3035
▁skates	-3036
▁spread	-3037
▁stones	-3038
▁stroll	-3039
▁transp	-3040
▁african	-3041
▁balding	-3042
▁buckets	-3043
▁fencing	-3044
▁folding	-3045
▁swimmer	-3046
▁turning	-3047
▁unicycle	-3048
▁cardboard	-3049
▁container	-3050
▁motorbike	-3051
▁squatting	-3052
▁uniformed	-3053
▁inspecting	-3054
▁sleeveless	-3055
▁storefront	-3056
▁stretching	-3057
▁celebrating	-3058
▁motorcyclist	-3059
▁outstretched	-3060
ai	-3061
pa	-3062
ato	-3063
des	-3064
nit	-3065
uum	-3066
▁ic	-3067
ames	-3068
eath	-3069
ider	-3070
ilar	-3071
ilst	-3072
inis	-3073
lded	-3074
pers	-3075
ucks	-3076
umer	-3077
▁Run	-3078
▁cro	-3079
▁dro	-3080
▁gas	-3081
▁got	-3082
▁hum	-3083
▁let	-3084
▁odd	-3085
asium	-3086
pical	-3087
stick	-3088
stone	-3089
urope	-3090
uting	-3091
▁Stud	-3092
▁bagp	-3093
▁bean	-3094
▁bund	-3095
▁calm	-3096
▁chee	-3097
▁clut	-3098
▁crew	-3099
▁hugs	-3100
▁kite	-3101
▁lear	-3102
▁name	-3103
▁pump	-3104
▁rink	-3105
▁stom	-3106
▁weat	-3107
▁wife	-3108
herman	-3109
ically	-3110
niture	-3111
▁activ	-3112
▁blows	-3113
▁bowls	-3114
▁choir	-3115
▁derby	-3116
▁doors	-3117
▁embra	-3118
▁grand	-3119
▁great	-3120
▁moder	-3121
▁newly	-3122
ference	-3123
▁baller	-3124
▁crafts	-3125
▁doctor	-3126
▁ethnic	-3127
▁member	-3128
▁pieces	-3129
▁shaped	-3130
▁smokes	-3131
▁stares	-3132
▁vacuum	-3133
▁whilst	-3134
▁balance	-3135
▁carving	-3136
▁catcher	-3137
▁cricket	-3138
▁library	-3139
▁listens	-3140
▁medical	-3141
▁scenery	-3142
▁stripes	-3143
▁trailer	-3144
▁wrestle	-3145
▁coloring	-3146
▁demonstr	-3147
▁flipping	-3148
▁grinding	-3149
▁necklace	-3150
▁spinning	-3151
▁apartment	-3152
▁computers	-3153
▁crouching	-3154
▁firetruck	-3155
▁following	-3156
▁guitarist	-3157
▁gymnasium	-3158
▁nighttime	-3159
▁discussing	-3160
▁reflective	-3161
▁cheerleaders	-3162
cc	-3163
da	-3164
box	-3165
clo	-3166
cul	-3167
gel	-3168
int	-3169
min	-3170
orm	-3171
reg	-3172
▁It	-3173
▁ru	-3174
born	-3175
eter	-3176
ians	-3177
ilts	-3178
izza	-3179
▁Mar	-3180
▁Spe	-3181
▁bul	-3182
▁cop	-3183
▁pop	-3184
▁pri	-3185
▁sco	-3186
borne	-3187
ctory	-3188
flops	-3189
iring	-3190
tails	-3191
▁bino	-3192
▁comm	-3193
▁cong	-3194
▁corn	-3195
▁cuts	-3196
▁dead	-3197
▁hang	-3198
▁heav	-3199
▁hits	-3200
▁lick	-3201
▁live	-3202
▁mini	-3203
▁more	-3204
▁mult	-3205
▁pret	-3206
▁sofa	-3207
▁tied	-3208
acting	-3209
usting	-3210
▁backs	-3211
▁chick	-3212
▁crane	-3213
▁dimly	-3214
▁explo	-3215
▁hoops	-3216
▁moped	-3217
▁naked	-3218
▁rainy	-3219
▁share	-3220
▁speed	-3221
▁style	-3222
▁tents	-3223
▁Middle	-3224
▁batter	-3225
▁branch	-3226
▁broken	-3227
▁castle	-3228
▁comfor	-3229
▁compan	-3230
▁finish	-3231
▁mobile	-3232
▁modern	-3233
▁raises	-3234
▁record	-3235
▁wheels	-3236
▁beneath	-3237
▁candles	-3238
▁closeup	-3239
▁crosses	-3240
▁engaged	-3241
▁fireman	-3242
▁loading	-3243
▁objects	-3244
▁pigeons	-3245
▁raising	-3246
▁similar	-3247
▁stomach	-3248
▁theater	-3249
▁viewing	-3250
▁village	-3251
▁balances	-3252
▁birthday	-3253
▁converse	-3254
▁elephant	-3255
▁intently	-3256
▁lounging	-3257
▁material	-3258
▁spraying	-3259
▁stairway	-3260
▁straight	-3261
▁training	-3262
▁billboard	-3263
▁furniture	-3264
▁greyhound	-3265
▁observing	-3266
▁partially	-3267
▁sprinkler	-3268
▁conference	-3269
▁electronic	-3270
▁protesting	-3271
▁approaching	-3272
▁cobblestone	-3273
▁surrounding	-3274
▁photographed	-3275
ef	-3276
ict	-3277
iss	-3278
ues	-3279
▁Le	-3280
▁Sk	-3281
late	-3282
long	-3283
orts	-3284
town	-3285
ways	-3286
▁bun	-3287
▁dec	-3288
▁dot	-3289
▁fet	-3290
▁rec	-3291
▁sad	-3292
▁sem	-3293
▁sne	-3294
arves	-3295
ctors	-3296
itors	-3297
ivers	-3298
rucks	-3299
ually	-3300
urity	-3301
welry	-3302
▁City	-3303
▁Mult	-3304
▁cape	-3305
▁cool	-3306
▁cree	-3307
▁doll	-3308
▁dusk	-3309
▁horn	-3310
▁nets	-3311
▁push	-3312
▁taxi	-3313
▁tick	-3314
barrow	-3315
culars	-3316
▁While	-3317
▁carry	-3318
▁craft	-3319
▁exper	-3320
▁flips	-3321
▁leads	-3322
▁retur	-3323
▁space	-3324
▁spoon	-3325
▁trunk	-3326
▁turns	-3327
boarder	-3328
colored	-3329
umerous	-3330
▁adjust	-3331
▁barber	-3332
▁called	-3333
▁casual	-3334
▁engine	-3335
▁groups	-3336
▁houses	-3337
▁liquid	-3338
▁papers	-3339
▁photos	-3340
▁plates	-3341
▁ribbon	-3342
▁shades	-3343
▁shaved	-3344
▁snowsh	-3345
▁amongst	-3346
▁college	-3347
▁control	-3348
▁follows	-3349
▁forward	-3350
▁jewelry	-3351
▁peering	-3352
▁rainbow	-3353
▁shovels	-3354
▁smaller	-3355
▁spotted	-3356
▁airborne	-3357
▁flowered	-3358
▁official	-3359
▁security	-3360
▁slightly	-3361
▁starting	-3362
▁teammate	-3363
▁practices	-3364
▁redheaded	-3365
▁binoculars	-3366
▁directions	-3367
▁television	-3368
▁advertising	-3369
▁participate	-3370
▁wheelbarrow	-3371
gy	-3372
no	-3373
ze	-3374
hus	-3375
itt	-3376
▁Ad	-3377
▁He	-3378
appy	-3379
ared	-3380
avig	-3381
cade	-3382
coat	-3383
ello	-3384
husi	-3385
ices	-3386
isle	-3387
izon	-3388
lish	-3389
oned	-3390
ored	-3391
sely	-3392
shaw	-3393
ures	-3394
view	-3395
wood	-3396
▁Red	-3397
▁ang	-3398
▁gri	-3399
▁hug	-3400
▁job	-3401
▁may	-3402
▁rem	-3403
▁sol	-3404
▁tee	-3405
▁tex	-3406
▁wig	-3407
aract	-3408
ately	-3409
inger	-3410
izing	-3411
ondon	-3412
ument	-3413
▁Amer	-3414
▁Tour	-3415
▁bank	-3416
▁caps	-3417
▁cras	-3418
▁craw	-3419
▁cray	-3420
▁fake	-3421
▁gift	-3422
▁gown	-3423
▁guns	-3424
▁inte	-3425
▁iron	-3426
▁lead	-3427
▁oven	-3428
▁pood	-3429
▁poor	-3430
▁remo	-3431
▁rick	-3432
▁seas	-3433
▁tech	-3434
▁upon	-3435
sleeve	-3436
weight	-3437
▁Cheer	-3438
▁aisle	-3439
▁angel	-3440
▁apple	-3441
▁camel	-3442
▁chefs	-3443
▁dough	-3444
▁drill	-3445
▁flute	-3446
▁glove	-3447
▁press	-3448
▁quick	-3449
▁races	-3450
▁shops	-3451
▁silly	-3452
▁sized	-3453
▁sniff	-3454
▁steel	-3455
▁tight	-3456
▁Europe	-3457
▁London	-3458
▁Soccer	-3459
▁biking	-3460
▁butter	-3461
▁donkey	-3462
▁employ	-3463
▁nature	-3464
▁pretty	-3465
▁scream	-3466
▁shakes	-3467
▁social	-3468
▁target	-3469
▁wading	-3470
▁barrier	-3471
▁bystand	-3472
▁cameras	-3473
▁charact	-3474
▁coaster	-3475
▁congreg	-3476
▁contest	-3477
▁lifting	-3478
▁newborn	-3479
▁pottery	-3480
▁praying	-3481
▁repairs	-3482
▁terrain	-3483
▁weaving	-3484
▁Multiple	-3485
▁Students	-3486
▁admiring	-3487
▁bleacher	-3488
▁downtown	-3489
▁machines	-3490
▁rickshaw	-3491
▁sneakers	-3492
▁snowsuit	-3493
▁splashes	-3494
▁tourists	-3495
▁tricycle	-3496
▁Caucasian	-3497
▁attention	-3498
▁ballerina	-3499
▁fisherman	-3500
▁passenger	-3501
▁receiving	-3502
▁telephone	-3503
▁consisting	-3504
▁interacting	-3505
▁Cheerleaders	-3506
▁firefighters	-3507
gu	-3508
ky	-3509
my	-3510
py	-3511
vi	-3512
xy	-3513
▁'	-3514
aps	-3515
arn	-3516
bal	-3517
bby	-3518
can	-3519
dan	-3520
ils	-3521
ked	-3522
nam	-3523
ots	-3524
ude	-3525
urf	-3526
urs	-3527
val	-3528
vie	-3529
wor	-3530
zen	-3531
▁Mc	-3532
▁aw	-3533
▁pr	-3534
bris	-3535
girl	-3536
hill	-3537
ific	-3538
mony	-3539
onal	-3540
tain	-3541
undy	-3542
▁Pla	-3543
▁Pol	-3544
▁bin	-3545
▁bit	-3546
▁fit	-3547
▁hut	-3548
▁jet	-3549
▁mis	-3550
▁rel	-3551
▁sty	-3552
▁tom	-3553
▁tor	-3554
▁ump	-3555
brush	-3556
illed	-3557
iment	-3558
style	-3559
▁Boys	-3560
▁been	-3561
▁bite	-3562
▁call	-3563
▁come	-3564
▁cups	-3565
▁eggs	-3566
▁leot	-3567
▁loom	-3568
▁mass	-3569
▁mitt	-3570
▁scru	-3571
▁sele	-3572
▁semi	-3573
▁tray	-3574
▁unus	-3575
andise	-3576
crosse	-3577
orting	-3578
▁China	-3579
▁banan	-3580
▁bound	-3581
▁eight	-3582
▁juice	-3583
▁knife	-3584
▁messy	-3585
▁navig	-3586
▁patch	-3587
▁pizza	-3588
▁scout	-3589
▁still	-3590
▁tires	-3591
▁tower	-3592
▁wings	-3593
▁checks	-3594
▁commun	-3595
▁debris	-3596
▁handle	-3597
▁instru	-3598
▁lounge	-3599
▁medium	-3600
▁played	-3601
▁portra	-3602
▁single	-3603
▁skiers	-3604
▁sweeps	-3605
▁brother	-3606
▁descent	-3607
▁enthusi	-3608
▁express	-3609
▁factory	-3610
▁feather	-3611
▁handing	-3612
▁horizon	-3613
▁landing	-3614
▁laptops	-3615
▁lecture	-3616
▁meeting	-3617
▁sailing	-3618
▁shining	-3619
▁touches	-3620
▁weather	-3621
▁wheelie	-3622
▁applying	-3623
▁breakdan	-3624
▁browsing	-3625
▁burgundy	-3626
▁ceremony	-3627
▁chainsaw	-3628
▁clapping	-3629
▁customer	-3630
▁entering	-3631
▁examines	-3632
▁exercise	-3633
▁forehead	-3634
▁gestures	-3635
▁lacrosse	-3636
▁learning	-3637
▁observes	-3638
▁overhead	-3639
▁studying	-3640
▁swimmers	-3641
▁teaching	-3642
▁tropical	-3643
▁waterway	-3644
▁attending	-3645
▁bleachers	-3646
▁emergency	-3647
▁groceries	-3648
▁repairing	-3649
▁transport	-3650
▁gymnastics	-3651
▁overweight	-3652
▁performers	-3653
▁waterfront	-3654
▁merchandise	-3655
▁rollerblading	-3656
eu	-3657
ga	-3658
of	-3659
oh	-3660
con	-3661
cra	-3662
ham	-3663
kin	-3664
kis	-3665
lue	-3666
quo	-3667
tor	-3668
tub	-3669
ule	-3670
vil	-3671
▁Be	-3672
▁Ph	-3673
▁Sc	-3674
▁Sw	-3675
▁ax	-3676
▁if	-3677
ably	-3678
anad	-3679
bank	-3680
bies	-3681
cked	-3682
eled	-3683
fire	-3684
hand	-3685
ilot	-3686
leas	-3687
lies	-3688
lons	-3689
mark	-3690
mboo	-3691
rent	-3692
tail	-3693
ults	-3694
umin	-3695
▁Com	-3696
▁Fem	-3697
▁Mex	-3698
▁adv	-3699
▁aim	-3700
▁awa	-3701
▁cot	-3702
▁dad	-3703
▁imp	-3704
▁inj	-3705
▁lar	-3706
▁mow	-3707
▁occ	-3708
▁pow	-3709
▁pun	-3710
▁sen	-3711
▁tea	-3712
▁tug	-3713
anges	-3714
anish	-3715
arter	-3716
bbing	-3717
imate	-3718
ities	-3719
lared	-3720
robat	-3721
romat	-3722
▁Bear	-3723
▁blur	-3724
▁clad	-3725
▁draw	-3726
▁flat	-3727
▁give	-3728
▁hear	-3729
▁logs	-3730
▁meas	-3731
▁recl	-3732
▁scra	-3733
▁seco	-3734
▁skin	-3735
▁soda	-3736
▁tape	-3737
▁teal	-3738
▁wake	-3739
▁wrap	-3740
▁yarn	-3741
▁yoga	-3742
compan	-3743
enting	-3744
ipping	-3745
reline	-3746
▁assem	-3747
▁attra	-3748
▁backd	-3749
▁banjo	-3750
▁brief	-3751
▁carts	-3752
▁cheek	-3753
▁chess	-3754
▁comes	-3755
▁creek	-3756
▁crown	-3757
▁desce	-3758
▁games	-3759
▁hotel	-3760
▁knees	-3761
▁movie	-3762
▁noteb	-3763
▁opens	-3764
▁picks	-3765
▁power	-3766
▁purch	-3767
▁rally	-3768
▁range	-3769
▁recor	-3770
▁score	-3771
▁sides	-3772
▁speak	-3773
▁stops	-3774
▁treat	-3775
▁wares	-3776
▁wires	-3777
▁world	-3778
ational	-3779
▁amidst	-3780
▁assist	-3781
▁attend	-3782
▁ballet	-3783
▁bamboo	-3784
▁beanie	-3785
▁belong	-3786
▁bricks	-3787
▁handra	-3788
▁huddle	-3789
▁inform	-3790
▁kayaks	-3791
▁lifted	-3792
▁listen	-3793
▁places	-3794
▁tackle	-3795
▁tights	-3796
▁umpire	-3797
American	-3798
▁Runners	-3799
▁boulder	-3800
▁bouquet	-3801
▁chicken	-3802
▁crossed	-3803
▁exhibit	-3804
▁filling	-3805
▁firemen	-3806
▁focused	-3807
▁heading	-3808
▁paddles	-3809
▁pillows	-3810
▁placing	-3811
▁science	-3812
▁shadows	-3813
▁strange	-3814
▁tossing	-3815
▁tourist	-3816
▁trolley	-3817
▁vendors	-3818
▁watched	-3819
▁waterme	-3820
▁alleyway	-3821
▁bagpipes	-3822
▁blankets	-3823
▁casually	-3824
▁chatting	-3825
▁complete	-3826
▁inspects	-3827
▁monument	-3828
▁multiple	-3829
▁pigtails	-3830
▁ponytail	-3831
▁scaffold	-3832
▁scooters	-3833
▁suitcase	-3834
▁visiting	-3835
▁wrestler	-3836
▁adjusting	-3837
▁beverages	-3838
▁formation	-3839
▁headdress	-3840
▁paperwork	-3841
▁shoreline	-3842
▁snowshoes	-3843
▁traveling	-3844
▁bystanders	-3845
▁chalkboard	-3846
▁laundromat	-3847
▁newspapers	-3848
▁reflection	-3849
▁countryside	-3850
▁firefighter	-3851
▁motorcyclists	-3852
fo	-3853
act	-3854
ama	-3855
bag	-3856
bed	-3857
bre	-3858
een	-3859
ees	-3860
hop	-3861
ker	-3862
oth	-3863
ray	-3864
rie	-3865
ula	-3866
▁Ba	-3867
▁el	-3868
▁ge	-3869
▁my	-3870
bles	-3871
ened	-3872
gers	-3873
ikes	-3874
iner	-3875
mmed	-3876
pids	-3877
ters	-3878
zing	-3879
▁McD	-3880
▁acc	-3881
▁coo	-3882
▁fac	-3883
▁fle	-3884
▁hom	-3885
▁ill	-3886
▁joy	-3887
▁jud	-3888
▁kno	-3889
▁mug	-3890
▁mur	-3891
▁pir	-3892
▁rif	-3893
▁rod	-3894
▁saw	-3895
▁sep	-3896
▁sla	-3897
▁str	-3898
▁tut	-3899
▁tux	-3900
alley	-3901
ersby	-3902
ising	-3903
ments	-3904
oping	-3905
where	-3906
▁Army	-3907
▁Play	-3908
▁Teen	-3909
▁ador	-3910
▁bron	-3911
▁bush	-3912
▁cage	-3913
▁cans	-3914
▁case	-3915
▁char	-3916
▁cute	-3917
▁elev	-3918
▁even	-3919
▁hike	-3920
▁lean	-3921
▁link	-3922
▁masc	-3923
▁pill	-3924
▁rice	-3925
▁rust	-3926
▁soap	-3927
▁stir	-3928
▁tail	-3929
▁than	-3930
▁tiny	-3931
▁weap	-3932
▁whis	-3933
▁whom	-3934
quoise	-3935
▁beret	-3936
▁blind	-3937
▁built	-3938
▁cello	-3939
▁coast	-3940
▁diver	-3941
▁dives	-3942
▁dusty	-3943
▁falls	-3944
▁gazes	-3945
▁hills	-3946
▁lifts	-3947
▁march	-3948
▁mower	-3949
▁salon	-3950
▁stall	-3951
▁touch	-3952
itorium	-3953
resting	-3954
▁Female	-3955
▁Mohawk	-3956
▁Police	-3957
▁Roller	-3958
▁arcade	-3959
▁autumn	-3960
▁biting	-3961
▁blazer	-3962
▁boards	-3963
▁contra	-3964
▁covers	-3965
▁farmer	-3966
▁floats	-3967
▁folded	-3968
▁headed	-3969
▁hotdog	-3970
▁indian	-3971
▁khakis	-3972
▁lanter	-3973
▁larger	-3974
▁motion	-3975
▁parasa	-3976
▁placed	-3977
▁pocket	-3978
▁racers	-3979
▁rapids	-3980
▁retrie	-3981
▁second	-3982
▁serves	-3983
▁skater	-3984
▁thumbs	-3985
▁valley	-3986
▁McDonal	-3987
▁acrobat	-3988
▁artwork	-3989
▁butterf	-3990
▁camping	-3991
▁closely	-3992
▁constru	-3993
▁cowboys	-3994
▁gathers	-3995
▁highway	-3996
▁lighted	-3997
▁located	-3998
▁oranges	-3999
▁parents	-4000
▁process	-4001
▁puppies	-4002
▁quarter	-4003
▁scarves	-4004
▁skaters	-4005
▁stacked	-4006
▁surgery	-4007
▁visible	-4008
▁accompan	-4009
▁athletes	-4010
▁backdrop	-4011
▁chopping	-4012
▁circular	-4013
▁homeless	-4014
▁involved	-4015
▁location	-4016
▁planting	-4017
▁sunlight	-4018
▁supplies	-4019
▁tackling	-4020
▁carefully	-4021
▁christmas	-4022
▁finishing	-4023
▁highchair	-4024
▁interview	-4025
▁involving	-4026
▁magazines	-4027
▁motorized	-4028
▁parachute	-4029
▁patterned	-4030
▁playfully	-4031
▁screaming	-4032
▁swimsuits	-4033
▁turquoise	-4034
▁underwear	-4035
▁auditorium	-4036
▁suspenders	-4037
▁celebration	-4038
▁rollerskating	-4039
wl	-4040
yd	-4041
ake	-4042
boy	-4043
era	-4044
ize	-4045
lon	-4046
ney	-4047
ohn	-4048
ora	-4049
vas	-4050
▁El	-4051
▁Is	-4052
▁av	-4053
▁ut	-4054
ague	-4055
amed	-4056
aris	-4057
body	-4058
cake	-4059
chan	-4060
eler	-4061
entr	-4062
enue	-4063
ftop	-4064
iage	-4065
icop	-4066
illy	-4067
lose	-4068
ries	-4069
stro	-4070
▁Ped	-4071
▁Pro	-4072
▁Squ	-4073
▁bor	-4074
▁dom	-4075
▁est	-4076
▁fat	-4077
▁fed	-4078
▁hun	-4079
▁hyd	-4080
▁ing	-4081
▁lip	-4082
▁rad	-4083
▁sym	-4084
▁syn	-4085
▁tem	-4086
agull	-4087
aling	-4088
antly	-4089
encil	-4090
ients	-4091
ifier	-4092
lined	-4093
right	-4094
wning	-4095
▁Asia	-4096
▁Baby	-4097
▁Band	-4098
▁Coup	-4099
▁army	-4100
▁arri	-4101
▁buff	-4102
▁cann	-4103
▁cash	-4104
▁disc	-4105
▁dive	-4106
▁done	-4107
▁gaze	-4108
▁goat	-4109
▁hind	-4110
▁lens	-4111
▁menu	-4112
▁news	-4113
▁pins	-4114
▁pots	-4115
▁rows	-4116
▁sque	-4117
▁text	-4118
▁unlo	-4119
▁vict	-4120
▁will	-4121
allery	-4122
coming	-4123
ggings	-4124
igning	-4125
iously	-4126
loseup	-4127
orning	-4128
sticks	-4129
vering	-4130
▁Canad	-4131
▁Music	-4132
▁Photo	-4133
▁apart	-4134
▁belts	-4135
▁blood	-4136
▁cards	-4137
▁cooks	-4138
▁furry	-4139
▁lobby	-4140
▁maneu	-4141
▁mount	-4142
▁point	-4143
▁serve	-4144
▁shape	-4145
▁shiny	-4146
▁staff	-4147
▁story	-4148
▁techn	-4149
▁tooth	-4150
▁torch	-4151
▁tread	-4152
▁twirl	-4153
▁types	-4154
▁venue	-4155
estrian	-4156
icopter	-4157
tenance	-4158
▁School	-4159
▁Square	-4160
▁aprons	-4161
▁booths	-4162
▁candle	-4163
▁canvas	-4164
▁cheese	-4165
▁clouds	-4166
▁cotton	-4167
▁crates	-4168
▁frozen	-4169
▁harves	-4170
▁hiding	-4171
▁indust	-4172
▁patron	-4173
▁stilts	-4174
▁ticket	-4175
▁trench	-4176
▁tribal	-4177
▁tripod	-4178
▁trucks	-4179
▁turned	-4180
▁upward	-4181
▁walked	-4182
▁washer	-4183
▁washes	-4184
▁writes	-4185
▁Bearded	-4186
▁Closeup	-4187
▁Elderly	-4188
▁adjusts	-4189
▁brushes	-4190
▁burning	-4191
▁butcher	-4192
▁cameram	-4193
▁chinese	-4194
▁couples	-4195
▁eastern	-4196
▁foliage	-4197
▁gallery	-4198
▁heavily	-4199
▁incline	-4200
▁injured	-4201
▁juggles	-4202
▁kickbox	-4203
▁leotard	-4204
▁monitor	-4205
▁numbers	-4206
▁pathway	-4207
▁printed	-4208
▁quickly	-4209
▁rafting	-4210
▁rooftop	-4211
▁section	-4212
▁special	-4213
▁sprayed	-4214
▁unusual	-4215
▁workout	-4216
▁Olympics	-4217
▁activity	-4218
▁branches	-4219
▁collared	-4220
▁concentr	-4221
▁creating	-4222
▁crouched	-4223
▁displays	-4224
▁driveway	-4225
▁dumpster	-4226
▁facility	-4227
▁handrail	-4228
▁kayaking	-4229
▁leggings	-4230
▁lighting	-4231
▁portrait	-4232
▁products	-4233
▁roadside	-4234
▁shepherd	-4235
▁sideways	-4236
▁stepping	-4237
▁toddlers	-4238
▁trashcan	-4239
▁workshop	-4240
▁butterfly	-4241
▁celebrate	-4242
▁cluttered	-4243
▁displayed	-4244
▁earphones	-4245
▁embracing	-4246
▁passersby	-4247
▁recording	-4248
▁wakeboard	-4249
▁Spectators	-4250
▁approaches	-4251
▁belongings	-4252
▁decorative	-4253
▁department	-4254
▁displaying	-4255
▁enthusiast	-4256
▁experiment	-4257
▁silhouette	-4258
▁Pedestrians	-4259
▁contraption	-4260
▁interesting	-4261
▁parasailing	-4262
▁quarterback	-4263
▁transportation	-4264
og	-4265
po	-4266
alt	-4267
ank	-4268
ata	-4269
edo	-4270
hat	-4271
ief	-4272
lac	-4273
opo	-4274
phy	-4275
pie	-4276
pit	-4277
ris	-4278
rit	-4279
tie	-4280
▁Lo	-4281
ager	-4282
ders	-4283
dles	-4284
ided	-4285
iger	-4286
imes	-4287
inet	-4288
itiz	-4289
lled	-4290
most	-4291
noon	-4292
ooks	-4293
rant	-4294
rial	-4295
rous	-4296
stri	-4297
utes	-4298
wear	-4299
▁Bic	-4300
▁Haw	-4301
▁Tex	-4302
▁dol	-4303
▁eas	-4304
▁ela	-4305
▁fer	-4306
▁gal	-4307
▁hol	-4308
▁icy	-4309
▁maj	-4310
▁mes	-4311
▁pay	-4312
▁pon	-4313
▁sam	-4314
▁sat	-4315
▁swe	-4316
▁unf	-4317
▁unh	-4318
▁vol	-4319
annel	-4320
armon	-4321
ashes	-4322
atoes	-4323
atory	-4324
bbles	-4325
chron	-4326
count	-4327
craft	-4328
cular	-4329
herry	-4330
ikers	-4331
itive	-4332
orted	-4333
ution	-4334
vices	-4335
viron	-4336
▁Blue	-4337
▁Lots	-4338
▁They	-4339
▁chin	-4340
▁conf	-4341
▁deli	-4342
▁dest	-4343
▁fell	-4344
▁flam	-4345
▁fork	-4346
▁gest	-4347
▁here	-4348
▁jogs	-4349
▁kilt	-4350
▁lass	-4351
▁late	-4352
▁pads	-4353
▁pale	-4354
▁peer	-4355
▁prop	-4356
▁rabb	-4357
▁sees	-4358
▁shel	-4359
▁task	-4360
▁tast	-4361
▁ware	-4362
colate	-4363
ensive	-4364
igious	-4365
lowing	-4366
nament	-4367
ucking	-4368
usband	-4369
▁Eight	-4370
▁Skate	-4371
▁aband	-4372
▁bends	-4373
▁brass	-4374
▁bulld	-4375
▁colum	-4376
▁doesn	-4377
▁ducks	-4378
▁estab	-4379
▁every	-4380
▁grabs	-4381
▁gradu	-4382
▁guide	-4383
▁labor	-4384
▁notes	-4385
▁overs	-4386
▁pilot	-4387
▁quiet	-4388
▁rifle	-4389
▁rings	-4390
▁seven	-4391
▁smoot	-4392
▁spark	-4393
▁spect	-4394
▁squee	-4395
▁stoop	-4396
▁stump	-4397
▁surfs	-4398
▁teens	-4399
▁tiled	-4400
▁waist	-4401
ination	-4402
leading	-4403
striped	-4404
umbling	-4405
vention	-4406
▁Adults	-4407
▁Couple	-4408
▁Hockey	-4409
▁Mother	-4410
▁almost	-4411
▁begins	-4412
▁camels	-4413
▁cherry	-4414
▁clowns	-4415
▁elabor	-4416
▁fishes	-4417
▁gazing	-4418
▁harmon	-4419
▁images	-4420
▁ingred	-4421
▁jumped	-4422
▁jumper	-4423
▁loaded	-4424
▁mechan	-4425
▁monkey	-4426
▁muzzle	-4427
▁pencil	-4428
▁pinata	-4429
▁really	-4430
▁sawing	-4431
▁scenic	-4432
▁scient	-4433
▁scouts	-4434
▁shaggy	-4435
▁sunbat	-4436
▁temple	-4437
▁turban	-4438
▁turtle	-4439
▁unique	-4440
▁weight	-4441
▁America	-4442
▁Mexican	-4443
▁Smiling	-4444
▁arrange	-4445
▁bathtub	-4446
▁bedroom	-4447
▁chewing	-4448
▁cleaner	-4449
▁complex	-4450
▁cycling	-4451
▁designs	-4452
▁environ	-4453
▁figures	-4454
▁illumin	-4455
▁morning	-4456
▁painter	-4457
▁pattern	-4458
▁peeking	-4459
▁pumpkin	-4460
▁seagull	-4461
▁sorting	-4462
▁strolls	-4463
▁tending	-4464
▁unhappy	-4465
▁Canadian	-4466
▁Shepherd	-4467
▁accident	-4468
▁bouncing	-4469
▁checkers	-4470
▁dragging	-4471
▁grabbing	-4472
▁notebook	-4473
▁operates	-4474
▁raincoat	-4475
▁sailboat	-4476
▁sniffing	-4477
▁sparring	-4478
▁speeding	-4479
▁strapped	-4480
▁synchron	-4481
▁waterski	-4482
▁afternoon	-4483
▁bicycling	-4484
▁caucasian	-4485
▁chocolate	-4486
▁featuring	-4487
▁gardening	-4488
▁gesturing	-4489
▁projector	-4490
▁warehouse	-4491
▁cellphones	-4492
▁chopsticks	-4493
▁containing	-4494
▁helicopter	-4495
▁industrial	-4496
▁presenting	-4497
▁toothbrush	-4498
▁decorations	-4499
▁environment	-4500
▁ingredients	-4501
▁breakdancing	-4502
▁rollerblades	-4503
oy	-4504
bur	-4505
den	-4506
net	-4507
oms	-4508
war	-4509
zes	-4510
▁Am	-4511
▁NY	-4512
▁ja	-4513
▁ox	-4514
▁py	-4515
▁wo	-4516
▁xy	-4517
ades	-4518
aint	-4519
apes	-4520
cart	-4521
ells	-4522
enga	-4523
ense	-4524
esma	-4525
iety	-4526
igan	-4527
keys	-4528
mill	-4529
mock	-4530
nequ	-4531
onge	-4532
seat	-4533
used	-4534
▁ATM	-4535
▁Mem	-4536
▁Rod	-4537
▁Sub	-4538
▁bad	-4539
▁had	-4540
▁hip	-4541
▁kim	-4542
▁nun	-4543
▁our	-4544
▁say	-4545
▁sle	-4546
▁too	-4547
aiian	-4548
apped	-4549
arium	-4550
beled	-4551
cause	-4552
cloth	-4553
emade	-4554
green	-4555
inder	-4556
mming	-4557
opoly	-4558
osaur	-4559
panic	-4560
paved	-4561
riers	-4562
sized	-4563
sters	-4564
tured	-4565
wheel	-4566
works	-4567
▁Brit	-4568
▁Dogs	-4569
▁Elmo	-4570
▁anti	-4571
▁aqua	-4572
▁asce	-4573
▁chis	-4574
▁find	-4575
▁fort	-4576
▁grab	-4577
▁hook	-4578
▁jeep	-4579
▁lion	-4580
▁lips	-4581
▁mail	-4582
▁much	-4583
▁nail	-4584
▁riot	-4585
▁shar	-4586
▁skim	-4587
▁skyd	-4588
▁spat	-4589
▁spin	-4590
▁tags	-4591
▁tutu	-4592
▁vibr	-4593
▁vint	-4594
▁xylo	-4595
▁year	-4596
alling	-4597
arious	-4598
lights	-4599
stroke	-4600
tender	-4601
▁India	-4602
▁Texas	-4603
▁arrow	-4604
▁beads	-4605
▁camps	-4606
▁canal	-4607
▁cigar	-4608
▁citiz	-4609
▁conne	-4610
▁cries	-4611
▁deser	-4612
▁diner	-4613
▁draws	-4614
▁dryer	-4615
▁easel	-4616
▁flash	-4617
▁human	-4618
▁ident	-4619
▁lasso	-4620
▁level	-4621
▁marsh	-4622
▁masks	-4623
▁maybe	-4624
▁midst	-4625
▁mixer	-4626
▁murky	-4627
▁peers	-4628
▁plain	-4629
▁pours	-4630
▁punch	-4631
▁shack	-4632
▁skies	-4633
▁skull	-4634
▁spins	-4635
▁sprin	-4636
▁stuck	-4637
▁tiger	-4638
▁tired	-4639
▁toile	-4640
▁upset	-4641
▁visor	-4642
mercial	-4643
▁Asians	-4644
▁Native	-4645
▁Yellow	-4646
▁amount	-4647
▁babies	-4648
▁battle	-4649
▁bundle	-4650
▁buried	-4651
▁cannon	-4652
▁canoes	-4653
▁draped	-4654
▁extend	-4655
▁frying	-4656
▁grinds	-4657
▁histor	-4658
▁judges	-4659
▁kisses	-4660
▁lively	-4661
▁looked	-4662
▁marble	-4663
▁mohawk	-4664
▁mouths	-4665
▁nurses	-4666
▁packed	-4667
▁poodle	-4668
▁potato	-4669
▁purses	-4670
▁scrubs	-4671
▁shield	-4672
▁shower	-4673
▁skills	-4674
▁skinny	-4675
▁speeds	-4676
▁sprays	-4677
▁strugg	-4678
▁termin	-4679
▁trains	-4680
▁waiter	-4681
alloween	-4682
fighters	-4683
lishment	-4684
▁Eastern	-4685
▁Olympic	-4686
▁Spanish	-4687
▁bananas	-4688
▁banners	-4689
▁barbecu	-4690
▁because	-4691
▁bikinis	-4692
▁carrier	-4693
▁classic	-4694
▁columns	-4695
▁company	-4696
▁crayons	-4697
▁daytime	-4698
▁digital	-4699
▁earring	-4700
▁examine	-4701
▁farmers	-4702
▁filming	-4703
▁flannel	-4704
▁hammock	-4705
▁husband	-4706
▁hydrant	-4707
▁labeled	-4708
▁licking	-4709
▁mannequ	-4710
▁mounted	-4711
▁napping	-4712
▁package	-4713
▁product	-4714
▁protect	-4715
▁service	-4716
▁shirted	-4717
▁signing	-4718
▁speaker	-4719
▁strings	-4720
▁support	-4721
▁tackled	-4722
▁vending	-4723
▁victory	-4724
▁vintage	-4725
▁Hawaiian	-4726
▁aquarium	-4727
▁backseat	-4728
▁bridesma	-4729
▁campfire	-4730
▁communic	-4731
▁crashing	-4732
▁darkened	-4733
▁dinosaur	-4734
▁downhill	-4735
▁followed	-4736
▁forested	-4737
▁hardwood	-4738
▁homemade	-4739
▁monitors	-4740
▁numerous	-4741
▁prepared	-4742
▁punching	-4743
▁shoppers	-4744
▁silhouet	-4745
▁sledding	-4746
▁splashed	-4747
▁striking	-4748
▁stringed	-4749
▁surgical	-4750
▁abandoned	-4751
▁bartender	-4752
▁companion	-4753
▁conductor	-4754
▁directing	-4755
▁fountains	-4756
▁hammering	-4757
▁harmonica	-4758
▁measuring	-4759
▁miniature	-4760
▁navigates	-4761
▁religious	-4762
▁spotlight	-4763
▁squeezing	-4764
▁stretches	-4765
▁strollers	-4766
▁strolling	-4767
▁teammates	-4768
▁tracksuit	-4769
▁barefooted	-4770
▁commercial	-4771
▁laboratory	-4772
▁tournament	-4773
▁destination	-4774
▁maintenance	-4775
▁mountainous	-4776
▁underground	-4777
▁waterskiing	-4778
▁Firefighters	-4779
▁Skateboarder	-4780
▁cheerleading	-4781
▁synchronized	-4782
▁demonstration	-4783
▁establishment	-4784
Bo	-4785
eg	-4786
eo	-4787
rs	-4788
ami	-4789
cam	-4790
car	-4791
dri	-4792
elf	-4793
lim	-4794
ola	-4795
omo	-4796
opy	-4797
rab	-4798
rat	-4799
ume	-4800
wed	-4801
yed	-4802
▁Pa	-4803
▁ec	-4804
▁iP	-4805
▁id	-4806
▁ol	-4807
adow	-4808
bled	-4809
food	-4810
gger	-4811
icle	-4812
ises	-4813
itch	-4814
kier	-4815
lent	-4816
nder	-4817
ngth	-4818
ongo	-4819
opes	-4820
pect	-4821
uzzy	-4822
yset	-4823
▁Cla	-4824
▁Fis	-4825
▁Lat	-4826
▁Mil	-4827
▁Par	-4828
▁Tod	-4829
▁any	-4830
▁dam	-4831
▁dou	-4832
▁fog	-4833
▁inc	-4834
▁min	-4835
▁mos	-4836
▁oil	-4837
▁rag	-4838
▁rav	-4839
▁rip	-4840
▁sip	-4841
▁ske	-4842
▁tas	-4843
▁zip	-4844
aping	-4845
berry	-4846
cases	-4847
fetti	-4848
ieval	-4849
lacks	-4850
lines	-4851
oming	-4852
opard	-4853
ramid	-4854
sping	-4855
tress	-4856
tting	-4857
urfer	-4858
▁Arab	-4859
▁Base	-4860
▁Cafe	-4861
▁Coca	-4862
▁Colo	-4863
▁Dark	-4864
▁Food	-4865
▁Foot	-4866
▁Guys	-4867
▁Seat	-4868
▁Soon	-4869
▁Star	-4870
▁Swim	-4871
▁Walm	-4872
▁acce	-4873
▁aged	-4874
▁ages	-4875
▁bump	-4876
▁cave	-4877
▁chip	-4878
▁clar	-4879
▁cock	-4880
▁dess	-4881
▁emer	-4882
▁file	-4883
▁fill	-4884
▁flee	-4885
▁inst	-4886
▁laid	-4887
▁laun	-4888
▁lock	-4889
▁logo	-4890
▁lush	-4891
▁monk	-4892
▁pans	-4893
▁pops	-4894
▁resp	-4895
▁roll	-4896
▁rugs	-4897
▁sear	-4898
▁slic	-4899
▁soup	-4900
▁tarp	-4901
▁wash	-4902
▁were	-4903
▁when	-4904
▁wond	-4905
bbling	-4906
ements	-4907
endors	-4908
erness	-4909
friend	-4910
hedral	-4911
itical	-4912
leader	-4913
market	-4914
monial	-4915
shaped	-4916
▁Green	-4917
▁Local	-4918
▁Shirt	-4919
▁await	-4920
▁award	-4921
▁beers	-4922
▁begin	-4923
▁bongo	-4924
▁boxer	-4925
▁brace	-4926
▁broad	-4927
▁cargo	-4928
▁cocon	-4929
▁crate	-4930
▁crest	-4931
▁crops	-4932
▁daily	-4933
▁desks	-4934
▁dolls	-4935
▁drawn	-4936
▁enclo	-4937
▁extre	-4938
▁fetch	-4939
▁flock	-4940
▁foggy	-4941
▁foods	-4942
▁fuzzy	-4943
▁greet	-4944
▁holid	-4945
▁kimon	-4946
▁laden	-4947
▁lands	-4948
▁lower	-4949
▁named	-4950
▁nurse	-4951
▁olive	-4952
▁peaks	-4953
▁plank	-4954
▁rolls	-4955
▁sharp	-4956
▁shawl	-4957
▁shing	-4958
▁stock	-4959
▁sunsh	-4960
▁thick	-4961
▁winds	-4962
▁wrist	-4963
country	-4964
grapher	-4965
mentary	-4966
▁Custom	-4967
▁Muslim	-4968
▁Worker	-4969
▁acting	-4970
▁attent	-4971
▁barely	-4972
▁barric	-4973
▁bounds	-4974
▁boxers	-4975
▁buffet	-4976
▁bulldo	-4977
▁casino	-4978
▁chased	-4979
▁collie	-4980
▁column	-4981
▁crawls	-4982
▁create	-4983
▁divers	-4984
▁drying	-4985
▁fedora	-4986
▁fellow	-4987
▁fields	-4988
▁guards	-4989
▁hambur	-4990
▁harbor	-4991
▁league	-4992
▁lining	-4993
▁marked	-4994
▁marker	-4995
▁mascot	-4996
▁meadow	-4997
▁mowing	-4998
▁parent	-4999
▁picket	-5000
▁pirate	-5001
▁puppet	-5002
▁pushed	-5003
▁releas	-5004
▁resort	-5005
▁rustic	-5006
▁season	-5007
▁series	-5008
▁slacks	-5009
▁snacks	-5010
▁spring	-5011
▁squats	-5012
▁stance	-5013
▁stores	-5014
▁stripe	-5015
▁though	-5016
▁trophy	-5017
▁typing	-5018
▁videot	-5019
▁British	-5020
▁Members	-5021
▁Players	-5022
▁Toddler	-5023
▁Walmart	-5024
▁adorned	-5025
▁artists	-5026
▁barrels	-5027
▁beating	-5028
▁blurred	-5029
▁casting	-5030
▁exiting	-5031
▁flaming	-5032
▁hotdogs	-5033
▁leopard	-5034
▁muzzled	-5035
▁paralle	-5036
▁pointed	-5037
▁pyramid	-5038
▁seafood	-5039
▁seating	-5040
▁skyline	-5041
▁texting	-5042
▁topless	-5043
▁transit	-5044
▁travels	-5045
▁upwards	-5046
▁variety	-5047
▁vibrant	-5048
▁warming	-5049
▁wheeled	-5050
▁Baseball	-5051
▁Brunette	-5052
▁European	-5053
▁Football	-5054
▁Numerous	-5055
▁Tourists	-5056
▁bodysuit	-5057
▁defender	-5058
▁designed	-5059
▁employee	-5060
▁finished	-5061
▁lanterns	-5062
▁mattress	-5063
▁muscular	-5064
▁ordering	-5065
▁purchase	-5066
▁railings	-5067
▁separate	-5068
▁snowball	-5069
▁starring	-5070
▁trotting	-5071
▁woodland	-5072
▁Customers	-5073
▁Musicians	-5074
▁Rollerbla	-5075
▁acrobatic	-5076
▁cameraman	-5077
▁cartwheel	-5078
▁cathedral	-5079
▁character	-5080
▁condition	-5081
▁elaborate	-5082
▁employees	-5083
▁fireworks	-5084
▁jumpsuits	-5085
▁necklaces	-5086
▁political	-5087
▁reception	-5088
▁scientist	-5089
▁sidelines	-5090
▁skydiving	-5091
▁somewhere	-5092
▁treadmill	-5093
▁vacuuming	-5094
▁waterside	-5095
▁wrestlers	-5096
▁xylophone	-5097
▁activities	-5098
▁attractive	-5099
▁ceremonial	-5100
▁characters	-5101
▁cigarettes	-5102
▁colorfully	-5103
▁completing	-5104
▁conducting	-5105
▁exercising	-5106
▁greyhounds	-5107
▁sculptures	-5108
▁snowboards	-5109
▁sunbathing	-5110
▁tablecloth	-5111
▁wilderness	-5112
▁cheerleader	-5113
▁illuminated	-5114
▁information	-5115
▁mountaintop	-5116
▁silhouetted	-5117
▁supermarket	-5118
▁watermelons	-5119
▁crosscountry	-5120
▁rollerskates	-5121
▁advertisements	-5122
",	-5123
SA	-5124
af	-5125
mx	-5126
uc	-5127
zy	-5128
▁-	-5129
bie	-5130
coh	-5131
eer	-5132
ffe	-5133
gos	-5134
hoe	-5135
lds	-5136
ley	-5137
now	-5138
oma	-5139
ote	-5140
pid	-5141
rid	-5142
the	-5143
tur	-5144
uds	-5145
une	-5146
uss	-5147
vor	-5148
yon	-5149
zor	-5150
▁Mi	-5151
▁Ne	-5152
▁Ra	-5153
▁We	-5154
▁em	-5155
▁ti	-5156
▁va	-5157
alks	-5158
ands	-5159
anse	-5160
atee	-5161
bour	-5162
club	-5163
come	-5164
corn	-5165
eddy	-5166
flow	-5167
ford	-5168
held	-5169
hift	-5170
hine	-5171
hole	-5172
iosk	-5173
ique	-5174
ised	-5175
ison	-5176
iven	-5177
ivil	-5178
kery	-5179
ogie	-5180
oper	-5181
osed	-5182
otic	-5183
pain	-5184
roud	-5185
stem	-5186
ston	-5187
sure	-5188
tely	-5189
ties	-5190
unte	-5191
usky	-5192
vely	-5193
vern	-5194
▁App	-5195
▁Bas	-5196
▁Big	-5197
▁Bra	-5198
▁Cal	-5199
▁Car	-5200
▁Cow	-5201
▁Dan	-5202
▁Ele	-5203
▁Gre	-5204
▁Ski	-5205
▁Ten	-5206
▁aid	-5207
▁anc	-5208
▁axe	-5209
▁bib	-5210
▁cru	-5211
▁cry	-5212
▁det	-5213
▁flu	-5214
▁gig	-5215
▁hal	-5216
▁hid	-5217
▁pac	-5218
▁ran	-5219
▁tin	-5220
▁tip	-5221
▁ult	-5222
▁unw	-5223
▁wip	-5224
▁zom	-5225
angle	-5226
bably	-5227
cakes	-5228
cohol	-5229
essor	-5230
ewish	-5231
ggers	-5232
gress	-5233
icans	-5234
iking	-5235
indle	-5236
ished	-5237
lated	-5238
orous	-5239
piece	-5240
scent	-5241
storm	-5242
table	-5243
velin	-5244
wered	-5245
▁Dirt	-5246
▁Shop	-5247
▁Snow	-5248
▁bend	-5249
▁bows	-5250
▁cats	-5251
▁clap	-5252
▁deer	-5253
▁dots	-5254
▁drag	-5255
▁film	-5256
▁glac	-5257
▁haul	-5258
▁hour	-5259
▁hung	-5260
▁lime	-5261
▁magn	-5262
▁mesh	-5263
▁mule	-5264
▁need	-5265
▁nood	-5266
▁nude	-5267
▁pray	-5268
▁puzz	-5269
▁quad	-5270
▁rack	-5271
▁rush	-5272
▁saus	-5273
▁scat	-5274
▁slip	-5275
▁snap	-5276
▁spik	-5277
▁stor	-5278
▁sund	-5279
▁test	-5280
▁ties	-5281
▁tips	-5282
▁zone	-5283
antily	-5284
camera	-5285
cement	-5286
filled	-5287
guards	-5288
icking	-5289
ifying	-5290
issors	-5291
minton	-5292
nivers	-5293
rested	-5294
rimmed	-5295
turned	-5296
ulting	-5297
vorite	-5298
▁Color	-5299
▁Legos	-5300
▁Miami	-5301
▁State	-5302
▁Times	-5303
▁angle	-5304
▁anvil	-5305
▁badge	-5306
▁beams	-5307
▁belly	-5308
▁bring	-5309
▁broch	-5310
▁cable	-5311
▁carou	-5312
▁champ	-5313
▁civil	-5314
▁crash	-5315
▁curve	-5316
▁cycle	-5317
▁disco	-5318
▁drain	-5319
▁eager	-5320
▁earth	-5321
▁fixes	-5322
▁flood	-5323
▁flour	-5324
▁given	-5325
▁gowns	-5326
▁grown	-5327
▁holes	-5328
▁inner	-5329
▁kiosk	-5330
▁lanes	-5331
▁lemon	-5332
▁licks	-5333
▁lives	-5334
▁major	-5335
▁memor	-5336
▁merry	-5337
▁nails	-5338
▁noses	-5339
▁occup	-5340
▁occur	-5341
▁ornam	-5342
▁pedal	-5343
▁piles	-5344
▁pipes	-5345
▁plush	-5346
▁ponch	-5347
▁posed	-5348
▁proud	-5349
▁quest	-5350
▁radio	-5351
▁rafts	-5352
▁rails	-5353
▁raise	-5354
▁razor	-5355
▁recre	-5356
▁relay	-5357
▁rusty	-5358
▁sailo	-5359
▁saris	-5360
▁scrat	-5361
▁skill	-5362
▁snork	-5363
▁soars	-5364
▁sound	-5365
▁split	-5366
▁spots	-5367
▁squad	-5368
▁stars	-5369
▁subur	-5370
▁symbo	-5371
▁teddy	-5372
▁those	-5373
▁tubes	-5374
▁tying	-5375
▁vocal	-5376
▁weigh	-5377
▁words	-5378
▁woven	-5379
allenge	-5380
dressed	-5381
fashion	-5382
issance	-5383
testers	-5384
wheeler	-5385
▁Bikers	-5386
▁Family	-5387
▁Father	-5388
▁Orange	-5389
▁Subway	-5390
▁aboard	-5391
▁advent	-5392
▁aiming	-5393
▁appare	-5394
▁arrive	-5395
▁attack	-5396
▁bakery	-5397
▁blower	-5398
▁boogie	-5399
▁bowtie	-5400
▁breast	-5401
▁breath	-5402
▁bronco	-5403
▁brooms	-5404
▁contro	-5405
▁conven	-5406
▁direct	-5407
▁dotted	-5408
▁double	-5409
▁dragon	-5410
▁facial	-5411
▁flames	-5412
▁floors	-5413
▁framed	-5414
▁french	-5415
▁goatee	-5416
▁grills	-5417
▁hearts	-5418
▁kicked	-5419
▁liquor	-5420
▁nearly	-5421
▁pigeon	-5422
▁pillar	-5423
▁raking	-5424
▁ravine	-5425
▁return	-5426
▁saddle	-5427
▁sample	-5428
▁seesaw	-5429
▁senior	-5430
▁sister	-5431
▁slopes	-5432
▁splash	-5433
▁strike	-5434
▁stunts	-5435
▁swords	-5436
▁system	-5437
▁talent	-5438
▁turkey	-5439
▁weapon	-5440
▁within	-5441
▁youths	-5442
▁Sooners	-5443
▁Tourist	-5444
▁address	-5445
▁alcohol	-5446
▁ancient	-5447
▁applies	-5448
▁barking	-5449
▁blindfo	-5450
▁bottoms	-5451
▁braided	-5452
▁bundled	-5453
▁checked	-5454
▁circuit	-5455
▁clothed	-5456
▁cowgirl	-5457
▁creates	-5458
▁damaged	-5459
▁dessert	-5460
▁devices	-5461
▁doctors	-5462
▁expanse	-5463
▁flowery	-5464
▁forming	-5465
▁glacier	-5466
▁gliding	-5467
▁handbag	-5468
▁huddled	-5469
▁hunched	-5470
▁impress	-5471
▁jockeys	-5472
▁message	-5473
▁missing	-5474
▁mittens	-5475
▁patrons	-5476
▁perched	-5477
▁poodles	-5478
▁propped	-5479
▁raining	-5480
▁relaxes	-5481
▁ribbons	-5482
▁scaling	-5483
▁shorter	-5484
▁sleeves	-5485
▁snowman	-5486
▁spatula	-5487
▁submerg	-5488
▁thought	-5489
▁upright	-5490
▁workman	-5491
▁written	-5492
▁McDonald	-5493
▁Military	-5494
▁barriers	-5495
▁blocking	-5496
▁boarding	-5497
▁cardigan	-5498
▁checkout	-5499
▁citizens	-5500
▁climbers	-5501
▁confetti	-5502
▁crafting	-5503
▁crawling	-5504
▁deserted	-5505
▁dropping	-5506
▁elevated	-5507
▁favorite	-5508
▁features	-5509
▁grasping	-5510
▁handheld	-5511
▁helmeted	-5512
▁knitting	-5513
▁lipstick	-5514
▁medieval	-5515
▁newlywed	-5516
▁overlook	-5517
▁pacifier	-5518
▁parallel	-5519
▁piercing	-5520
▁pitching	-5521
▁portable	-5522
▁presents	-5523
▁probably	-5524
▁progress	-5525
▁register	-5526
▁scissors	-5527
▁scooping	-5528
▁shouting	-5529
▁stirring	-5530
▁sundress	-5531
▁sunshine	-5532
▁terminal	-5533
▁tomatoes	-5534
▁trimming	-5535
▁ultimate	-5536
▁waitress	-5537
▁watering	-5538
▁Beautiful	-5539
▁Shirtless	-5540
▁assembled	-5541
▁assisting	-5542
▁badminton	-5543
▁briefcase	-5544
▁bulldozer	-5545
▁clutching	-5546
▁connected	-5547
▁excitedly	-5548
▁fashioned	-5549
▁feathered	-5550
▁makeshift	-5551
▁nightclub	-5552
▁personnel	-5553
▁policemen	-5554
▁professor	-5555
▁riverbank	-5556
▁scattered	-5557
▁selection	-5558
▁stretched	-5559
▁unloading	-5560
▁Protesters	-5561
▁barbecuing	-5562
▁completely	-5563
▁congregate	-5564
▁expression	-5565
▁girlfriend	-5566
▁harvesting	-5567
▁parachutes	-5568
▁sprinklers	-5569
▁accompanied	-5570
▁arrangement	-5571
▁bridesmaids	-5572
▁competitive	-5573
▁constructed	-5574
▁convenience	-5575
▁microscopes	-5576
▁socializing	-5577
▁wheelchairs	-5578
▁wineglasses	-5579
▁Photographer	-5580
▁photographing	-5581
'.	-5582
ae	-5583
gn	-5584
rd	-5585
sw	-5586
uk	-5587
va	-5588
yo	-5589
Bob	-5590
aco	-5591
aph	-5592
asm	-5593
cla	-5594
dog	-5595
dot	-5596
dra	-5597
ixt	-5598
kly	-5599
kno	-5600
nal	-5601
ody	-5602
off	-5603
oid	-5604
oke	-5605
oof	-5606
ota	-5607
ott	-5608
pen	-5609
ppy	-5610
rer	-5611
rew	-5612
thy	-5613
uct	-5614
ued	-5615
ugs	-5616
▁Ex	-5617
▁Gr	-5618
▁La	-5619
▁Ob	-5620
▁Re	-5621
▁gy	-5622
▁ni	-5623
▁ya	-5624
ader	-5625
agle	-5626
agne	-5627
aila	-5628
arat	-5629
atic	-5630
beat	-5631
bing	-5632
bout	-5633
cape	-5634
cast	-5635
cept	-5636
ebra	-5637
engu	-5638
gels	-5639
haps	-5640
helf	-5641
high	-5642
hoop	-5643
iors	-5644
irts	-5645
itan	-5646
ivan	-5647
kely	-5648
muff	-5649
oose	-5650
rick	-5651
robe	-5652
seen	-5653
tern	-5654
toon	-5655
ware	-5656
well	-5657
zard	-5658
▁Art	-5659
▁Bud	-5660
▁Dis	-5661
▁Gra	-5662
▁Hot	-5663
▁Min	-5664
▁Mon	-5665
▁Out	-5666
▁Pat	-5667
▁Per	-5668
▁Pic	-5669
▁Ste	-5670
▁Tra	-5671
▁ado	-5672
▁ash	-5673
▁bmx	-5674
▁bon	-5675
▁bud	-5676
▁fam	-5677
▁gum	-5678
▁jog	-5679
▁ket	-5680
▁led	-5681
▁lie	-5682
▁lon	-5683
▁nat	-5684
▁oar	-5685
▁sew	-5686
▁sta	-5687
▁tam	-5688
▁tap	-5689
▁toe	-5690
▁ver	-5691
▁vio	-5692
acock	-5693
aging	-5694
ances	-5695
andex	-5696
anged	-5697
asing	-5698
boats	-5699
brero	-5700
chief	-5701
dered	-5702
dlers	-5703
eller	-5704
empla	-5705
empor	-5706
geons	-5707
icely	-5708
icker	-5709
ified	-5710
ilted	-5711
inoes	-5712
kings	-5713
known	-5714
lapid	-5715
muffs	-5716
ology	-5717
ously	-5718
phalt	-5719
point	-5720
ronts	-5721
ropol	-5722
tical	-5723
umber	-5724
using	-5725
▁East	-5726
▁Gray	-5727
▁High	-5728
▁Ital	-5729
▁Mark	-5730
▁Over	-5731
▁Sold	-5732
▁Wall	-5733
▁With	-5734
▁affe	-5735
▁amaz	-5736
▁answ	-5737
▁arid	-5738
▁bout	-5739
▁butt	-5740
▁chat	-5741
▁chem	-5742
▁cler	-5743
▁cows	-5744
▁digs	-5745
▁drop	-5746
▁foam	-5747
▁fold	-5748
▁grow	-5749
▁harp	-5750
▁iPod	-5751
▁jewe	-5752
▁keys	-5753
▁know	-5754
▁last	-5755
▁limb	-5756
▁lost	-5757
▁love	-5758
▁mats	-5759
▁milk	-5760
▁mind	-5761
▁mops	-5762
▁peak	-5763
▁ping	-5764
▁plac	-5765
▁prev	-5766
▁prov	-5767
▁punk	-5768
▁rake	-5769
▁rear	-5770
▁rehe	-5771
▁rubs	-5772
▁seam	-5773
▁shed	-5774
▁solo	-5775
▁sons	-5776
▁spir	-5777
▁swan	-5778
▁tear	-5779
▁turb	-5780
▁want	-5781
▁wool	-5782
aratus	-5783
capped	-5784
hammer	-5785
hermen	-5786
ooking	-5787
ottish	-5788
ulture	-5789
▁Amish	-5790
▁Apple	-5791
▁Athle	-5792
▁Claus	-5793
▁Colle	-5794
▁Mouse	-5795
▁Rodeo	-5796
▁accep	-5797
▁angry	-5798
▁areas	-5799
▁armed	-5800
▁armor	-5801
▁baked	-5802
▁baton	-5803
▁bites	-5804
▁bloss	-5805
▁bones	-5806
▁bunny	-5807
▁bushy	-5808
▁cabin	-5809
▁caric	-5810
▁carve	-5811
▁chips	-5812
▁chunk	-5813
▁clock	-5814
▁crazy	-5815
▁delic	-5816
▁depic	-5817
▁deter	-5818
▁dolph	-5819
▁early	-5820
▁elbow	-5821
▁exits	-5822
▁fairy	-5823
▁fills	-5824
▁found	-5825
▁gallo	-5826
▁goats	-5827
▁husky	-5828
▁least	-5829
▁loose	-5830
▁metro	-5831
▁multi	-5832
▁overh	-5833
▁parts	-5834
▁patri	-5835
▁peach	-5836
▁peeks	-5837
▁piled	-5838
▁pleas	-5839
▁posts	-5840
▁pride	-5841
▁robot	-5842
▁roses	-5843
▁ruins	-5844
▁sacks	-5845
▁shady	-5846
▁sheer	-5847
▁sling	-5848
▁snaps	-5849
▁snowf	-5850
▁spike	-5851
▁stain	-5852
▁storm	-5853
▁strap	-5854
▁strum	-5855
▁swamp	-5856
▁theme	-5857
▁tiara	-5858
▁tongs	-5859
▁trays	-5860
▁tunic	-5861
▁unwra	-5862
▁upper	-5863
▁zebra	-5864
ailable	-5865
breaker	-5866
ingerie	-5867
inished	-5868
itement	-5869
ketball	-5870
ldering	-5871
omobile	-5872
ongeBob	-5873
onsored	-5874
skating	-5875
working	-5876
▁Cowboy	-5877
▁Gentle	-5878
▁Groups	-5879
▁Surfer	-5880
▁Tennis	-5881
▁admire	-5882
▁apples	-5883
▁asking	-5884
▁assemb	-5885
▁banana	-5886
▁barren	-5887
▁batman	-5888
▁border	-5889
▁breaks	-5890
▁bronze	-5891
▁cables	-5892
▁canopy	-5893
▁canyon	-5894
▁carved	-5895
▁cattle	-5896
▁cheeks	-5897
▁cinder	-5898
▁cloths	-5899
▁combat	-5900
▁cooler	-5901
▁crowds	-5902
▁crowns	-5903
▁curved	-5904
▁cutout	-5905
▁dramat	-5906
▁escape	-5907
▁firing	-5908
▁fleece	-5909
▁footbr	-5910
▁frolic	-5911
▁glider	-5912
▁gloved	-5913
▁haired	-5914
▁handed	-5915
▁leaned	-5916
▁legged	-5917
▁length	-5918
▁letter	-5919
▁likely	-5920
▁lovely	-5921
▁masked	-5922
▁master	-5923
▁mature	-5924
▁padded	-5925
▁passed	-5926
▁pauses	-5927
▁petals	-5928
▁pinned	-5929
▁poking	-5930
▁postal	-5931
▁potted	-5932
▁powder	-5933
▁priest	-5934
▁rabbit	-5935
▁recent	-5936
▁remote	-5937
▁repres	-5938
▁rolled	-5939
▁rubble	-5940
▁sailor	-5941
▁saying	-5942
▁scales	-5943
▁served	-5944
▁sheets	-5945
▁shines	-5946
▁skimpy	-5947
▁smooth	-5948
▁snowmo	-5949
▁stacks	-5950
▁starts	-5951
▁symbol	-5952
▁tagged	-5953
▁toilet	-5954
▁tomato	-5955
▁tossed	-5956
▁towels	-5957
▁tuxedo	-5958
▁unseen	-5959
▁wiping	-5960
emporary	-5961
vertible	-5962
▁Concert	-5963
▁Dancers	-5964
▁Parents	-5965
▁Seattle	-5966
▁antique	-5967
▁archway	-5968
▁asphalt	-5969
▁backhoe	-5970
▁backlit	-5971
▁baseman	-5972
▁blocked	-5973
▁brindle	-5974
▁burgers	-5975
▁capture	-5976
▁carried	-5977
▁caution	-5978
▁chained	-5979
▁cockpit	-5980
▁cookies	-5981
▁coolers	-5982
▁cradles	-5983
▁curtain	-5984
▁directs	-5985
▁donkeys	-5986
▁dunking	-5987
▁eagerly	-5988
▁embrace	-5989
▁emerges	-5990
▁flowing	-5991
▁freshly	-5992
▁handles	-5993
▁headset	-5994
▁herding	-5995
▁inspect	-5996
▁javelin	-5997
▁kimonos	-5998
▁leashes	-5999
▁letters	-6000
▁lowered	-6001
▁marches	-6002
▁massive	-6003
▁mothers	-6004
▁mustard	-6005
▁packing	-6006
▁pancake	-6007
▁passion	-6008
▁peacock	-6009
▁pillars	-6010
▁popcorn	-6011
▁posters	-6012
▁pretend	-6013
▁returns	-6014
▁rowboat	-6015
▁shelves	-6016
▁singers	-6017
▁slicing	-6018
▁snowing	-6019
▁spandex	-6020
▁stretch	-6021
▁stylish	-6022
▁surfers	-6023
▁tackles	-6024
▁tambour	-6025
▁tightro	-6026
▁torches	-6027
▁tugging	-6028
▁unident	-6029
▁unknown	-6030
▁utility	-6031
▁varying	-6032
▁volunte	-6033
▁weapons	-6034
▁whistle	-6035
▁winding	-6036
▁yelling	-6037
fashioned	-6038
lapidated	-6039
niversity	-6040
▁Marathon	-6041
▁artistic	-6042
▁backward	-6043
▁balanced	-6044
▁bounding	-6045
▁campsite	-6046
▁carousel	-6047
▁clarinet	-6048
▁clearing	-6049
▁confused	-6050
▁contents	-6051
▁daylight	-6052
▁dribbles	-6053
▁drilling	-6054
▁earmuffs	-6055
▁earrings	-6056
▁emerging	-6057
▁exciting	-6058
▁feathers	-6059
▁fingerna	-6060
▁floaties	-6061
▁greenery	-6062
▁handling	-6063
▁heavyset	-6064
▁historic	-6065
▁includes	-6066
▁incoming	-6067
▁interact	-6068
▁lingerie	-6069
▁merchant	-6070
▁metropol	-6071
▁monopoly	-6072
▁national	-6073
▁offering	-6074
▁partying	-6075
▁passerby	-6076
▁pictured	-6077
▁reclines	-6078
▁rounding	-6079
▁scantily	-6080
▁seagulls	-6081
▁shingles	-6082
▁sombrero	-6083
▁suburban	-6084
▁sweaters	-6085
▁thinking	-6086
▁tumbling	-6087
▁vacation	-6088
▁vertical	-6089
▁vocalist	-6090
▁Americans	-6091
▁Bicyclist	-6092
▁Halloween	-6093
▁McDonalds	-6094
▁SpongeBob	-6095
▁apparatus	-6096
▁ascending	-6097
▁assistant	-6098
▁attendant	-6099
▁beginning	-6100
▁bookshelf	-6101
▁champagne	-6102
▁community	-6103
▁completed	-6104
▁contempla	-6105
▁elephants	-6106
▁exploring	-6107
▁fireplace	-6108
▁hairstyle	-6109
▁identical	-6110
▁mannequin	-6111
▁operation	-6112
▁opponents	-6113
▁sculpting	-6114
▁searching	-6115
▁shoeshine	-6116
▁struggles	-6117
▁suitcases	-6118
▁sweatsuit	-6119
▁Basketball	-6120
▁attraction	-6121
▁automobile	-6122
▁backstroke	-6123
▁caricature	-6124
▁collecting	-6125
▁comforting	-6126
▁conditions	-6127
▁convention	-6128
▁decorating	-6129
▁descending	-6130
▁equestrian	-6131
▁excitement	-6132
▁exhibition	-6133
▁eyeglasses	-6134
▁graffitied	-6135
▁installing	-6136
▁kickboxing	-6137
▁magnifying	-6138
▁motorbikes	-6139
▁multicolor	-6140
▁pedestrian	-6141
▁pinstriped	-6142
▁positioned	-6143
▁possession	-6144
▁pretending	-6145
▁snowcapped	-6146
▁struggling	-6147
▁unfinished	-6148
▁vegetation	-6149
▁watercraft	-6150
▁watermelon	-6151
▁attentively	-6152
▁blindfolded	-6153
▁businessman	-6154
▁clothesline	-6155
▁competitors	-6156
▁convertible	-6157
▁expressions	-6158
▁instructing	-6159
▁interviewed	-6160
▁parachuting	-6161
▁storefronts	-6162
▁sweatshirts	-6163
▁windbreaker	-6164
▁Rollerblades	-6165
▁concentrates	-6166
▁mountainside	-6167
▁recreational	-6168
▁Photographers	-6169
▁skateboarders	-6170
CE	-6171
MC	-6172
cs	-6173
ii	-6174
sm	-6175
ta	-6176
vy	-6177
wh	-6178
ye	-6179
Aid	-6180
acy	-6181
ams	-6182
ari	-6183
azz	-6184
ben	-6185
bes	-6186
blo	-6187
die	-6188
eli	-6189
ern	-6190
gee	-6191
ien	-6192
igs	-6193
kla	-6194
ksw	-6195
lam	-6196
lem	-6197
lif	-6198
lor	-6199
nia	-6200
nna	-6201
olf	-6202
orc	-6203
orn	-6204
pro	-6205
rad	-6206
sps	-6207
ssy	-6208
uce	-6209
uge	-6210
una	-6211
ura	-6212
wom	-6213
xim	-6214
zil	-6215
▁En	-6216
▁Go	-6217
▁No	-6218
▁Or	-6219
▁Wa	-6220
▁du	-6221
▁er	-6222
▁su	-6223
▁uk	-6224
▁zo	-6225
Cola	-6226
agen	-6227
airs	-6228
aler	-6229
alth	-6230
amar	-6231
amic	-6232
arth	-6233
arts	-6234
bell	-6235
book	-6236
care	-6237
coal	-6238
ctop	-6239
deep	-6240
dish	-6241
edos	-6242
eere	-6243
egas	-6244
emet	-6245
eria	-6246
fast	-6247
fort	-6248
gaph	-6249
hold	-6250
homa	-6251
idge	-6252
ifor	-6253
ifts	-6254
illa	-6255
inas	-6256
ipop	-6257
iser	-6258
iver	-6259
izes	-6260
keep	-6261
kins	-6262
lery	-6263
lift	-6264
made	-6265
mage	-6266
maid	-6267
mely	-6268
mons	-6269
neck	-6270
ogra	-6271
oles	-6272
omet	-6273
opsc	-6274
ores	-6275
orse	-6276
otch	-6277
phic	-6278
pite	-6279
pong	-6280
prin	-6281
rene	-6282
rica	-6283
rise	-6284
rong	-6285
ship	-6286
shot	-6287
sion	-6288
sted	-6289
type	-6290
ubby	-6291
unds	-6292
vest	-6293
wdri	-6294
weed	-6295
yond	-6296
zens	-6297
▁All	-6298
▁Aut	-6299
▁Bur	-6300
▁Day	-6301
▁Eng	-6302
▁Har	-6303
▁His	-6304
▁Ice	-6305
▁Lou	-6306
▁Mot	-6307
▁Pit	-6308
▁Sit	-6309
▁Sun	-6310
▁Toy	-6311
▁Wal	-6312
▁Wet	-6313
▁You	-6314
▁age	-6315
▁amp	-6316
▁arr	-6317
▁cou	-6318
▁cub	-6319
▁dip	-6320
▁div	-6321
▁doc	-6322
▁dug	-6323
▁era	-6324
▁fru	-6325
▁gay	-6326
▁gor	-6327
▁hon	-6328
▁ink	-6329
▁jar	-6330
▁lid	-6331
▁lim	-6332
▁lla	-6333
▁mad	-6334
▁now	-6335
▁plu	-6336
▁pom	-6337
▁rig	-6338
▁rim	-6339
▁rit	-6340
▁tet	-6341
▁tul	-6342
▁via	-6343
▁vig	-6344
▁web	-6345
▁zoo	-6346
allic	-6347
amaha	-6348
bench	-6349
berty	-6350
bucks	-6351
cited	-6352
comot	-6353
drawn	-6354
enger	-6355
field	-6356
fives	-6357
front	-6358
glass	-6359
gling	-6360
hroom	-6361
ickey	-6362
imber	-6363
inary	-6364
ingly	-6365
inisk	-6366
ision	-6367
leton	-6368
lowly	-6369
mbone	-6370
olate	-6371
onies	-6372
otion	-6373
scope	-6374
store	-6375
ulele	-6376
unges	-6377
verse	-6378
verty	-6379
white	-6380
▁Bike	-6381
▁Budd	-6382
▁Cars	-6383
▁Farm	-6384
▁Gard	-6385
▁Life	-6386
▁Long	-6387
▁Nike	-6388
▁Okla	-6389
▁Park	-6390
▁Race	-6391
▁Russ	-6392
▁Side	-6393
▁Walk	-6394
▁bagg	-6395
▁bark	-6396
▁bats	-6397
▁bead	-6398
▁beat	-6399
▁boss	-6400
▁buoy	-6401
▁came	-6402
▁comb	-6403
▁cord	-6404
▁coun	-6405
▁crab	-6406
▁crib	-6407
▁crus	-6408
▁crut	-6409
▁dash	-6410
▁disk	-6411
▁dunk	-6412
▁dyed	-6413
▁east	-6414
▁else	-6415
▁evil	-6416
▁exit	-6417
▁fine	-6418
▁fist	-6419
▁flea	-6420
▁flex	-6421
▁glit	-6422
▁goof	-6423
▁hips	-6424
▁junk	-6425
▁loll	-6426
▁loop	-6427
▁loud	-6428
▁ming	-6429
▁mout	-6430
▁nine	-6431
▁note	-6432
▁obsc	-6433
▁once	-6434
▁oxen	-6435
▁pane	-6436
▁pant	-6437
▁paws	-6438
▁phys	-6439
▁poun	-6440
▁prim	-6441
▁prun	-6442
▁purs	-6443
▁real	-6444
▁rose	-6445
▁scri	-6446
▁self	-6447
▁shru	-6448
▁sket	-6449
▁slab	-6450
▁slam	-6451
▁slot	-6452
▁soil	-6453
▁stay	-6454
▁sumo	-6455
▁sunb	-6456
▁susp	-6457
▁tend	-6458
▁torn	-6459
▁tram	-6460
▁trio	-6461
▁trou	-6462
▁twil	-6463
▁used	-6464
▁vast	-6465
▁wand	-6466
▁ways	-6467
▁wigs	-6468
▁word	-6469
▁york	-6470
▁your	-6471
aining	-6472
ancing	-6473
anding	-6474
anitor	-6475
anting	-6476
ashing	-6477
ashore	-6478
athers	-6479
ctopus	-6480
elcome	-6481
estern	-6482
esting	-6483
gyback	-6484
handed	-6485
ielder	-6486
isters	-6487
itchen	-6488
ixture	-6489
lation	-6490
moting	-6491
pering	-6492
rently	-6493
ressed	-6494
riends	-6495
stance	-6496
trucks	-6497
ushing	-6498
▁About	-6499
▁Deere	-6500
▁Emerg	-6501
▁Grand	-6502
▁Happy	-6503
▁Hotel	-6504
▁Latin	-6505
▁Looks	-6506
▁Obama	-6507
▁Ocean	-6508
▁avoid	-6509
▁beare	-6510
▁buggy	-6511
▁buses	-6512
▁cafet	-6513
▁cakes	-6514
▁casts	-6515
▁cause	-6516
▁cemet	-6517
▁chews	-6518
▁clerk	-6519
▁clust	-6520
▁ditch	-6521
▁dolly	-6522
▁domin	-6523
▁dried	-6524
▁drops	-6525
▁dunes	-6526
▁elder	-6527
▁extra	-6528
▁faced	-6529
▁frown	-6530
▁gated	-6531
▁geese	-6532
▁goers	-6533
▁grima	-6534
▁grins	-6535
▁henna	-6536
▁hikes	-6537
▁hilly	-6538
▁hopsc	-6539
▁horns	-6540
▁kilts	-6541
▁kites	-6542
▁known	-6543
▁lakes	-6544
▁mache	-6545
▁magic	-6546
▁marks	-6547
▁mates	-6548
▁medit	-6549
▁mixed	-6550
▁owner	-6551
▁pengu	-6552
▁pokes	-6553
▁puffy	-6554
▁ramps	-6555
▁salad	-6556
▁sales	-6557
▁scale	-6558
▁scoop	-6559
▁scrap	-6560
▁seeds	-6561
▁separ	-6562
▁shave	-6563
▁sight	-6564
▁snake	-6565
▁sorts	-6566
▁spear	-6567
▁squat	-6568
▁steam	-6569
▁steer	-6570
▁stirs	-6571
▁strip	-6572
▁taste	-6573
▁tasty	-6574
▁texts	-6575
▁these	-6576
▁think	-6577
▁toast	-6578
▁topic	-6579
▁trave	-6580
▁tribe	-6581
▁trims	-6582
▁uncom	-6583
▁utens	-6584
▁wades	-6585
▁weave	-6586
▁weeds	-6587
▁weird	-6588
▁whole	-6589
▁wipes	-6590
▁wraps	-6591
▁write	-6592
aration	-6593
flowers	-6594
gaphone	-6595
iderman	-6596
ificial	-6597
ifornia	-6598
itation	-6599
kswagen	-6600
orously	-6601
packing	-6602
rolling	-6603
shirted	-6604
strated	-6605
uddling	-6606
ughters	-6607
ultural	-6608
viewing	-6609
wearing	-6610
▁Arabic	-6611
▁Boston	-6612
▁Brazil	-6613
▁Crowds	-6614
▁Disney	-6615
▁During	-6616
▁Island	-6617
▁Market	-6618
▁Mickey	-6619
▁Motorc	-6620
▁Parade	-6621
▁Singer	-6622
▁Speedo	-6623
▁Sports	-6624
▁Yamaha	-6625
▁actors	-6626
▁batons	-6627
▁beards	-6628
▁beyond	-6629
▁bounce	-6630
▁bouncy	-6631
▁bowler	-6632
▁bridal	-6633
▁bungee	-6634
▁camper	-6635
▁chubby	-6636
▁circus	-6637
▁closer	-6638
▁cooked	-6639
▁cookie	-6640
▁crayon	-6641
▁cruise	-6642
▁dealer	-6643
▁decide	-6644
▁eatery	-6645
▁engage	-6646
▁except	-6647
▁floppy	-6648
▁fluore	-6649
▁forces	-6650
▁formed	-6651
▁fourth	-6652
▁frames	-6653
▁ginger	-6654
▁govern	-6655
▁grooms	-6656
▁halter	-6657
▁helped	-6658
▁hidden	-6659
▁inline	-6660
▁kettle	-6661
▁kiddie	-6662
▁kitten	-6663
▁knight	-6664
▁knives	-6665
▁landed	-6666
▁landsc	-6667
▁layers	-6668
▁lemons	-6669
▁litter	-6670
▁lonely	-6671
▁minisk	-6672
▁nicely	-6673
▁notice	-6674
▁opened	-6675
▁orders	-6676
▁owners	-6677
▁partly	-6678
▁pickup	-6679
▁poised	-6680
▁polish	-6681
▁prints	-6682
▁prizes	-6683
▁puzzle	-6684
▁quaint	-6685
▁rehear	-6686
▁reluct	-6687
▁retail	-6688
▁ritual	-6689
▁roping	-6690
▁rounds	-6691
▁runway	-6692
▁sandal	-6693
▁sashes	-6694
▁satche	-6695
▁scared	-6696
▁shapes	-6697
▁shoots	-6698
▁siding	-6699
▁siting	-6700
▁slices	-6701
▁sniffs	-6702
▁spiked	-6703
▁spikes	-6704
▁stalks	-6705
▁steaks	-6706
▁steers	-6707
▁stools	-6708
▁straps	-6709
▁stride	-6710
▁sunhat	-6711
▁swampy	-6712
▁sweaty	-6713
▁taller	-6714
▁taught	-6715
▁thread	-6716
▁tosses	-6717
▁troops	-6718
▁tulips	-6719
▁tuning	-6720
▁viewer	-6721
▁waring	-6722
▁warmly	-6723
▁washed	-6724
▁wicker	-6725
▁wonder	-6726
▁College	-6727
▁Friends	-6728
▁Individ	-6729
▁Looking	-6730
▁Picture	-6731
▁Sitting	-6732
▁Station	-6733
▁Teenage	-6734
▁adolesc	-6735
▁apparel	-6736
▁archite	-6737
▁banging	-6738
▁begging	-6739
▁besides	-6740
▁boating	-6741
▁bookbag	-6742
▁calling	-6743
▁campers	-6744
▁cartoon	-6745
▁cleaned	-6746
▁collide	-6747
▁created	-6748
▁cubicle	-6749
▁cupcake	-6750
▁curious	-6751
▁curling	-6752
▁defends	-6753
▁descend	-6754
▁despite	-6755
▁dolphin	-6756
▁drivers	-6757
▁dropped	-6758
▁exposed	-6759
▁fighter	-6760
▁flatbed	-6761
▁handleb	-6762
▁hauling	-6763
▁holiday	-6764
▁hooping	-6765
▁intense	-6766
▁keeping	-6767
▁ladders	-6768
▁lantern	-6769
▁layered	-6770
▁locomot	-6771
▁lounges	-6772
▁mailbox	-6773
▁mascara	-6774
▁mermaid	-6775
▁minivan	-6776
▁muzzles	-6777
▁octopus	-6778
▁padding	-6779
▁parasol	-6780
▁peeling	-6781
▁perhaps	-6782
▁persons	-6783
▁pirates	-6784
▁playpen	-6785
▁plowing	-6786
▁ponders	-6787
▁poverty	-6788
▁rabbits	-6789
▁receive	-6790
▁records	-6791
▁reddish	-6792
▁ridding	-6793
▁roadway	-6794
▁rocking	-6795
▁rooster	-6796
▁seaweed	-6797
▁seniors	-6798
▁session	-6799
▁shields	-6800
▁slender	-6801
▁sloping	-6802
▁snorkel	-6803
▁spanish	-6804
▁squares	-6805
▁statues	-6806
▁storage	-6807
▁strikes	-6808
▁studies	-6809
▁sucking	-6810
▁sunrise	-6811
▁tasting	-6812
▁terrace	-6813
▁terrier	-6814
▁textile	-6815
▁tightly	-6816
▁trained	-6817
▁typical	-6818
▁ukulele	-6819
▁unpaved	-6820
▁walkers	-6821
▁warning	-6822
▁wheeler	-6823
▁winning	-6824
ashington	-6825
forcement	-6826
itchenAid	-6827
▁Colorful	-6828
▁Cyclists	-6829
▁Hispanic	-6830
▁Oklahoma	-6831
▁Oriental	-6832
▁Scottish	-6833
▁Shoppers	-6834
▁Somebody	-6835
▁Swimmers	-6836
▁actively	-6837
▁adorable	-6838
▁aircraft	-6839
▁animated	-6840
▁assembly	-6841
▁basement	-6842
▁bathrobe	-6843
▁boulders	-6844
▁bracelet	-6845
▁breaking	-6846
▁bringing	-6847
▁brochure	-6848
▁carpeted	-6849
▁cemetery	-6850
▁charcoal	-6851
▁chickens	-6852
▁coconuts	-6853
▁competes	-6854
▁controls	-6855
▁costumed	-6856
▁countert	-6857
▁crutches	-6858
▁cupcakes	-6859
▁designer	-6860
▁desolate	-6861
▁directly	-6862
▁dominoes	-6863
▁drainage	-6864
▁enclosed	-6865
▁extended	-6866
▁fetching	-6867
▁greeting	-6868
▁guarding	-6869
▁hispanic	-6870
▁inflated	-6871
▁jewelery	-6872
▁kayakers	-6873
▁leafless	-6874
▁lollipop	-6875
▁markings	-6876
▁mechanic	-6877
▁memorial	-6878
▁metallic	-6879
▁mushroom	-6880
▁observed	-6881
▁occupied	-6882
▁operated	-6883
▁overcoat	-6884
▁overhang	-6885
▁packages	-6886
▁pastries	-6887
▁peaceful	-6888
▁pitchers	-6889
▁plucking	-6890
▁plugging	-6891
▁pressure	-6892
▁question	-6893
▁readying	-6894
▁receives	-6895
▁removing	-6896
▁roadwork	-6897
▁sausages	-6898
▁screwdri	-6899
▁sculptor	-6900
▁seashore	-6901
▁skeleton	-6902
▁snowbank	-6903
▁solitary	-6904
▁someones	-6905
▁spectate	-6906
▁stacking	-6907
▁stocking	-6908
▁superman	-6909
▁supervis	-6910
▁surgeons	-6911
▁swimwear	-6912
▁tattered	-6913
▁triangle	-6914
▁trombone	-6915
▁twilight	-6916
▁twirling	-6917
▁weighing	-6918
▁wetsuits	-6919
▁Emergency	-6920
▁Gentleman	-6921
▁Greyhound	-6922
▁Starbucks	-6923
▁accepting	-6924
▁appearing	-6925
▁available	-6926
▁balconies	-6927
▁bookstore	-6928
▁breakfast	-6929
▁cafeteria	-6930
▁chiseling	-6931
▁cityscape	-6932
▁coveralls	-6933
▁currently	-6934
▁daughters	-6935
▁defenders	-6936
▁defensive	-6937
▁delicious	-6938
▁dribbling	-6939
▁extremely	-6940
▁galloping	-6941
▁gymnastic	-6942
▁headbands	-6943
▁hopscotch	-6944
▁megaphone	-6945
▁messenger	-6946
▁motorboat	-6947
▁observers	-6948
▁occurring	-6949
▁organized	-6950
▁oversized	-6951
▁paintings	-6952
▁piggyback	-6953
▁projected	-6954
▁promoting	-6955
▁returning	-6956
▁sailboats	-6957
▁selecting	-6958
▁smoothing	-6959
▁soldering	-6960
▁sponsored	-6961
▁sprinting	-6962
▁stairwell	-6963
▁stockings	-6964
▁submerged	-6965
▁substance	-6966
▁technique	-6967
▁tightrope	-6968
▁unpacking	-6969
▁weathered	-6970
▁workbench	-6971
▁Bicyclists	-6972
▁California	-6973
▁Elementary	-6974
▁artificial	-6975
▁celebrates	-6976
▁collection	-6977
▁concession	-6978
▁footbridge	-6979
▁foundation	-6980
▁frustrated	-6981
▁graduation	-6982
▁guitarists	-6983
▁hamburgers	-6984
▁impressive	-6985
▁instructor	-6986
▁mechanical	-6987
▁organizing	-6988
▁overturned	-6989
▁paintbrush	-6990
▁purchasing	-6991
▁retrieving	-6992
▁scratching	-6993
▁stationary	-6994
▁strawberry	-6995
▁structures	-6996
▁sunbathers	-6997
▁technology	-6998
▁waterskier	-6999
▁whispering	-7000
▁basketballs	-7001
▁comfortable	-7002
▁dilapidated	-7003
▁electronics	-7004
▁entertained	-7005
▁entertainer	-7006
▁fashionable	-7007
▁fluorescent	-7008
▁headscarves	-7009
▁instruction	-7010
▁photography	-7011
▁preparation	-7012
▁streetlight	-7013
▁videotaping	-7014
▁constructing	-7015
▁dramatically	-7016
▁metropolitan	-7017
▁participates	-7018
▁passionately	-7019
▁snowboarders	-7020
▁surroundings	-7021
▁unidentified	-7022
▁communicating	-7023
▁contemplating	-7024
▁demonstrating	-7025
▁photographers	-7026
▁professionals	-7027
▁rollerskaters	-7028
GA	-7029
GO	-7030
MA	-7031
ba	-7032
ci	-7033
ux	-7034
yl	-7035
abo	-7036
aic	-7037
aki	-7038
cod	-7039
cri	-7040
dex	-7041
ene	-7042
erl	-7043
ged	-7044
hen	-7045
hio	-7046
iod	-7047
lip	-7048
omb	-7049
ove	-7050
psy	-7051
ski	-7052
sta	-7053
uis	-7054
uma	-7055
ury	-7056
vin	-7057
was	-7058
wls	-7059
ymn	-7060
▁2.	-7061
▁DS	-7062
▁De	-7063
▁Ev	-7064
▁Ri	-7065
▁eg	-7066
abil	-7067
acco	-7068
aced	-7069
ador	-7070
aign	-7071
ains	-7072
ault	-7073
bags	-7074
blue	-7075
circ	-7076
clad	-7077
ctic	-7078
dges	-7079
dies	-7080
dyed	-7081
ecut	-7082
etho	-7083
evil	-7084
ffle	-7085
foam	-7086
hist	-7087
iach	-7088
icef	-7089
inar	-7090
ioed	-7091
isha	-7092
ived	-7093
izer	-7094
jump	-7095
kemp	-7096
llie	-7097
lope	-7098
mble	-7099
IN	-7100
ON	-7101
ax	-7102
The	-7103
ena	-7104
ero	-7105
ico	-7106
ism	-7107
jab	-7108
nce	-7109
oos	-7110
pad	-7111
tch	-7112
ups	-7113
▁ir	-7114
acas	-7115
anda	-7116
ason	-7117
atch	-7118
gear	-7119
gent	-7120
hats	-7121
here	-7122
iled	-7123
nets	-7124
olog	-7125
omas	-7126
pany	-7127
pass	-7128
reds	-7129
rics	-7130
rimp	-7131
rior	-7132
rows	-7133
shes	-7134
stal	-7135
step	-7136
teen	-7137
tock	-7138
ugby	-7139
uild	-7140
uing	-7141
uish	-7142
ully	-7143
writ	-7144
yclo	-7145
▁Air	-7146
▁Ala	-7147
▁BMW	-7148
▁Bal	-7149
▁Bat	-7150
▁Bus	-7151
▁Cor	-7152
▁Dad	-7153
▁Dep	-7154
▁Emp	-7155
▁Eth	-7156
▁Far	-7157
▁Few	-7158
▁Fla	-7159
▁Gap	-7160
▁Lab	-7161
▁Mad	-7162
▁Med	-7163
▁Mom	-7164
▁Nin	-7165
▁Not	-7166
▁Ori	-7167
▁Pan	-7168
▁Sal	-7169
▁San	-7170
▁Sco	-7171
▁Ter	-7172
▁Tye	-7173
▁Wii	-7174
▁Wor	-7175
▁alp	-7176
▁alt	-7177
▁ank	-7178
▁ann	-7179
▁ast	-7180
▁avi	-7181
▁awe	-7182
▁awn	-7183
▁bay	-7184
▁bee	-7185
▁boa	-7186
▁fal	-7187
▁fel	-7188
▁iro	-7189
▁jug	-7190
▁lat	-7191
▁lei	-7192
▁lin	-7193
▁mac	-7194
▁mob	-7195
▁nin	-7196
▁paw	-7197
▁pel	-7198
▁rot	-7199
EL	-7200
Ex	-7201
▁.	-7202
att	-7203
cro	-7204
gin	-7205
hel	-7206
lan	-7207
mut	-7208
nes	-7209
rot	-7210
son	-7211
▁ab	-7212
▁dw	-7213
▁tv	-7214
andy	-7215
cker	-7216
edan	-7217
eran	-7218
gles	-7219
lden	-7220
umes	-7221
urai	-7222
▁Cap	-7223
▁Pot	-7224
▁Sea	-7225
▁cer	-7226
▁saf	-7227
▁swo	-7228
▁tob	-7229
▁tum	-7230
▁unc	-7231
▁ups	-7232
▁wit	-7233
▁yet	-7234
Pants	-7235
achsh	-7236
agers	-7237
allet	-7238
almon	-7239
ampoo	-7240
andel	-7241
andom	-7242
apple	-7243
ashed	-7244
atown	-7245
cards	-7246
ckled	-7247
climb	-7248
color	-7249
ctang	-7250
cured	-7251
doors	-7252
elled	-7253
ember	-7254
erees	-7255
erlin	-7256
geous	-7257
gnant	-7258
guing	-7259
hoops	-7260
iachi	-7261
icles	-7262
iders	-7263
ilies	-7264
iller	-7265
ipula	-7266
iskly	-7267
itude	-7268
kempt	-7269
laden	-7270
lease	-7271
lings	-7272
looks	-7273
ockey	-7274
orean	-7275
orter	-7276
ortun	-7277
press	-7278
proof	-7279
quely	-7280
ridor	-7281
rised	-7282
shing	-7283
smith	-7284
sting	-7285
tendo	-7286
tling	-7287
uffel	-7288
ummer	-7289
urely	-7290
utist	-7291
water	-7292
welve	-7293
woman	-7294
▁Bank	-7295
▁Bull	-7296
▁Camp	-7297
▁Care	-7298
▁Cast	-7299
ili	-7300
rep	-7301
unt	-7302
buds	-7303
▁pep	-7304
oring	-7305
phony	-7306
▁Cent	-7307
▁Chef	-7308
▁Cola	-7309
▁Crou	-7310
▁Deli	-7311
▁Down	-7312
▁Fast	-7313
▁Ford	-7314
▁Fore	-7315
▁Good	-7316
▁Gymn	-7317
▁Hard	-7318
▁Holl	-7319
▁Home	-7320
▁Lead	-7321
▁Lone	-7322
▁Main	-7323
▁Mets	-7324
▁Mike	-7325
▁Nine	-7326
▁Pain	-7327
▁Pops	-7328
▁Rena	-7329
▁Road	-7330
▁Team	-7331
▁best	-7332
▁bree	-7333
▁bunk	-7334
▁cact	-7335
▁capt	-7336
▁cent	-7337
▁cert	-7338
▁chew	-7339
▁claw	-7340
▁clip	-7341
▁coin	-7342
▁cors	-7343
▁cush	-7344
▁cust	-7345
▁dalm	-7346
▁dent	-7347
▁diag	-7348
▁diam	-7349
▁dojo	-7350
▁dorm	-7351
▁dren	-7352
▁ecst	-7353
▁ends	-7354
▁feed	-7355
▁fier	-7356
▁flot	-7357
▁fris	-7358
▁glow	-7359
▁grid	-7360
▁hate	-7361
▁hawk	-7362
▁huts	-7363
▁iced	-7364
▁inse	-7365
▁jars	-7366
▁jazz	-7367
▁kabo	-7368
▁laps	-7369
▁leis	-7370
▁limo	-7371
▁loaf	-7372
▁mate	-7373
▁mist	-7374
▁mock	-7375
▁moon	-7376
▁neat	-7377
▁ninj	-7378
▁opin	-7379
▁pace	-7380
▁pear	-7381
▁pets	-7382
▁plow	-7383
▁proc	-7384
▁rapp	-7385
▁rena	-7386
▁resc	-7387
▁ripp	-7388
▁rise	-7389
▁rods	-7390
▁safe	-7391
▁sari	-7392
▁save	-7393
▁sexy	-7394
▁shit	-7395
▁shut	-7396
▁sick	-7397
▁sips	-7398
▁situ	-7399
▁slou	-7400
▁smir	-7401
▁snar	-7402
▁sock	-7403
▁soon	-7404
▁spec	-7405
▁spre	-7406
▁styl	-7407
▁such	-7408
▁suds	-7409
▁swer	-7410
▁toen	-7411
▁took	-7412
▁trap	-7413
▁trek	-7414
▁tuba	-7415
▁urin	-7416
▁veil	-7417
▁vers	-7418
▁vine	-7419
▁wade	-7420
acular	-7421
aeolog	-7422
alleng	-7423
amaran	-7424
aneous	-7425
antage	-7426
appled	-7427
araoke	-7428
codile	-7429
corder	-7430
earing	-7431
ension	-7432
ertips	-7433
estyle	-7434
eteran	-7435
headed	-7436
iction	-7437
iments	-7438
inting	-7439
irline	-7440
ishing	-7441
keeper	-7442
lagers	-7443
locked	-7444
lywood	-7445
mallow	-7446
mother	-7447
namese	-7448
onding	-7449
ournal	-7450
pleted	-7451
prints	-7452
ration	-7453
rofoam	-7454
rolled	-7455
ronaut	-7456
screen	-7457
stairs	-7458
stress	-7459
uffles	-7460
ulance	-7461
uminum	-7462
vation	-7463
verage	-7464
vestig	-7465
washer	-7466
▁Beach	-7467
▁Coney	-7468
▁Elder	-7469
▁Pizza	-7470
▁Rugby	-7471
▁Skier	-7472
▁South	-7473
▁Spain	-7474
▁align	-7475
▁alike	-7476
▁appla	-7477
▁appre	-7478
▁audio	-7479
▁bales	-7480
▁beans	-7481
▁bears	-7482
▁beats	-7483
▁billi	-7484
▁blade	-7485
▁blast	-7486
▁blown	-7487
▁bored	-7488
▁bowed	-7489
▁bulls	-7490
▁caged	-7491
▁cages	-7492
▁canes	-7493
▁capes	-7494
▁chart	-7495
▁clams	-7496
▁colon	-7497
▁conce	-7498
▁cords	-7499
▁darts	-7500
▁dozen	-7501
▁dries	-7502
▁drunk	-7503
▁dumps	-7504
▁dunks	-7505
▁enter	-7506
▁excav	-7507
▁expla	-7508
▁fatig	-7509
▁feeds	-7510
▁ferry	-7511
▁figur	-7512
▁films	-7513
▁final	-7514
▁fires	-7515
▁fists	-7516
▁force	-7517
▁fully	-7518
▁gifts	-7519
▁guest	-7520
▁gypsy	-7521
▁hedge	-7522
▁hijab	-7523
▁hitch	-7524
▁homes	-7525
▁honor	-7526
▁hoses	-7527
▁impro	-7528
▁index	-7529
▁indig	-7530
▁kinds	-7531
▁kneel	-7532
▁knits	-7533
▁ladle	-7534
▁latex	-7535
▁leafy	-7536
▁liter	-7537
▁llama	-7538
▁lodge	-7539
▁manic	-7540
▁meals	-7541
▁media	-7542
▁menus	-7543
▁might	-7544
▁mixes	-7545
▁monks	-7546
▁moved	-7547
▁needs	-7548
▁ollie	-7549
▁olymp	-7550
▁pages	-7551
▁pairs	-7552
▁panda	-7553
▁panel	-7554
▁parka	-7555
▁pause	-7556
▁pharm	-7557
▁poker	-7558
▁quilt	-7559
▁rakes	-7560
▁regal	-7561
▁respe	-7562
▁rises	-7563
▁route	-7564
▁ruler	-7565
▁sands	-7566
▁sauna	-7567
▁shake	-7568
▁shelf	-7569
▁shish	-7570
▁sippy	-7571
▁sizes	-7572
▁sleds	-7573
▁snows	-7574
▁solar	-7575
▁solid	-7576
▁spits	-7577
▁spout	-7578
▁stony	-7579
▁study	-7580
▁suite	-7581
▁sweet	-7582
▁tasks	-7583
▁taxis	-7584
▁tells	-7585
▁tends	-7586
▁texas	-7587
▁threw	-7588
▁tiles	-7589
▁towed	-7590
▁trink	-7591
▁trips	-7592
▁trots	-7593
▁tutus	-7594
▁twent	-7595
▁twigs	-7596
▁views	-7597
▁vivid	-7598
▁welds	-7599
▁wheat	-7600
▁whose	-7601
▁wield	-7602
▁wrong	-7603
▁years	-7604
achioed	-7605
ersault	-7606
formers	-7607
icapped	-7608
itively	-7609
linging	-7610
merized	-7611
ometric	-7612
ortment	-7613
painted	-7614
reached	-7615
redible	-7616
reshing	-7617
ressing	-7618
undreds	-7619
xiously	-7620
▁Africa	-7621
▁Angels	-7622
▁Autumn	-7623
▁Batman	-7624
▁Berlin	-7625
▁Coffee	-7626
▁Commut	-7627
▁Dozens	-7628
▁Easter	-7629
▁Employ	-7630
▁Ethnic	-7631
▁France	-7632
▁French	-7633
▁Golden	-7634
▁Grouch	-7635
▁Hikers	-7636
▁Lakers	-7637
▁Latino	-7638
▁Mexico	-7639
▁Player	-7640
▁Skiers	-7641
▁Spider	-7642
▁Toyota	-7643
▁Twelve	-7644
▁adding	-7645
▁aerial	-7646
▁amused	-7647
▁ashore	-7648
▁awaits	-7649
▁awning	-7650
▁barbie	-7651
▁bathed	-7652
▁beagle	-7653
▁bearer	-7654
▁better	-7655
▁blonds	-7656
▁blurry	-7657
▁bodies	-7658
▁braces	-7659
▁briefs	-7660
▁bullet	-7661
▁bumper	-7662
▁canned	-7663
▁cereal	-7664
▁cheers	-7665
▁cleats	-7666
▁contin	-7667
▁corral	-7668
▁county	-7669
▁cracks	-7670
▁crotch	-7671
▁crouch	-7672
▁cutoff	-7673
▁cycles	-7674
▁dandel	-7675
▁darkly	-7676
▁decals	-7677
▁descri	-7678
▁digger	-7679
▁donuts	-7680
▁dreads	-7681
▁driven	-7682
▁duffel	-7683
▁dugout	-7684
▁enters	-7685
▁europe	-7686
▁execut	-7687
▁facade	-7688
▁fences	-7689
▁fiddle	-7690
▁fliers	-7691
▁geisha	-7692
▁golfer	-7693
▁hatted	-7694
▁health	-7695
▁highly	-7696
▁holing	-7697
▁itself	-7698
▁jagged	-7699
▁jogger	-7700
▁kicker	-7701
▁kissed	-7702
▁launch	-7703
▁leader	-7704
▁manner	-7705
▁manual	-7706
▁marina	-7707
▁medals	-7708
▁melons	-7709
▁mosaic	-7710
▁mosque	-7711
▁napkin	-7712
▁needed	-7713
▁noodle	-7714
▁offers	-7715
▁outcro	-7716
▁parlor	-7717
▁pastel	-7718
▁pastor	-7719
▁patrol	-7720
▁paving	-7721
▁paying	-7722
▁pedals	-7723
▁picker	-7724
▁pointy	-7725
▁poncho	-7726
▁poorly	-7727
▁prayer	-7728
▁progra	-7729
▁proper	-7730
▁pulley	-7731
▁ragged	-7732
▁refuge	-7733
▁region	-7734
▁remove	-7735
▁report	-7736
▁resear	-7737
▁ripped	-7738
▁rowers	-7739
▁salmon	-7740
▁scoops	-7741
▁shaded	-7742
▁shawls	-7743
▁should	-7744
▁shrimp	-7745
▁signal	-7746
▁simult	-7747
▁sketch	-7748
▁sledge	-7749
▁sleigh	-7750
▁slowly	-7751
▁sparse	-7752
▁spiral	-7753
▁sponge	-7754
▁squirt	-7755
▁states	-7756
▁stetho	-7757
▁strewn	-7758
▁strobe	-7759
▁talkie	-7760
▁tanned	-7761
▁taping	-7762
▁themed	-7763
▁timber	-7764
▁trails	-7765
▁treads	-7766
▁treats	-7767
▁trough	-7768
▁twirls	-7769
▁unicef	-7770
▁unison	-7771
▁uphill	-7772
▁vacant	-7773
▁waited	-7774
▁waking	-7775
▁walker	-7776
▁walkie	-7777
▁wallet	-7778
▁winded	-7779
▁zombie	-7780
boarders	-7781
daughter	-7782
kerchief	-7783
ortunity	-7784
ximately	-7785
▁Company	-7786
▁Dressed	-7787
▁Excited	-7788
▁Farmers	-7789
▁Gymnast	-7790
▁Italian	-7791
▁Pitcher	-7792
▁Student	-7793
▁Workmen	-7794
▁Younger	-7795
▁admires	-7796
▁agility	-7797
▁amazing	-7798
▁answers	-7799
▁anticip	-7800
▁applied	-7801
▁aquatic	-7802
▁arguing	-7803
▁arrival	-7804
▁attired	-7805
▁awnings	-7806
▁baggage	-7807
▁bagpipe	-7808
▁banquet	-7809
▁battery	-7810
▁bouncer	-7811
▁bounces	-7812
▁bowties	-7813
▁briskly	-7814
▁cabinet	-7815
▁captain	-7816
▁cashier	-7817
▁ceramic	-7818
▁cobbled	-7819
▁coconut	-7820
▁collect	-7821
▁content	-7822
▁crashed	-7823
▁crashes	-7824
▁crystal	-7825
▁cushion	-7826
▁dentist	-7827
▁diverse	-7828
▁ducking	-7829
▁dustpan	-7830
▁earbuds	-7831
▁emotion	-7832
▁engages	-7833
▁extends	-7834
▁extreme	-7835
▁festive	-7836
▁fitness	-7837
▁flamboy	-7838
▁flights	-7839
▁flooded	-7840
▁focuses	-7841
▁forrest	-7842
▁fortune	-7843
▁freeway	-7844
▁garment	-7845
▁graphic	-7846
▁grounds	-7847
▁grouped	-7848
▁growing	-7849
▁hairnet	-7850
▁hammers	-7851
▁handful	-7852
▁hurdles	-7853
▁infants	-7854
▁ironing	-7855
▁janitor	-7856
▁liberty	-7857
▁lottery	-7858
▁machete	-7859
▁manhole	-7860
▁matador	-7861
▁matches	-7862
▁monster	-7863
▁mopping	-7864
▁natural	-7865
▁noodles	-7866
▁nursing	-7867
▁overall	-7868
▁partner	-7869
▁patches	-7870
▁pierced	-7871
▁pitched	-7872
▁pitches	-7873
▁pockets	-7874
▁ponchos	-7875
▁popping	-7876
▁pouting	-7877
▁powered	-7878
▁presses	-7879
▁prevent	-7880
▁propane	-7881
▁proudly	-7882
▁provide	-7883
▁pruning	-7884
▁pursued	-7885
▁racquet	-7886
▁railway	-7887
▁rectang	-7888
▁related	-7889
▁removed	-7890
▁removes	-7891
▁respect	-7892
▁samurai	-7893
▁sandpit	-7894
▁satchel	-7895
▁screams	-7896
▁secured	-7897
▁serious	-7898
▁shading	-7899
▁shampoo	-7900
▁shelter	-7901
▁sipping	-7902
▁snowfla	-7903
▁solider	-7904
▁spiking	-7905
▁spilled	-7906
▁spinner	-7907
▁spreads	-7908
▁sprints	-7909
▁stained	-7910
▁statute	-7911
▁staying	-7912
▁sticker	-7913
▁streaks	-7914
▁streams	-7915
▁sunhats	-7916
▁takeout	-7917
▁technic	-7918
▁telling	-7919
▁testing	-7920
▁tickets	-7921
▁tobacco	-7922
▁toilets	-7923
▁trouble	-7924
▁turbans	-7925
▁tuxedos	-7926
▁unkempt	-7927
▁unwraps	-7928
▁vacuums	-7929
▁violins	-7930
▁yawning	-7931
▁zombies	-7932
antically	-7933
▁Athletes	-7934
▁Buddhist	-7935
▁Homeless	-7936
▁Monopoly	-7937
▁Nintendo	-7938
▁Overhead	-7939
▁Soldiers	-7940
▁aluminum	-7941
▁approach	-7942
▁arranged	-7943
▁attaches	-7944
▁backhand	-7945
▁battling	-7946
▁bicycler	-7947
▁blacktop	-7948
▁bordered	-7949
▁campaign	-7950
▁canister	-7951
▁captured	-7952
▁captures	-7953
▁challeng	-7954
▁charging	-7955
▁contains	-7956
▁corridor	-7957
▁creative	-7958
▁creature	-7959
▁darkness	-7960
▁descends	-7961
▁directed	-7962
▁director	-7963
▁drenched	-7964
▁dwelling	-7965
▁elevator	-7966
▁equipped	-7967
▁explorer	-7968
▁explores	-7969
▁exposing	-7970
▁families	-7971
▁featured	-7972
▁forklift	-7973
▁friendly	-7974
▁frosting	-7975
▁frowning	-7976
▁gorgeous	-7977
▁graduate	-7978
▁gripping	-7979
▁handmade	-7980
▁headgear	-7981
▁holidays	-7982
▁horizont	-7983
▁huddling	-7984
▁inclined	-7985
▁informal	-7986
▁innertub	-7987
▁interior	-7988
▁intimate	-7989
▁investig	-7990
▁lakeside	-7991
▁landmark	-7992
▁lassoing	-7993
▁launches	-7994
▁leotards	-7995
▁littered	-7996
▁maintain	-7997
▁maneuver	-7998
▁manipula	-7999
▁mirrored	-8000
▁nibbling	-8001
▁numbered	-8002
▁onlooker	-8003
▁ornament	-8004
▁overpass	-8005
▁pleasant	-8006
▁potatoes	-8007
▁pregnant	-8008
▁pressing	-8009
▁pretends	-8010
▁princess	-8011
▁pumpkins	-8012
▁recently	-8013
▁recliner	-8014
▁referees	-8015
▁released	-8016
▁screened	-8017
▁services	-8018
▁shadowed	-8019
▁sheepdog	-8020
▁smirking	-8021
▁snowshoe	-8022
▁somebody	-8023
▁sparkler	-8024
▁speakers	-8025
▁spending	-8026
▁stopping	-8027
▁struggle	-8028
▁sweating	-8029
▁symphony	-8030
▁tethered	-8031
▁towering	-8032
▁trumpets	-8033
▁underway	-8034
▁uniquely	-8035
▁upcoming	-8036
▁utensils	-8037
▁wheeling	-8038
▁windsurf	-8039
▁wrapping	-8040
▁Challenge	-8041
▁Fisherman	-8042
▁Fishermen	-8043
▁Hollister	-8044
▁Spiderman	-8045
▁Teenagers	-8046
▁addresses	-8047
▁advantage	-8048
▁adventure	-8049
▁affection	-8050
▁astronaut	-8051
▁barricade	-8052
▁bordering	-8053
▁camcorder	-8054
▁cameramen	-8055
▁catamaran	-8056
▁challenge	-8057
▁collected	-8058
▁coverings	-8059
▁craftsman	-8060
▁crocodile	-8061
▁depicting	-8062
▁distorted	-8063
▁enclosure	-8064
▁expensive	-8065
▁explosion	-8066
▁flotation	-8067
▁geometric	-8068
▁grimacing	-8069
▁halloween	-8070
▁hamburger	-8071
▁happening	-8072
▁heartbeat	-8073
▁keyboards	-8074
▁kickboxer	-8075
▁launching	-8076
▁livestock	-8077
▁maneuvers	-8078
▁miniskirt	-8079
▁mustached	-8080
▁notebooks	-8081
▁overlooks	-8082
▁paintball	-8083
▁patiently	-8084
▁patriotic	-8085
▁piercings	-8086
▁playhouse	-8087
▁ponytails	-8088
▁portraits	-8089
▁positions	-8090
▁primitive	-8091
▁protester	-8092
▁rainstorm	-8093
▁retriever	-8094
▁reviewing	-8095
▁seemingly	-8096
▁shielding	-8097
▁similarly	-8098
▁sparklers	-8099
▁spreading	-8100
▁sprinkled	-8101
▁sprinkles	-8102
▁squinting	-8103
▁straining	-8104
▁strumming	-8105
▁temporary	-8106
▁treatment	-8107
▁tricycles	-8108
▁unusually	-8109
▁villagers	-8110
▁violinist	-8111
▁wristband	-8112
▁Firetrucks	-8113
▁Washington	-8114
▁addressing	-8115
▁assortment	-8116
▁ballerinas	-8117
▁barricades	-8118
▁blacksmith	-8119
▁blossoming	-8120
▁butchering	-8121
▁containers	-8122
▁countertop	-8123
▁dishwasher	-8124
▁electrical	-8125
▁elementary	-8126
▁entertains	-8127
▁enthusiasm	-8128
▁everywhere	-8129
▁fingernail	-8130
▁fingertips	-8131
▁flashlight	-8132
▁footprints	-8133
▁formations	-8134
▁government	-8135
▁handlebars	-8136
▁healthcare	-8137
▁interested	-8138
▁interviews	-8139
▁jackhammer	-8140
▁mannequins	-8141
▁meditating	-8142
▁mesmerized	-8143
▁navigating	-8144
▁outfielder	-8145
▁powerpoint	-8146
▁procession	-8147
▁protesters	-8148
▁rappelling	-8149
▁reflecting	-8150
▁refreshing	-8151
▁rehearsing	-8152
▁responding	-8153
▁saxophones	-8154
▁schoolgirl	-8155
▁seamstress	-8156
▁skillfully	-8157
▁snowmobile	-8158
▁somersault	-8159
▁sprinkling	-8160
▁surfboards	-8161
▁suspension	-8162
▁tambourine	-8163
▁throughout	-8164
▁turtleneck	-8165
▁videotapes	-8166
▁vigorously	-8167
▁wakeboards	-8168
▁waterproof	-8169
▁windowsill	-8170
▁youngsters	-8171
▁Individuals	-8172
▁Renaissance	-8173
▁Snowboarder	-8174
▁SquarePants	-8175
▁accompanies	-8176
▁beautifully	-8177
▁congregated	-8178
▁contestants	-8179
▁electrician	-8180
▁enforcement	-8181
▁grandmother	-8182
▁maneuvering	-8183
▁mustachioed	-8184
▁opportunity	-8185
▁outcropping	-8186
▁rectangular	-8187
▁renaissance	-8188
▁restaurants	-8189
▁screwdriver	-8190
▁spectacular	-8191
▁stethoscope	-8192
▁uncompleted	-8193
▁wildflowers	-8194
▁woodworking	-8195
▁congregating	-8196
▁demonstrates	-8197
▁entertaining	-8198
▁handkerchief	-8199
▁outstreached	-8200
▁participants	-8201
▁representing	-8202
▁streetlights	-8203
▁transporting	-8204
▁competitively	-8205
▁entertainment	-8206
▁granddaughter	-8207
▁professionally	-8208
FC	-8209
HL	-8210
EGO	-8211
MCA	-8212
afe	-8213
anc	-8214
asy	-8215
iki	-8216
liv	-8217
lur	-8218
nov	-8219
ply	-8220
xyg	-8221
▁Dr	-8222
▁Iz	-8223
▁oc	-8224
abst	-8225
acts	-8226
ancy	-8227
angu	-8228
anny	-8229
avan	-8230
avid	-8231
bbly	-8232
bbon	-8233
cano	-8234
cass	-8235
chet	-8236
edEx	-8237
eeps	-8238
golf	-8239
gued	-8240
iker	-8241
itty	-8242
laps	-8243
lits	-8244
nyrd	-8245
ohns	-8246
oons	-8247
ooth	-8248
oria	-8249
ould	-8250
ouse	-8251
pact	-8252
phed	-8253
play	-8254
pole	-8255
poms	-8256
rank	-8257
rict	-8258
rocs	-8259
take	-8260
tuce	-8261
unny	-8262
vous	-8263
ythe	-8264
zaar	-8265
zels	-8266
▁Atl	-8267
▁Att	-8268
▁Den	-8269
▁Egy	-8270
▁Hop	-8271
▁Iow	-8272
▁LeB	-8273
▁MMA	-8274
▁Rep	-8275
▁Sty	-8276
▁Tri	-8277
▁abs	-8278
▁alb	-8279
▁amb	-8280
▁awk	-8281
▁cuc	-8282
▁mex	-8283
▁oak	-8284
▁owl	-8285
▁sau	-8286
▁sib	-8287
▁vat	-8288
▁voc	-8289
acled	-8290
alace	-8291
alend	-8292
altim	-8293
ancis	-8294
artet	-8295
ascar	-8296
bbery	-8297
bikes	-8298
block	-8299
eye	-8300
lly	-8301
oli	-8302
ows	-8303
▁DI	-8304
▁Ge	-8305
inky	-8306
onry	-8307
▁Amp	-8308
▁Dom	-8309
▁Gen	-8310
▁Gri	-8311
▁Las	-8312
▁Mac	-8313
acent	-8314
agant	-8315
aired	-8316
build	-8317
ccoli	-8318
chase	-8319
chers	-8320
ciate	-8321
dging	-8322
enact	-8323
enous	-8324
epper	-8325
erior	-8326
essel	-8327
ffort	-8328
fring	-8329
gerid	-8330
goers	-8331
haust	-8332
heast	-8333
horse	-8334
ibles	-8335
illac	-8336
ircus	-8337
irrel	-8338
istry	-8339
lower	-8340
lurry	-8341
mmage	-8342
naked	-8343
olley	-8344
onald	-8345
onder	-8346
ongol	-8347
ooter	-8348
organ	-8349
orker	-8350
ormal	-8351
otted	-8352
pants	-8353
plane	-8354
rador	-8355
riger	-8356
robed	-8357
shake	-8358
story	-8359
thumb	-8360
ucked	-8361
ucker	-8362
ulent	-8363
ultry	-8364
unken	-8365
urful	-8366
urous	-8367
urses	-8368
uston	-8369
uthor	-8370
venue	-8371
walks	-8372
wined	-8373
xford	-8374
xygen	-8375
ynyrd	-8376
yscra	-8377
▁Ange	-8378
▁Arch	-8379
▁Bald	-8380
▁Bird	-8381
▁Chev	-8382
▁Coke	-8383
▁Comp	-8384
▁Corp	-8385
▁Dane	-8386
▁Flag	-8387
▁Hand	-8388
▁Hind	-8389
▁Iowa	-8390
▁Isra	-8391
▁Marx	-8392
▁Mich	-8393
▁Most	-8394
▁Muzz	-8395
▁Navy	-8396
▁Near	-8397
▁Need	-8398
▁Pass	-8399
agu	-8400
got	-8401
ifi	-8402
rup	-8403
▁Li	-8404
▁Pe	-8405
aghe	-8406
angs	-8407
bors	-8408
cons	-8409
gant	-8410
hael	-8411
ials	-8412
igns	-8413
ools	-8414
oors	-8415
orak	-8416
tore	-8417
▁Bar	-8418
▁Bes	-8419
▁Law	-8420
▁Whe	-8421
▁ads	-8422
▁cos	-8423
▁ign	-8424
▁piz	-8425
▁wre	-8426
aghet	-8427
eries	-8428
iches	-8429
mused	-8430
▁Bare	-8431
▁Bill	-8432
▁Fest	-8433
▁Pelo	-8434
▁Poke	-8435
▁Port	-8436
▁Prin	-8437
▁Prof	-8438
▁Rail	-8439
▁Sams	-8440
▁Scoo	-8441
▁Sout	-8442
▁Tank	-8443
▁Thai	-8444
▁Time	-8445
▁Well	-8446
▁YMCA	-8447
▁adds	-8448
▁aims	-8449
▁ampl	-8450
▁asht	-8451
▁barn	-8452
▁beds	-8453
▁bell	-8454
▁bibs	-8455
▁bins	-8456
▁bits	-8457
▁bomb	-8458
▁buck	-8459
▁buys	-8460
▁chun	-8461
▁clen	-8462
▁conv	-8463
▁cork	-8464
▁cott	-8465
▁crag	-8466
▁cram	-8467
▁cris	-8468
▁crow	-8469
▁dies	-8470
▁dipl	-8471
▁drab	-8472
▁ecle	-8473
▁empt	-8474
▁enve	-8475
▁eyel	-8476
▁fare	-8477
▁faux	-8478
▁grim	-8479
▁grin	-8480
▁gyro	-8481
▁hops	-8482
▁hurt	-8483
▁idle	-8484
▁insp	-8485
▁jets	-8486
▁jost	-8487
▁lava	-8488
▁math	-8489
▁mime	-8490
▁mort	-8491
▁nuts	-8492
▁oval	-8493
▁peas	-8494
▁peek	-8495
▁peep	-8496
▁pies	-8497
▁pork	-8498
▁putt	-8499
EP	-8500
enn	-8501
ffy	-8502
sue	-8503
▁Cl	-8504
▁Ir	-8505
▁LA	-8506
▁SC	-8507
▁WA	-8508
dist	-8509
dled	-8510
ffin	-8511
game	-8512
gets	-8513
gway	-8514
inte	-8515
load	-8516
main	-8517
pool	-8518
raul	-8519
resh	-8520
rine	-8521
roat	-8522
tter	-8523
ugar	-8524
▁Cri	-8525
▁asp	-8526
▁did	-8527
▁dut	-8528
▁gla	-8529
▁tru	-8530
esame	-8531
icked	-8532
ipers	-8533
istro	-8534
rible	-8535
ubble	-8536
unday	-8537
uster	-8538
▁Mach	-8539
▁Penn	-8540
▁Year	-8541
▁agit	-8542
▁copy	-8543
▁corg	-8544
▁dumb	-8545
▁fund	-8546
▁glue	-8547
▁mold	-8548
▁rags	-8549
▁reco	-8550
▁ribs	-8551
▁rugg	-8552
▁samp	-8553
▁sash	-8554
▁seal	-8555
▁serv	-8556
▁silk	-8557
▁size	-8558
▁slal	-8559
▁slim	-8560
▁stem	-8561
▁surp	-8562
▁sush	-8563
▁tote	-8564
▁turf	-8565
▁twin	-8566
▁upra	-8567
▁vase	-8568
▁wavy	-8569
Guitar	-8570
acious	-8571
action	-8572
actory	-8573
addled	-8574
anadas	-8575
angled	-8576
araunt	-8577
arfish	-8578
avyset	-8579
ayaker	-8580
baller	-8581
beater	-8582
casing	-8583
casion	-8584
ctural	-8585
decker	-8586
dotted	-8587
flower	-8588
formal	-8589
heeled	-8590
hernal	-8591
houses	-8592
ichael	-8593
idesma	-8594
igator	-8595
insing	-8596
ioneer	-8597
lifted	-8598
merica	-8599
IS	-8600
Th	-8601
To	-8602
pl	-8603
elp	-8604
iol	-8605
mig	-8606
▁ig	-8607
amph	-8608
bird	-8609
ntly	-8610
olis	-8611
outh	-8612
▁Cam	-8613
▁Fat	-8614
▁For	-8615
▁Fro	-8616
▁Reg	-8617
▁cue	-8618
▁mau	-8619
▁sod	-8620
▁wag	-8621
▁wok	-8622
bling	-8623
check	-8624
ifter	-8625
iolin	-8626
itage	-8627
▁Fair	-8628
▁From	-8629
▁Tall	-8630
▁ally	-8631
▁clog	-8632
▁iglo	-8633
▁kelp	-8634
▁moms	-8635
▁pred	-8636
▁scan	-8637
▁skew	-8638
▁sour	-8639
▁sous	-8640
▁tame	-8641
▁trim	-8642
boards	-8643
change	-8644
circle	-8645
hiking	-8646
idence	-8647
nesota	-8648
ockeys	-8649
oggers	-8650
ortant	-8651
presso	-8652
radood	-8653
raiser	-8654
ramble	-8655
raulic	-8656
rected	-8657
rewing	-8658
ricans	-8659
ricate	-8660
rowded	-8661
semble	-8662
stride	-8663
themed	-8664
thumbs	-8665
uccess	-8666
ulated	-8667
umping	-8668
urance	-8669
vagant	-8670
velers	-8671
vender	-8672
versal	-8673
verted	-8674
weiser	-8675
yclone	-8676
▁Adult	-8677
▁After	-8678
▁Alask	-8679
▁Astro	-8680
▁Attra	-8681
▁Block	-8682
▁Brick	-8683
▁Class	-8684
▁Count	-8685
▁Crocs	-8686
▁Darth	-8687
▁David	-8688
▁Earth	-8689
▁Every	-8690
▁Foods	-8691
▁Great	-8692
▁Islam	-8693
▁Italy	-8694
▁Notre	-8695
▁Pabst	-8696
▁Pilot	-8697
▁Power	-8698
▁Rican	-8699
EN	-8700
col	-8701
ido	-8702
kee	-8703
sco	-8704
won	-8705
▁Mr	-8706
▁My	-8707
awas	-8708
cell	-8709
vate	-8710
wled	-8711
▁Pet	-8712
▁Sch	-8713
▁gap	-8714
▁hoe	-8715
▁moo	-8716
▁raw	-8717
▁sno	-8718
▁spa	-8719
class	-8720
umped	-8721
▁Wood	-8722
▁bone	-8723
▁bust	-8724
▁eyeb	-8725
▁gain	-8726
▁lect	-8727
▁mood	-8728
▁moss	-8729
▁mugs	-8730
▁rent	-8731
▁rese	-8732
▁skit	-8733
▁stap	-8734
▁stum	-8735
▁ward	-8736
ctions	-8737
inders	-8738
ineken	-8739
rences	-8740
tering	-8741
wister	-8742
yellow	-8743
▁Cooks	-8744
▁Newly	-8745
▁Rider	-8746
▁Scuba	-8747
▁Story	-8748
▁Thurs	-8749
▁Water	-8750
▁album	-8751
▁allow	-8752
▁aloft	-8753
▁aloud	-8754
▁altar	-8755
▁amber	-8756
▁bagel	-8757
▁bands	-8758
▁based	-8759
▁bathe	-8760
▁beaut	-8761
▁bells	-8762
▁blank	-8763
▁blues	-8764
▁braid	-8765
▁brook	-8766
▁bulbs	-8767
▁chief	-8768
▁chili	-8769
▁chore	-8770
▁clips	-8771
▁comic	-8772
▁conif	-8773
▁conso	-8774
▁conve	-8775
▁could	-8776
▁crabs	-8777
▁crack	-8778
▁devil	-8779
▁divid	-8780
▁docum	-8781
▁drape	-8782
▁eagle	-8783
▁egret	-8784
▁ended	-8785
▁feels	-8786
▁ferns	-8787
▁flame	-8788
▁flaps	-8789
▁fluid	-8790
▁focal	-8791
▁fours	-8792
▁gates	-8793
▁globe	-8794
▁goofy	-8795
▁hairy	-8796
▁handg	-8797
▁headf	-8798
▁hello	-8799
AM	-8800
Man	-8801
igz	-8802
inn	-8803
mar	-8804
nie	-8805
ulk	-8806
urn	-8807
Free	-8808
addy	-8809
akes	-8810
chie	-8811
door	-8812
ggle	-8813
itas	-8814
ites	-8815
love	-8816
mong	-8817
pard	-8818
vere	-8819
▁Los	-8820
▁Tim	-8821
▁add	-8822
▁bug	-8823
▁ker	-8824
▁law	-8825
▁roy	-8826
bread	-8827
icult	-8828
igzag	-8829
onnie	-8830
rigin	-8831
▁Gras	-8832
▁bake	-8833
▁euro	-8834
▁herd	-8835
▁lace	-8836
▁pigs	-8837
▁role	-8838
▁toll	-8839
▁viet	-8840
asting	-8841
atever	-8842
rigued	-8843
▁Giant	-8844
▁Rocks	-8845
▁Space	-8846
▁aside	-8847
▁grips	-8848
▁heron	-8849
▁hides	-8850
▁hoist	-8851
▁hokey	-8852
▁hurry	-8853
▁icing	-8854
▁igloo	-8855
▁infla	-8856
▁irons	-8857
▁irrit	-8858
▁issue	-8859
▁judge	-8860
▁kabob	-8861
▁langu	-8862
▁lapse	-8863
▁later	-8864
▁latin	-8865
▁layup	-8866
▁learn	-8867
▁leave	-8868
▁likes	-8869
▁limbs	-8870
▁loses	-8871
▁mauve	-8872
▁meats	-8873
▁medal	-8874
▁medic	-8875
▁melon	-8876
▁meter	-8877
▁misty	-8878
▁mossy	-8879
▁mowed	-8880
▁names	-8881
▁nears	-8882
▁newsc	-8883
▁ninja	-8884
▁oddly	-8885
▁owned	-8886
▁packs	-8887
▁parks	-8888
▁plume	-8889
▁prays	-8890
▁price	-8891
▁proje	-8892
▁props	-8893
▁racks	-8894
▁rates	-8895
▁remod	-8896
▁renov	-8897
▁repla	-8898
▁roots	-8899
icu	-8900
wan	-8901
Love	-8902
alie	-8903
ases	-8904
aver	-8905
bike	-8906
ener	-8907
lets	-8908
ream	-8909
rets	-8910
▁Ado	-8911
▁Nes	-8912
▁aer	-8913
▁cha	-8914
▁doo	-8915
▁gam	-8916
▁hog	-8917
▁ner	-8918
▁pud	-8919
▁wee	-8920
aders	-8921
laces	-8922
lence	-8923
mined	-8924
nited	-8925
orugh	-8926
▁Fans	-8927
▁Louv	-8928
▁Pipe	-8929
▁bale	-8930
▁cops	-8931
▁kill	-8932
▁lond	-8933
▁mine	-8934
▁toil	-8935
▁tort	-8936
apples	-8937
elting	-8938
ggress	-8939
indeer	-8940
racted	-8941
▁Chefs	-8942
▁Dober	-8943
▁bloom	-8944
▁gener	-8945
▁grave	-8946
▁loves	-8947
▁outer	-8948
▁royal	-8949
▁sauce	-8950
▁scary	-8951
▁scope	-8952
▁sedan	-8953
▁sends	-8954
▁shift	-8955
▁shine	-8956
▁shots	-8957
▁slips	-8958
▁slung	-8959
▁smart	-8960
▁smear	-8961
▁smith	-8962
▁smock	-8963
▁snail	-8964
▁snugg	-8965
▁spend	-8966
▁spill	-8967
▁stake	-8968
▁state	-8969
▁steal	-8970
▁strad	-8971
▁sucks	-8972
▁swung	-8973
▁syrup	-8974
▁tailg	-8975
▁taped	-8976
▁tears	-8977
▁terro	-8978
▁tests	-8979
▁thing	-8980
▁thong	-8981
▁thous	-8982
▁tilts	-8983
▁times	-8984
▁tough	-8985
▁trade	-8986
▁treed	-8987
▁troop	-8988
▁twins	-8989
▁union	-8990
▁vault	-8991
▁veter	-8992
▁visit	-8993
▁wands	-8994
▁winks	-8995
▁would	-8996
▁wrapp	-8997
▁zooms	-8998
Eastern	-8999
how	-9000
rog	-9001
▁SW	-9002
▁ny	-9003
arit	-9004
eers	-9005
elve	-9006
erts	-9007
flip	-9008
hell	-9009
irst	-9010
rain	-9011
uman	-9012
wall	-9013
▁May	-9014
▁SWA	-9015
▁Tea	-9016
▁Top	-9017
▁Tur	-9018
▁Wee	-9019
▁atm	-9020
▁atv	-9021
▁cul	-9022
▁die	-9023
▁fra	-9024
▁lun	-9025
▁rat	-9026
acket	-9027
claim	-9028
drift	-9029
iants	-9030
iners	-9031
uding	-9032
uture	-9033
▁Must	-9034
▁SWAT	-9035
▁cola	-9036
▁frog	-9037
▁hors	-9038
▁lego	-9039
▁page	-9040
▁sequ	-9041
▁sews	-9042
abilia	-9043
biling	-9044
▁FedEx	-9045
▁Human	-9046
▁grate	-9047
▁knock	-9048
▁locks	-9049
▁obliv	-9050
▁sites	-9051
▁sushi	-9052
Welcome	-9053
adillac	-9054
agement	-9055
aghetti	-9056
alendar	-9057
awasaki	-9058
blading	-9059
brimmed	-9060
centric	-9061
cessing	-9062
chested	-9063
cussion	-9064
dresser	-9065
eranian	-9066
floored	-9067
fringed	-9068
hammers	-9069
ilizing	-9070
istered	-9071
lechase	-9072
lifting	-9073
llution	-9074
parents	-9075
reprene	-9076
riendly	-9077
scooter	-9078
speaker	-9079
ticular	-9080
tingent	-9081
uperman	-9082
▁Artist	-9083
▁Baller	-9084
▁Baltim	-9085
▁Blurry	-9086
▁Bright	-9087
▁Calvin	-9088
▁Capris	-9089
▁Castro	-9090
▁Circus	-9091
▁Diners	-9092
▁Eleven	-9093
▁Engine	-9094
▁Farmer	-9095
▁Giants	-9096
▁Guitar	-9097
▁Harlem	-9098
▁Horses	-9099
ani	-9100
ass	-9101
eny	-9102
run	-9103
sea	-9104
▁Ac	-9105
▁To	-9106
cken	-9107
ehic	-9108
ingy	-9109
race	-9110
stop	-9111
unet	-9112
▁Fin	-9113
▁Ore	-9114
▁Sur	-9115
▁Tan	-9116
▁War	-9117
▁cob	-9118
▁dir	-9119
▁non	-9120
▁sac	-9121
▁san	-9122
agues	-9123
ceful	-9124
iance	-9125
illas	-9126
▁Dame	-9127
▁chim	-9128
▁coke	-9129
▁hide	-9130
▁lack	-9131
▁mane	-9132
▁moun	-9133
▁nips	-9134
▁snoo	-9135
▁toes	-9136
▁worn	-9137
anging	-9138
erside	-9139
father	-9140
inding	-9141
ivated	-9142
umably	-9143
▁agric	-9144
▁ankle	-9145
▁capri	-9146
▁corre	-9147
▁dingy	-9148
▁faith	-9149
▁fanny	-9150
▁filed	-9151
▁pamph	-9152
▁setup	-9153
▁soapy	-9154
▁yells	-9155
angling	-9156
▁LeBron	-9157
▁Louvre	-9158
▁Morgan	-9159
▁Needle	-9160
▁Nurses	-9161
▁Onlook	-9162
▁Oxford	-9163
▁Racing	-9164
▁Ribbon	-9165
▁Scooby	-9166
▁Scouts	-9167
▁Seated	-9168
▁Segway	-9169
▁Series	-9170
▁Sesame	-9171
▁Shorts	-9172
▁Skater	-9173
▁States	-9174
▁Stones	-9175
▁Sunday	-9176
▁Trader	-9177
▁Wonder	-9178
▁always	-9179
▁angels	-9180
▁announ	-9181
▁anorak	-9182
▁answer	-9183
▁antiqu	-9184
▁approp	-9185
▁asians	-9186
▁assign	-9187
▁backed	-9188
▁baking	-9189
▁barbed	-9190
▁bazaar	-9191
▁beaker	-9192
▁beauty	-9193
▁become	-9194
▁binder	-9195
▁bistro	-9196
▁blasts	-9197
▁blinds	-9198
▁bloody	-9199
ME	-9200
oc	-9201
OME	-9202
alo	-9203
hin	-9204
lot	-9205
ndy	-9206
omy	-9207
▁Av	-9208
▁dj	-9209
▁pf	-9210
esus	-9211
five	-9212
kart	-9213
lear	-9214
lein	-9215
rond	-9216
▁Yan	-9217
▁gir	-9218
▁gut	-9219
ables	-9220
mates	-9221
rests	-9222
▁Sled	-9223
▁hero	-9224
▁isle	-9225
▁less	-9226
▁lets	-9227
▁oars	-9228
▁perf	-9229
▁pout	-9230
▁puff	-9231
▁slum	-9232
▁tugs	-9233
ackson	-9234
arding	-9235
tailed	-9236
▁Broad	-9237
▁array	-9238
▁aston	-9239
▁brigh	-9240
▁bucks	-9241
▁cells	-9242
▁grain	-9243
▁graze	-9244
▁moose	-9245
▁mulch	-9246
▁necks	-9247
▁offer	-9248
▁sodas	-9249
▁spare	-9250
▁swirl	-9251
▁tress	-9252
ancisco	-9253
▁Waters	-9254
▁author	-9255
▁bluish	-9256
▁bonnet	-9257
▁bowled	-9258
▁braids	-9259
▁breeze	-9260
▁brunet	-9261
▁bucked	-9262
▁builds	-9263
▁burger	-9264
▁burrit	-9265
▁bushel	-9266
▁busily	-9267
▁busker	-9268
▁calmly	-9269
▁campus	-9270
▁cavern	-9271
▁change	-9272
▁chisel	-9273
▁choppy	-9274
▁chores	-9275
▁clasps	-9276
▁clever	-9277
▁cliffs	-9278
▁common	-9279
▁convey	-9280
▁copies	-9281
▁creepy	-9282
▁cutter	-9283
▁dachsh	-9284
▁dalmat	-9285
▁daring	-9286
▁decked	-9287
▁dental	-9288
▁detail	-9289
▁diaper	-9290
▁diners	-9291
▁drawer	-9292
▁drifts	-9293
▁ecstat	-9294
▁effort	-9295
▁ensure	-9296
▁evenly	-9297
▁exotic	-9298
▁exting	-9299
BA	-9300
ER	-9301
ev	-9302
nas	-9303
▁Da	-9304
▁fu	-9305
▁ga	-9306
ardi	-9307
free	-9308
orah	-9309
urst	-9310
▁Mrs	-9311
▁Pee	-9312
▁ber	-9313
▁kil	-9314
iffel	-9315
▁Euro	-9316
▁Hero	-9317
▁Tree	-9318
▁camo	-9319
▁flap	-9320
▁inno	-9321
▁loit	-9322
▁pean	-9323
▁true	-9324
▁wits	-9325
former	-9326
legged	-9327
nished	-9328
▁Mardi	-9329
▁Their	-9330
▁baker	-9331
▁bares	-9332
▁entry	-9333
▁flier	-9334
▁funky	-9335
▁herbs	-9336
▁maple	-9337
▁parap	-9338
▁sewer	-9339
▁sleek	-9340
▁spiky	-9341
▁stout	-9342
▁wants	-9343
▁Alaska	-9344
▁Hopper	-9345
▁Summer	-9346
▁Sveral	-9347
▁alpine	-9348
▁expect	-9349
▁falcon	-9350
▁famous	-9351
▁festiv	-9352
▁fierce	-9353
▁filmed	-9354
▁flashy	-9355
▁flutes	-9356
▁folder	-9357
▁frilly	-9358
▁frisbe	-9359
▁fronds	-9360
▁frothy	-9361
▁frowns	-9362
▁future	-9363
▁gallon	-9364
▁garish	-9365
▁garter	-9366
▁german	-9367
▁glassy	-9368
▁glides	-9369
▁grains	-9370
▁grasps	-9371
▁guests	-9372
▁guides	-9373
▁hairdo	-9374
▁hamper	-9375
▁hazard	-9376
▁header	-9377
▁hedges	-9378
▁height	-9379
▁helper	-9380
▁hitter	-9381
▁hollow	-9382
▁hooked	-9383
▁hoping	-9384
▁hugged	-9385
▁humans	-9386
▁hunter	-9387
▁illust	-9388
▁insect	-9389
▁intern	-9390
▁intert	-9391
▁joking	-9392
▁jostle	-9393
▁juggle	-9394
▁kimono	-9395
▁leaped	-9396
▁learns	-9397
▁levels	-9398
▁licked	-9399
▁linens	-9400
▁lizard	-9401
▁loader	-9402
▁locker	-9403
▁london	-9404
▁lovers	-9405
▁mainly	-9406
▁majest	-9407
▁mallet	-9408
▁mantle	-9409
▁manure	-9410
▁masses	-9411
▁median	-9412
▁miners	-9413
▁mingle	-9414
▁missed	-9415
▁moored	-9416
▁mortar	-9417
▁mounds	-9418
▁murals	-9419
▁nation	-9420
▁neatly	-9421
▁normal	-9422
▁obstru	-9423
▁origin	-9424
▁oxygen	-9425
▁pajama	-9426
▁palace	-9427
▁parrot	-9428
▁passer	-9429
▁pastry	-9430
▁patchy	-9431
▁pearls	-9432
▁period	-9433
▁phones	-9434
▁piling	-9435
▁placid	-9436
▁planes	-9437
▁plaque	-9438
▁raging	-9439
▁rather	-9440
▁reason	-9441
▁rescue	-9442
▁resour	-9443
▁restra	-9444
▁rifles	-9445
▁rimmed	-9446
▁rising	-9447
▁rocker	-9448
▁rocket	-9449
▁rugged	-9450
▁rusted	-9451
▁safely	-9452
▁saucer	-9453
▁saving	-9454
▁scores	-9455
▁scythe	-9456
▁secret	-9457
▁secure	-9458
▁seller	-9459
▁serene	-9460
▁shabby	-9461
▁shells	-9462
▁shined	-9463
▁shouts	-9464
▁shrine	-9465
▁simple	-9466
▁simply	-9467
▁skulls	-9468
▁slalom	-9469
▁sleepy	-9470
▁sliced	-9471
▁snoopy	-9472
▁snowed	-9473
▁soaked	-9474
▁softly	-9475
▁source	-9476
▁sparks	-9477
▁spirit	-9478
▁splits	-9479
▁spoons	-9480
▁squash	-9481
▁steals	-9482
▁stoops	-9483
▁strips	-9484
▁stroke	-9485
▁strums	-9486
▁strung	-9487
▁stuffs	-9488
▁styled	-9489
▁sucker	-9490
▁suited	-9491
▁sweets	-9492
▁swoops	-9493
▁teeter	-9494
▁throat	-9495
▁tilted	-9496
▁tinsel	-9497
▁tinted	-9498
▁tipped	-9499
▁topped	-9500
▁toting	-9501
▁trendy	-9502
▁tucked	-9503
▁twenty	-9504
▁unload	-9505
▁urinal	-9506
▁varied	-9507
▁vessel	-9508
▁victim	-9509
▁viewed	-9510
▁violet	-9511
▁vision	-9512
▁waffle	-9513
▁wagons	-9514
▁watery	-9515
▁welder	-9516
▁worked	-9517
▁wounds	-9518
▁wrench	-9519
▁wrists	-9520
▁writer	-9521
▁zigzag	-9522
allowing	-9523
aneously	-9524
climbing	-9525
distance	-9526
fighting	-9527
hernalia	-9528
idential	-9529
itasking	-9530
itioning	-9531
ographed	-9532
ongolian	-9533
operated	-9534
painting	-9535
radoodle	-9536
yscraper	-9537
▁Airline	-9538
▁Airways	-9539
▁Angeles	-9540
▁Athlete	-9541
▁Atlanta	-9542
▁Central	-9543
▁Cricket	-9544
▁Evening	-9545
▁Factory	-9546
▁Firemen	-9547
▁Forever	-9548
▁Gardens	-9549
▁Groucho	-9550
▁Holding	-9551
▁Houston	-9552
▁Indians	-9553
▁Islamic	-9554
▁Medical	-9555
▁Michael	-9556
▁Muzzled	-9557
▁Orioles	-9558
▁Patrick	-9559
▁Pokemon	-9560
▁Pottery	-9561
▁Profile	-9562
▁Rodgers	-9563
▁Russian	-9564
▁Samsung	-9565
▁Skiiers	-9566
▁Soldier	-9567
▁Swimmer	-9568
▁Terrier	-9569
▁Waiting	-9570
▁Walkers	-9571
▁Walking	-9572
▁Walkman	-9573
▁Welcome	-9574
▁Western	-9575
▁Workman	-9576
▁actions	-9577
▁armored	-9578
▁ascends	-9579
▁ashtray	-9580
▁assists	-9581
▁average	-9582
▁aviator	-9583
▁awkward	-9584
▁backing	-9585
▁bandage	-9586
▁batting	-9587
▁bemused	-9588
▁blankly	-9589
▁boaters	-9590
▁bombard	-9591
▁bonding	-9592
▁bonfire	-9593
▁bottled	-9594
▁brimmed	-9595
▁buffalo	-9596
▁bulldog	-9597
▁bundles	-9598
▁burying	-9599
▁busking	-9600
▁buttons	-9601
▁capital	-9602
▁caravan	-9603
▁careful	-9604
▁cartons	-9605
▁cheered	-9606
▁chested	-9607
▁chimney	-9608
▁chipper	-9609
▁chisels	-9610
▁chopped	-9611
▁circles	-9612
▁citizen	-9613
▁climbed	-9614
▁closing	-9615
▁coached	-9616
▁collaps	-9617
▁comfort	-9618
▁condoms	-9619
▁correct	-9620
▁corsage	-9621
▁cottage	-9622
▁couches	-9623
▁cracked	-9624
▁crammed	-9625
▁cramped	-9626
▁crayola	-9627
▁crushed	-9628
▁culture	-9629
▁cupping	-9630
▁custody	-9631
▁customs	-9632
▁cutouts	-9633
▁dappled	-9634
▁decides	-9635
▁delight	-9636
▁diamond	-9637
▁disinte	-9638
▁downing	-9639
▁drawers	-9640
▁dribble	-9641
▁drunken	-9642
▁dueling	-9643
▁dumping	-9644
▁elegant	-9645
▁enjoyed	-9646
▁erected	-9647
▁exhaust	-9648
▁farming	-9649
▁feature	-9650
▁fencers	-9651
▁fetches	-9652
▁fiddles	-9653
▁fitting	-9654
▁fixture	-9655
▁flexing	-9656
▁flipped	-9657
▁floored	-9658
▁folders	-9659
▁forearm	-9660
▁freight	-9661
▁frolics	-9662
▁glances	-9663
▁glowing	-9664
▁golfers	-9665
▁graying	-9666
▁grilled	-9667
▁grinder	-9668
▁guiding	-9669
▁halfway	-9670
▁hamming	-9671
▁handgun	-9672
▁handler	-9673
▁harvest	-9674
▁hatchet	-9675
▁hoodies	-9676
▁housing	-9677
▁humping	-9678
▁incense	-9679
▁joggers	-9680
▁journal	-9681
▁juggler	-9682
▁karaoke	-9683
▁kayaker	-9684
▁knitted	-9685
▁knotted	-9686
▁leashed	-9687
▁letting	-9688
▁lettuce	-9689
▁lockers	-9690
▁maracas	-9691
▁marshal	-9692
▁martini	-9693
▁masonry	-9694
▁massage	-9695
▁measure	-9696
▁mexican	-9697
▁milking	-9698
▁milling	-9699
▁mirrors	-9700
▁miscell	-9701
▁mischie	-9702
▁mixture	-9703
▁motions	-9704
▁mustang	-9705
▁natives	-9706
▁necktie	-9707
▁nibbles	-9708
▁obscene	-9709
▁offered	-9710
▁operate	-9711
▁oversee	-9712
▁paddled	-9713
▁paneled	-9714
▁passage	-9715
▁pasture	-9716
▁patriot	-9717
▁patties	-9718
▁pebbles	-9719
▁pelican	-9720
▁penguin	-9721
▁peppers	-9722
▁peruses	-9723
▁placard	-9724
▁plaster	-9725
▁platter	-9726
▁plywood	-9727
▁podiums	-9728
▁pompoms	-9729
▁poultry	-9730
▁pounces	-9731
▁private	-9732
▁punches	-9733
▁puzzled	-9734
▁quartet	-9735
▁quietly	-9736
▁quilted	-9737
▁rackets	-9738
▁recital	-9739
▁reenact	-9740
▁refresh	-9741
▁regalia	-9742
▁relaxed	-9743
▁release	-9744
▁respond	-9745
▁rinsing	-9746
▁rushing	-9747
▁saddled	-9748
▁samples	-9749
▁sausage	-9750
▁schools	-9751
▁scoring	-9752
▁screens	-9753
▁scruffy	-9754
▁secures	-9755
▁selects	-9756
▁seminar	-9757
▁sending	-9758
▁shadowy	-9759
▁showers	-9760
▁shuttle	-9761
▁sibling	-9762
▁signals	-9763
▁sisters	-9764
▁skinned	-9765
▁slumped	-9766
▁soaking	-9767
▁squirts	-9768
▁started	-9769
▁stories	-9770
▁styling	-9771
▁stylist	-9772
▁subject	-9773
▁success	-9774
▁suspect	-9775
▁swerves	-9776
▁tackler	-9777
▁targets	-9778
▁teaches	-9779
▁thorugh	-9780
▁tipping	-9781
▁tongues	-9782
▁topping	-9783
▁trading	-9784
▁trooper	-9785
▁turkeys	-9786
▁twister	-9787
▁version	-9788
▁volcano	-9789
▁wanting	-9790
▁warmers	-9791
▁warrior	-9792
▁washers	-9793
▁watered	-9794
▁weights	-9795
▁western	-9796
▁wetland	-9797
▁workmen	-9798
▁worried	-9799
▁worship	-9800
▁wrangle	-9801
idesmaids	-9802
ietnamese	-9803
migration	-9804
olkswagen	-9805
pectacled	-9806
▁Business	-9807
▁Heavyset	-9808
▁Heineken	-9809
▁Labrador	-9810
▁Michigan	-9811
▁Outdoors	-9812
▁Painters	-9813
▁Popsicle	-9814
▁Sidewalk	-9815
▁Standing	-9816
▁Thursday	-9817
▁adjacent	-9818
▁appropri	-9819
▁assisted	-9820
▁assorted	-9821
▁attacked	-9822
▁attended	-9823
▁awaiting	-9824
▁backflip	-9825
▁billiard	-9826
▁blooming	-9827
▁boutique	-9828
▁broccoli	-9829
▁brothers	-9830
▁brownish	-9831
▁calendar	-9832
▁canoeing	-9833
▁cellular	-9834
▁certific	-9835
▁cheerful	-9836
▁chemical	-9837
▁churning	-9838
▁circuits	-9839
▁clenches	-9840
▁clicking	-9841
▁coaching	-9842
▁colonial	-9843
▁comforts	-9844
▁consider	-9845
▁consoles	-9846
▁consults	-9847
▁contorts	-9848
▁conveyor	-9849
▁counters	-9850
▁counting	-9851
▁coworker	-9852
▁creation	-9853
▁culinary	-9854
▁cultural	-9855
▁curbside	-9856
▁dangling	-9857
▁deciding	-9858
▁deflated	-9859
▁delivery	-9860
▁depicted	-9861
▁didgerid	-9862
▁district	-9863
▁document	-9864
▁doorstep	-9865
▁downward	-9866
▁dragster	-9867
▁drawings	-9868
▁dressing	-9869
▁drummers	-9870
▁drumming	-9871
▁eclectic	-9872
▁embraces	-9873
▁emptying	-9874
▁engaging	-9875
▁ensemble	-9876
▁envelope	-9877
▁espresso	-9878
▁european	-9879
▁everyone	-9880
▁examined	-9881
▁executes	-9882
▁explains	-9883
▁exterior	-9884
▁eyeliner	-9885
▁farmland	-9886
▁fatigues	-9887
▁finishes	-9888
▁flexible	-9889
▁flinging	-9890
▁flippers	-9891
▁forehand	-9892
▁formally	-9893
▁function	-9894
▁gambling	-9895
▁garments	-9896
▁glancing	-9897
▁glittery	-9898
▁grinning	-9899
▁growling	-9900
▁handbags	-9901
▁handhold	-9902
▁hardware	-9903
▁heritage	-9904
▁hipsters	-9905
▁hitching	-9906
▁homework	-9907
▁horsemen	-9908
▁hovering	-9909
▁hundreds	-9910
▁internet	-9911
▁inverted	-9912
▁involves	-9913
▁japanese	-9914
▁jousting	-9915
▁kerchief	-9916
▁language	-9917
▁lavender	-9918
▁lemonade	-9919
▁lowering	-9920
▁magician	-9921
▁mariachi	-9922
▁messages	-9923
▁mingling	-9924
▁modeling	-9925
▁navigate	-9926
▁occasion	-9927
▁occurred	-9928
▁olympics	-9929
▁oncoming	-9930
▁openings	-9931
▁operator	-9932
▁opinions	-9933
▁outboard	-9934
▁outfield	-9935
▁overcast	-9936
▁paddlers	-9937
▁pancakes	-9938
▁parasail	-9939
▁peddling	-9940
▁penguins	-9941
▁	-9942
a	-9943
e	-9944
n	-9945
i	-9946
o	-9947
t	-9948
r	-9949
s	-9950
l	-9951
h	-9952
g	-9953
d	-9954
w	-9955
c	-9956
m	-9957
p	-9958
u	-9959
.	-9960
b	-9961
f	-9962
k	-9963
y	-9964
A	-9965
v	-9966
T	-9967
,	-9968
j	-9969
x	-9970
-	-9971
S	-9972
M	-9973
P	-9974
F	-9975
C	-9976
'	-9977
z	-9978
W	-9979
B	-9980
q	-9981
O	-9982
G	-9983
"	-9984
Y	-9985
L	-9986
I	-9987
D	-9988
H	-9989
E	-9990
R	-9991
2	-9992
N	-9993
