<unk>	0
<s>	0
</s>	0
<pad>	0
<bos>	0
<eos>	0
in	-0
en	-1
er	-2
ein	-3
▁ein	-4
ch	-5
au	-6
an	-7
▁E	-8
em	-9
un	-10
▁s	-11
▁Ein	-12
ei	-13
▁M	-14
▁d	-15
it	-16
▁einem	-17
▁S	-18
el	-19
▁in	-20
und	-21
▁m	-22
▁F	-23
▁au	-24
ge	-25
▁mit	-26
ar	-27
▁auf	-28
▁und	-29
▁H	-30
ann	-31
ie	-32
te	-33
▁Mann	-34
▁B	-35
▁b	-36
sch	-37
on	-38
st	-39
rau	-40
hr	-41
▁v	-42
▁K	-43
▁einer	-44
wei	-45
▁i	-46
▁Eine	-47
ter	-48
ten	-49
▁G	-50
as	-51
or	-52
▁h	-53
al	-54
▁Frau	-55
tr	-56
es	-57
ck	-58
▁P	-59
and	-60
gen	-61
▁der	-62
▁Z	-63
▁z	-64
ich	-65
▁sch	-66
ro	-67
iel	-68
▁Mä	-69
▁eine	-70
▁g	-71
▁T	-72
▁k	-73
piel	-74
▁die	-75
am	-76
▁ge	-77
▁w	-78
▁einen	-79
▁W	-80
de	-81
▁an	-82
ht	-83
gt	-84
ben	-85
▁f	-86
▁J	-87
▁l	-88
▁Zwei	-89
chen	-90
▁Sch	-91
▁D	-92
▁im	-93
▁zu	-94
ind	-95
itz	-96
▁ste	-97
ne	-98
▁R	-99
ers	-100
ber	-101
hen	-102
▁L	-103
ung	-104
rei	-105
ier	-106
ft	-107
▁A	-108
ach	-109
▁sitz	-110
▁vor	-111
▁bl	-112
all	-113
et	-114
▁kl	-115
ner	-116
ßen	-117
▁Str	-118
um	-119
▁von	-120
nen	-121
at	-122
unge	-123
ähr	-124
▁sich	-125
ur	-126
schen	-127
▁spiel	-128
▁klein	-129
äl	-130
ad	-131
dchen	-132
▁Mädchen	-133
▁dem	-134
il	-135
pp	-136
lei	-137
▁schw	-138
▁Hund	-139
▁ro	-140
▁Gr	-141
ut	-142
▁Kind	-143
ße	-144
arz	-145
ol	-146
▁wei	-147
erson	-148
▁Person	-149
eu	-150
sen	-151
nner	-152
ot	-153
den	-154
▁Männer	-155
ahr	-156
ir	-157
▁schwarz	-158
bei	-159
▁St	-160
▁Ge	-161
▁Stra	-162
▁steht	-163
ppe	-164
pr	-165
▁den	-166
▁blau	-167
▁tr	-168
▁sein	-169
end	-170
▁sitzt	-171
ander	-172
▁j	-173
über	-174
isch	-175
▁Junge	-176
▁Men	-177
ass	-178
fen	-179
men	-180
▁bei	-181
ger	-182
le	-183
uppe	-184
än	-185
ält	-186
ik	-187
▁über	-188
▁Straße	-189
ährend	-190
▁während	-191
äu	-192
▁be	-193
▁Menschen	-194
▁r	-195
▁Gruppe	-196
der	-197
▁O	-198
ball	-199
▁ihr	-200
▁hält	-201
unter	-202
▁spielt	-203
rü	-204
emd	-205
▁V	-206
se	-207
tet	-208
▁aus	-209
▁spr	-210
cke	-211
▁Hemd	-212
▁Personen	-213
ang	-214
▁n	-215
ent	-216
▁ne	-217
acht	-218
ür	-219
▁das	-220
▁um	-221
pf	-222
inter	-223
ehr	-224
leid	-225
▁ander	-226
aar	-227
▁eines	-228
▁Wass	-229
be	-230
eil	-231
ingt	-232
▁Kinder	-233
im	-234
urch	-235
▁N	-236
▁neben	-237
▁Frauen	-238
▁stehen	-239
re	-240
▁blauen	-241
▁Wasser	-242
▁am	-243
▁gro	-244
▁durch	-245
▁ist	-246
ell	-247
ägt	-248
rad	-249
is	-250
▁roten	-251
▁sitzen	-252
▁weißen	-253
eg	-254
hn	-255
▁Drei	-256
▁spielen	-257
▁ent	-258
la	-259
icht	-260
▁p	-261
he	-262
arben	-263
ab	-264
us	-265
iert	-266
ährt	-267
▁ver	-268
▁Hand	-269
fer	-270
gr	-271
lich	-272
▁geht	-273
▁trägt	-274
elt	-275
af	-276
kt	-277
bo	-278
ick	-279
▁fährt	-280
▁Fahr	-281
▁grü	-282
▁gel	-283
teil	-284
eln	-285
▁brau	-286
▁Bo	-287
▁unter	-288
▁Leu	-289
▁Kleid	-290
▁kleines	-291
imm	-292
▁entl	-293
os	-294
▁macht	-295
▁Ober	-296
▁schau	-297
ug	-298
▁entlang	-299
och	-300
▁zwei	-301
▁springt	-302
enn	-303
anz	-304
arbei	-305
igen	-306
▁schwarzen	-307
▁junge	-308
äch	-309
agen	-310
ungen	-311
▁weiß	-312
▁kleiner	-313
▁C	-314
▁Spiel	-315
uch	-316
cken	-317
ehrer	-318
spiel	-319
ern	-320
auf	-321
▁Ko	-322
irt	-323
▁gehen	-324
▁Ar	-325
klei	-326
▁Leute	-327
om	-328
▁her	-329
▁U	-330
est	-331
▁Bl	-332
ril	-333
kleide	-334
uß	-335
▁Fel	-336
hirt	-337
gel	-338
ischen	-339
ig	-340
▁sie	-341
älter	-342
▁Ho	-343
bäu	-344
ige	-345
alten	-346
ange	-347
▁Fahrrad	-348
ler	-349
▁et	-350
▁Sk	-351
hl	-352
was	-353
▁wir	-354
▁etwas	-355
▁älter	-356
fahr	-357
▁t	-358
▁Fuß	-359
ehrere	-360
▁Ball	-361
▁seinem	-362
▁Oberteil	-363
farben	-364
eit	-365
▁lie	-366
▁großen	-367
ul	-368
uft	-369
▁hin	-370
acke	-371
nee	-372
ieren	-373
rille	-374
▁Gebäu	-375
▁gekleide	-376
ark	-377
ort	-378
grund	-379
▁Bau	-380
bt	-381
zeu	-382
▁Frei	-383
▁Kam	-384
▁Hinter	-385
▁or	-386
ild	-387
▁vers	-388
▁er	-389
▁Luft	-390
bl	-391
boar	-392
▁o	-393
▁Strand	-394
sam	-395
▁grünen	-396
äuft	-397
era	-398
▁Mehrere	-399
weg	-400
▁Tr	-401
▁st	-402
▁da	-403
▁Der	-404
▁al	-405
▁läch	-406
▁sind	-407
ör	-408
▁für	-409
▁läuft	-410
aufen	-411
▁Jungen	-412
zen	-413
ate	-414
ack	-415
▁Bas	-416
ze	-417
▁Hintergrund	-418
▁hinter	-419
▁nach	-420
oto	-421
▁arbei	-422
▁Die	-423
▁Freien	-424
▁anderen	-425
▁Jacke	-426
unger	-427
▁hat	-428
ster	-429
Shirt	-430
ett	-431
ant	-432
▁Kleidung	-433
det	-434
▁Kopf	-435
▁Schw	-436
▁junger	-437
zeug	-438
▁schaut	-439
▁Sp	-440
spieler	-441
▁vorbei	-442
üt	-443
äft	-444
▁hoch	-445
▁Schnee	-446
ank	-447
▁Haar	-448
▁Tisch	-449
ag	-450
lat	-451
▁I	-452
ühr	-453
▁Son	-454
achen	-455
angen	-456
ow	-457
ün	-458
fon	-459
menge	-460
aus	-461
▁An	-462
▁Fl	-463
▁andere	-464
▁gelben	-465
▁rot	-466
ans	-467
▁Nä	-468
itar	-469
schau	-470
▁Kl	-471
hne	-472
▁Bü	-473
stü	-474
sche	-475
▁Gebäude	-476
board	-477
▁ih	-478
ing	-479
ock	-480
unk	-481
umen	-482
▁Hut	-483
ennen	-484
▁wird	-485
ele	-486
▁Fußball	-487
fahrer	-488
▁orange	-489
ap	-490
iat	-491
▁beim	-492
▁Nähe	-493
▁Gras	-494
▁kleine	-495
amm	-496
iger	-497
▁blick	-498
▁kleinen	-499
▁Au	-500
▁Kamera	-501
ahn	-502
▁Stad	-503
▁Menschenmenge	-504
ert	-505
▁Hunde	-506
▁schwarzer	-507
art	-508
itt	-509
str	-510
▁Geh	-511
▁Park	-512
▁blon	-513
▁ber	-514
erk	-515
uck	-516
▁Boden	-517
utz	-518
len	-519
ische	-520
otor	-521
farbenen	-522
alt	-523
ennt	-524
▁Gitar	-525
etter	-526
sst	-527
ink	-528
▁bef	-529
▁ros	-530
▁Ber	-531
▁Skate	-532
▁rennt	-533
op	-534
ion	-535
deck	-536
▁Sonnen	-537
▁Es	-538
▁Feld	-539
är	-540
▁Stadt	-541
▁Straßen	-542
eig	-543
▁Vier	-544
▁ihre	-545
latz	-546
▁Foto	-547
▁le	-548
ucht	-549
▁grau	-550
▁zusam	-551
ßer	-552
einander	-553
▁pos	-554
▁ihren	-555
▁In	-556
sten	-557
eans	-558
▁Aut	-559
tes	-560
▁des	-561
▁herum	-562
cht	-563
ff	-564
▁war	-565
asiat	-566
ingen	-567
▁Pfer	-568
▁Gitarre	-569
▁zusammen	-570
▁asiat	-571
▁se	-572
▁dunk	-573
schäft	-574
▁unterh	-575
steig	-576
▁ab	-577
▁Dam	-578
▁Sand	-579
▁Motor	-580
▁Er	-581
ob	-582
kleid	-583
▁älterer	-584
ho	-585
▁fahr	-586
sp	-587
elm	-588
▁Jeans	-589
ver	-590
eigt	-591
▁dabei	-592
des	-593
raußen	-594
▁Bühne	-595
▁fahren	-596
ss	-597
▁Gehweg	-598
▁schl	-599
elle	-600
▁draußen	-601
wach	-602
olz	-603
▁re	-604
ischer	-605
▁blickt	-606
▁Skateboard	-607
▁Brille	-608
ikro	-609
▁Ges	-610
▁Base	-611
▁gest	-612
▁seine	-613
wachsen	-614
kleidung	-615
▁Mikro	-616
aby	-617
oll	-618
▁sehen	-619
▁es	-620
▁hinunter	-621
▁seinen	-622
▁Arbei	-623
ieht	-624
▁hell	-625
▁Gel	-626
wagen	-627
achtet	-628
▁Baby	-629
▁Essen	-630
▁Te	-631
dern	-632
brille	-633
ade	-634
iz	-635
▁Hän	-636
▁Stu	-637
ät	-638
ührt	-639
▁braunen	-640
▁liegt	-641
arkt	-642
▁Schl	-643
▁Holz	-644
▁weißer	-645
▁Schwimm	-646
▁lächeln	-647
▁wie	-648
aft	-649
haar	-650
▁arbeitet	-651
▁Re	-652
▁versucht	-653
uss	-654
▁Bank	-655
▁tanz	-656
▁Baum	-657
fl	-658
▁Paar	-659
zug	-660
lichen	-661
▁Wand	-662
▁tragen	-663
rä	-664
▁als	-665
▁machen	-666
▁Mau	-667
▁Baseball	-668
lag	-669
▁Dame	-670
▁laufen	-671
▁lächelt	-672
nei	-673
▁dar	-674
irm	-675
▁Un	-676
eich	-677
ffen	-678
▁ihrem	-679
ütze	-680
per	-681
▁Hü	-682
▁Me	-683
for	-684
▁große	-685
▁brauner	-686
ll	-687
usik	-688
▁Bür	-689
ket	-690
ück	-691
unst	-692
che	-693
▁Auf	-694
▁schauen	-695
ull	-696
▁kur	-697
▁gestrei	-698
▁Se	-699
ikot	-700
▁Gesicht	-701
▁Bürger	-702
immt	-703
▁betr	-704
▁gegen	-705
ald	-706
▁Klein	-707
▁sieht	-708
▁Bild	-709
▁braun	-710
▁unterhalten	-711
aum	-712
geb	-713
▁ihm	-714
assen	-715
▁Boot	-716
▁versch	-717
▁ältere	-718
▁Rad	-719
bedeck	-720
▁Rei	-721
▁zeigt	-722
▁orangefarbenen	-723
afarben	-724
▁Motorrad	-725
▁arbeiten	-726
▁junges	-727
▁kletter	-728
antel	-729
platz	-730
▁halten	-731
▁Bürgersteig	-732
sehen	-733
▁spricht	-734
lie	-735
▁grün	-736
elefon	-737
▁berei	-738
▁liest	-739
qu	-740
ßt	-741
aff	-742
▁Zu	-743
schaft	-744
ak	-745
▁un	-746
▁Hose	-747
ikan	-748
ennis	-749
▁drei	-750
aur	-751
▁Sh	-752
▁wer	-753
indet	-754
iele	-755
▁Musik	-756
▁Trikot	-757
ri	-758
ine	-759
oller	-760
▁Wald	-761
▁Hosen	-762
▁Tennis	-763
amp	-764
▁Be	-765
▁So	-766
ften	-767
▁Sonnenbrille	-768
orts	-769
▁Gew	-770
aben	-771
▁Sei	-772
▁Kunst	-773
▁Haaren	-774
▁Helm	-775
▁zum	-776
▁Band	-777
▁Meer	-778
gend	-779
▁Pferd	-780
▁Stein	-781
▁Kr	-782
▁Spr	-783
aurant	-784
▁Kü	-785
liche	-786
▁gekleidete	-787
▁Auto	-788
asch	-789
▁Tag	-790
▁rei	-791
estaurant	-792
ien	-793
oot	-794
▁sp	-795
ketball	-796
▁beob	-797
▁gelb	-798
arbeiter	-799
schu	-800
▁Arm	-801
ootball	-802
▁Felsen	-803
▁seiner	-804
euer	-805
▁rosa	-806
▁singt	-807
▁grauen	-808
▁weißem	-809
▁Mikrofon	-810
▁Restaurant	-811
▁schie	-812
▁Zuschau	-813
ängt	-814
tern	-815
▁Erwachsen	-816
mt	-817
▁Gelän	-818
ast	-819
▁Br	-820
▁Berg	-821
▁ihnen	-822
mp	-823
▁Pf	-824
▁Mantel	-825
▁Football	-826
▁Basketball	-827
▁Shorts	-828
▁blauem	-829
▁„	-830
brau	-831
gest	-832
ullo	-833
br	-834
üll	-835
este	-836
▁Eis	-837
▁Fen	-838
▁posiert	-839
asen	-840
▁Pol	-841
ah	-842
ahl	-843
ünf	-844
asse	-845
inkt	-846
asche	-847
use	-848
emand	-849
▁führt	-850
▁befindet	-851
anzug	-852
▁darauf	-853
▁Spielzeug	-854
err	-855
mer	-856
uchen	-857
▁Feuer	-858
▁klettert	-859
eben	-860
▁Das	-861
ullover	-862
▁Vor	-863
▁dunkel	-864
aun	-865
▁Bä	-866
örper	-867
▁Sport	-868
▁Fr	-869
ifor	-870
ecke	-871
ppen	-872
äufer	-873
iet	-874
net	-875
▁wirft	-876
▁Fenster	-877
▁gekleideter	-878
ckt	-879
ste	-880
▁sehr	-881
▁verk	-882
▁Blumen	-883
hnt	-884
eren	-885
▁Schu	-886
▁rennen	-887
zt	-888
aden	-889
achten	-890
▁schwarzem	-891
iv	-892
zu	-893
▁str	-894
stand	-895
änger	-896
▁blauer	-897
aten	-898
scht	-899
▁Raum	-900
▁oder	-901
▁versamm	-902
licher	-903
▁Regen	-904
schl	-905
schw	-906
▁Tre	-907
▁Ver	-908
▁Maul	-909
▁essen	-910
zer	-911
olle	-912
ucks	-913
▁rotem	-914
ill	-915
kind	-916
▁Weg	-917
▁bun	-918
▁Bade	-919
▁isst	-920
▁Kindern	-921
ain	-922
iese	-923
itten	-924
unden	-925
▁Anzug	-926
▁Arbeiter	-927
▁Wei	-928
▁Zeit	-929
▁Männern	-930
▁rosafarben	-931
ke	-932
schirm	-933
▁Geschäft	-934
bst	-935
ess	-936
▁gen	-937
hon	-938
▁Po	-939
▁anderer	-940
▁zuschau	-941
▁Pullover	-942
▁Poliz	-943
▁wartet	-944
▁schwarze	-945
we	-946
haarige	-947
▁langen	-948
▁werden	-949
▁gestreiften	-950
az	-951
immer	-952
▁bele	-953
▁Wiese	-954
▁roter	-955
▁weiße	-956
ater	-957
blau	-958
becken	-959
▁Rucks	-960
▁beleb	-961
att	-962
cher	-963
▁Kar	-964
▁Met	-965
▁posieren	-966
▁springen	-967
sk	-968
▁As	-969
▁Stuhl	-970
▁Schutz	-971
her	-972
▁Ka	-973
▁zw	-974
gang	-975
▁ins	-976
▁Bluse	-977
▁Fluss	-978
▁Schild	-979
omp	-980
▁Sn	-981
▁Buch	-982
▁überqu	-983
dr	-984
sm	-985
auft	-986
ken	-987
inden	-988
körper	-989
▁Viele	-990
▁Spieler	-991
ist	-992
ckey	-993
euch	-994
zeit	-995
ellen	-996
iegel	-997
▁viel	-998
▁Handy	-999
▁Hügel	-1000
▁Metall	-1001
▁Oberkörper	-1002
▁ho	-1003
eine	-1004
▁Fünf	-1005
▁Haus	-1006
▁voller	-1007
▁bereitet	-1008
▁umge	-1009
▁Um	-1010
ierten	-1011
▁warten	-1012
aut	-1013
fel	-1014
▁Sur	-1015
▁genie	-1016
▁Kleinkind	-1017
▁Bauarbeiter	-1018
äss	-1019
▁Al	-1020
ager	-1021
▁Mütze	-1022
▁tanzen	-1023
dem	-1024
sieht	-1025
▁oben	-1026
▁zwischen	-1027
▁betrachtet	-1028
hä	-1029
▁Ro	-1030
wand	-1031
äger	-1032
▁Mit	-1033
▁lil	-1034
ation	-1035
▁flie	-1036
▁Rennen	-1037
old	-1038
ette	-1039
▁Bus	-1040
▁zieht	-1041
ichtung	-1042
▁blonde	-1043
ue	-1044
spr	-1045
▁kn	-1046
utzt	-1047
altung	-1048
▁Schul	-1049
▁Stock	-1050
▁alter	-1051
▁schläft	-1052
alb	-1053
▁Pu	-1054
aren	-1055
ieden	-1056
isten	-1057
▁paar	-1058
erikan	-1059
▁herunter	-1060
▁Seil	-1061
▁lehnt	-1062
▁miteinander	-1063
di	-1064
▁Eink	-1065
▁Snow	-1066
▁Händen	-1067
▁Leuten	-1068
▁schnei	-1069
ücken	-1070
▁reitet	-1071
ekt	-1072
ellt	-1073
graf	-1074
stück	-1075
kel	-1076
häut	-1077
▁ihrer	-1078
▁Bäumen	-1079
▁Rucksack	-1080
▁beobachtet	-1081
▁fr	-1082
stüm	-1083
▁Pap	-1084
▁Pro	-1085
▁Markt	-1086
og	-1087
▁ö	-1088
bahn	-1089
▁Land	-1090
▁ange	-1091
weißer	-1092
▁tanzt	-1093
▁befinden	-1094
▁Radfahrer	-1095
▁Kon	-1096
▁dav	-1097
▁Unifor	-1098
▁En	-1099
▁Gl	-1100
▁gr	-1101
eton	-1102
▁See	-1103
▁Zug	-1104
▁Zaun	-1105
▁haben	-1106
▁schnee	-1107
hör	-1108
kor	-1109
▁Ski	-1110
▁vom	-1111
stein	-1112
▁schiebt	-1113
▁schneebedeck	-1114
fe	-1115
▁ru	-1116
▁Fre	-1117
▁Tur	-1118
▁all	-1119
▁Schn	-1120
▁glei	-1121
▁pink	-1122
▁Beton	-1123
aschine	-1124
ebt	-1125
ärt	-1126
amil	-1127
▁Renn	-1128
▁Gegen	-1129
stu	-1130
änn	-1131
Bahn	-1132
▁Hal	-1133
▁männ	-1134
▁Gewäss	-1135
gl	-1136
esen	-1137
rücke	-1138
▁teil	-1139
feld	-1140
▁Aus	-1141
▁gem	-1142
▁kar	-1143
achts	-1144
▁Rücken	-1145
▁umgeben	-1146
▁frei	-1147
▁Instr	-1148
ies	-1149
ampe	-1150
▁Fris	-1151
▁Famil	-1152
▁Küche	-1153
▁Schwimmbecken	-1154
od	-1155
trän	-1156
äche	-1157
inken	-1158
▁Sprung	-1159
▁Zuschauer	-1160
▁orangefarben	-1161
äd	-1162
igt	-1163
band	-1164
▁gef	-1165
reibt	-1166
▁fest	-1167
▁schein	-1168
▁Einkauf	-1169
▁telefon	-1170
▁verschieden	-1171
oh	-1172
▁son	-1173
utter	-1174
▁Graff	-1175
▁Seite	-1176
▁Welle	-1177
▁Arbeit	-1178
▁Schlag	-1179
▁Treppe	-1180
anst	-1181
emden	-1182
▁gera	-1183
▁lang	-1184
▁spaz	-1185
▁kurzen	-1186
▁trinkt	-1187
▁Graffit	-1188
▁verkauft	-1189
arb	-1190
ied	-1191
▁Or	-1192
werk	-1193
▁Out	-1194
▁ben	-1195
▁mitt	-1196
boarder	-1197
schuhen	-1198
hlen	-1199
▁Gem	-1200
innen	-1201
▁Flag	-1202
▁Schau	-1203
▁Schwarz	-1204
kl	-1205
par	-1206
▁kü	-1207
ungs	-1208
▁zur	-1209
▁Schü	-1210
isches	-1211
▁gerade	-1212
▁versammelt	-1213
▁rosafarbenen	-1214
arr	-1215
unnen	-1216
ühren	-1217
▁Roll	-1218
weißen	-1219
▁aussehen	-1220
yp	-1221
ges	-1222
ief	-1223
ser	-1224
öpf	-1225
▁wo	-1226
ittel	-1227
▁Autos	-1228
▁hängt	-1229
▁Geträn	-1230
▁Familie	-1231
anstaltung	-1232
fit	-1233
ämp	-1234
▁Cow	-1235
▁rau	-1236
Spiel	-1237
▁Verk	-1238
▁bunten	-1239
bee	-1240
weiß	-1241
▁Pla	-1242
▁ihn	-1243
arten	-1244
▁Bahn	-1245
zimmer	-1246
▁nimmt	-1247
▁Papier	-1248
▁mitten	-1249
▁belebten	-1250
▁telefoniert	-1251
lt	-1252
alen	-1253
▁Teen	-1254
▁Shirt	-1255
▁Wagen	-1256
▁offen	-1257
tlichen	-1258
▁blicken	-1259
▁schneidet	-1260
boy	-1261
ompu	-1262
ünst	-1263
▁Bik	-1264
▁Tor	-1265
eigen	-1266
▁kämp	-1267
▁sonn	-1268
aschen	-1269
blauen	-1270
▁gesch	-1271
▁schla	-1272
▁spazieren	-1273
iol	-1274
▁To	-1275
eten	-1276
▁kom	-1277
olley	-1278
stung	-1279
▁malt	-1280
▁denen	-1281
▁Wander	-1282
▁fangen	-1283
▁großer	-1284
▁Frisbee	-1285
▁Richtung	-1286
▁Teenager	-1287
▁asiatische	-1288
immel	-1289
▁foto	-1290
▁rote	-1291
▁Reihe	-1292
▁einige	-1293
▁jemand	-1294
▁schlägt	-1295
olleyball	-1296
▁fotograf	-1297
▁schwimmt	-1298
erb	-1299
fro	-1300
▁br	-1301
fall	-1302
ügen	-1303
▁Ger	-1304
esten	-1305
teten	-1306
gruppe	-1307
▁Gewässer	-1308
▁schneebedeckten	-1309
aße	-1310
ikum	-1311
ässt	-1312
▁Typ	-1313
▁Cowboy	-1314
▁gekleidet	-1315
ust	-1316
ädt	-1317
ogen	-1318
▁Rock	-1319
blikum	-1320
▁Hände	-1321
▁Mutter	-1322
▁fliegt	-1323
ee	-1324
ub	-1325
etz	-1326
kam	-1327
hmen	-1328
ters	-1329
eller	-1330
utsche	-1331
▁Compu	-1332
rüstung	-1333
▁Himmel	-1334
▁freiem	-1335
▁hinauf	-1336
geschäft	-1337
▁Publikum	-1338
tem	-1339
▁Ab	-1340
jacke	-1341
schri	-1342
▁Bart	-1343
stelle	-1344
straße	-1345
▁Rasen	-1346
▁lachen	-1347
▁vielen	-1348
▁Gebäudes	-1349
▁sonnigen	-1350
atte	-1351
▁Fels	-1352
▁Kampf	-1353
▁Brücke	-1354
▁Tasche	-1355
▁kämpfen	-1356
▁Kopfbedeck	-1357
▁Fußballspieler	-1358
fest	-1359
▁Tür	-1360
zogen	-1361
▁hebt	-1362
▁vier	-1363
▁dunklen	-1364
hut	-1365
jekt	-1366
mann	-1367
raut	-1368
▁Mar	-1369
▁Hoch	-1370
fläche	-1371
▁Platz	-1372
▁Weste	-1373
▁hohen	-1374
▁grünem	-1375
▁Zeitung	-1376
▁Geländer	-1377
mm	-1378
aub	-1379
grü	-1380
kom	-1381
▁Ju	-1382
▁Le	-1383
▁af	-1384
ling	-1385
wehr	-1386
▁Sie	-1387
▁Schal	-1388
ünstler	-1389
▁Hemden	-1390
▁Graffiti	-1391
chs	-1392
acken	-1393
inger	-1394
markt	-1395
ument	-1396
▁Hals	-1397
▁groß	-1398
▁Mannes	-1399
▁bereit	-1400
▁Schutzh	-1401
▁Erwachsene	-1402
pft	-1403
▁Ne	-1404
rich	-1405
▁Herr	-1406
▁voll	-1407
▁überqueren	-1408
▁Pool	-1409
▁schn	-1410
laster	-1411
▁Augen	-1412
▁Leben	-1413
▁Unter	-1414
▁liegen	-1415
▁mittler	-1416
▁Spielplatz	-1417
auch	-1418
igar	-1419
▁Bier	-1420
▁Glas	-1421
▁schm	-1422
▁Outfit	-1423
▁blondes	-1424
▁asiatischer	-1425
nt	-1426
▁hü	-1427
ummer	-1428
▁Zigar	-1429
haariger	-1430
▁Kopfbedeckung	-1431
anc	-1432
bank	-1433
▁Kan	-1434
▁Tro	-1435
etten	-1436
▁Flug	-1437
▁umar	-1438
▁Decke	-1439
▁Mauer	-1440
▁davon	-1441
▁Jugend	-1442
▁Schirm	-1443
▁Winter	-1444
▁weißes	-1445
▁mehrere	-1446
▁orangen	-1447
▁hellbrau	-1448
▁zuschauen	-1449
▁Kunststück	-1450
▁na	-1451
atue	-1452
hose	-1453
▁Hof	-1454
▁nack	-1455
▁blaue	-1456
▁öffen	-1457
▁verschnei	-1458
hü	-1459
ibt	-1460
▁bel	-1461
▁Team	-1462
▁alte	-1463
▁Blick	-1464
▁Schür	-1465
▁repar	-1466
▁tritt	-1467
▁Einige	-1468
▁genießt	-1469
▁bereiten	-1470
▁mittleren	-1471
▁dunkelhäut	-1472
▁ü	-1473
bar	-1474
off	-1475
▁Ch	-1476
haus	-1477
park	-1478
uckt	-1479
▁Sof	-1480
anzen	-1481
▁Dach	-1482
▁Klei	-1483
▁schö	-1484
schwarz	-1485
▁Freund	-1486
▁Jemand	-1487
▁zusieht	-1488
▁Feuerwehr	-1489
▁unterhält	-1490
▁Zuschauern	-1491
änd	-1492
schn	-1493
▁bes	-1494
▁Obst	-1495
rädern	-1496
▁Stück	-1497
schrift	-1498
▁Ziegel	-1499
▁Computer	-1500
▁Schaukel	-1501
▁karierten	-1502
ok	-1503
otos	-1504
▁Par	-1505
▁beg	-1506
brett	-1507
▁Gemü	-1508
gänger	-1509
▁alten	-1510
▁lacht	-1511
▁Alters	-1512
▁benutzt	-1513
deo	-1514
ons	-1515
▁Mo	-1516
bild	-1517
ickt	-1518
iges	-1519
▁gew	-1520
anten	-1521
sport	-1522
stuhl	-1523
▁Müll	-1524
▁Sold	-1525
▁grei	-1526
▁Menge	-1527
▁bedeck	-1528
amerikan	-1529
▁Lebensm	-1530
▁Baseballspieler	-1531
tur	-1532
▁dr	-1533
auer	-1534
▁hör	-1535
▁Bein	-1536
▁Sofa	-1537
stümen	-1538
▁Sonne	-1539
▁städt	-1540
▁hinten	-1541
▁einigen	-1542
▁zusehen	-1543
▁Fußgänger	-1544
▁Volleyball	-1545
ko	-1546
▁Kor	-1547
▁Stü	-1548
elmen	-1549
kampf	-1550
ängen	-1551
▁Mund	-1552
▁Ufer	-1553
▁nahe	-1554
▁ries	-1555
▁Asiat	-1556
▁Fotos	-1557
▁treten	-1558
oß	-1559
els	-1560
▁Ak	-1561
▁Dr	-1562
▁gl	-1563
▁Bar	-1564
▁Lei	-1565
gebäu	-1566
immen	-1567
▁unbe	-1568
▁Mitte	-1569
▁lässt	-1570
▁Mensch	-1571
▁großes	-1572
▁Gegenstand	-1573
igk	-1574
afen	-1575
halb	-1576
ines	-1577
pfen	-1578
▁Her	-1579
▁verl	-1580
▁Weihn	-1581
▁außer	-1582
▁schüt	-1583
▁führen	-1584
▁mehrer	-1585
▁Uniform	-1586
▁scheint	-1587
▁zuschaut	-1588
▁nebeneinander	-1589
egt	-1590
ini	-1591
ohn	-1592
erne	-1593
stik	-1594
▁bew	-1595
▁rut	-1596
issen	-1597
▁Bett	-1598
▁gibt	-1599
eichen	-1600
fahren	-1601
▁Braut	-1602
▁Nacht	-1603
▁kniet	-1604
▁nicht	-1605
▁Gemüse	-1606
▁farben	-1607
▁nachts	-1608
▁versuchen	-1609
ka	-1610
agt	-1611
gew	-1612
ause	-1613
ition	-1614
▁kurz	-1615
▁lila	-1616
▁viol	-1617
euchten	-1618
▁Hockey	-1619
▁Surfer	-1620
▁Schürze	-1621
▁Zigarette	-1622
▁beobachten	-1623
▁öffentlichen	-1624
ud	-1625
kon	-1626
▁Cl	-1627
itzt	-1628
▁Art	-1629
▁Zelt	-1630
▁Fisch	-1631
▁Garten	-1632
▁gelber	-1633
▁Einkaufs	-1634
▁mehreren	-1635
aw	-1636
öl	-1637
▁pr	-1638
etzt	-1639
gner	-1640
zert	-1641
ender	-1642
gehen	-1643
▁Flagge	-1644
▁Läufer	-1645
▁raucht	-1646
ärm	-1647
itzen	-1648
ollen	-1649
▁Part	-1650
▁Pfad	-1651
▁bärt	-1652
▁stre	-1653
▁Ferne	-1654
▁Grill	-1655
▁Handt	-1656
▁fängt	-1657
▁viele	-1658
▁Stufen	-1659
▁jungen	-1660
▁leuchten	-1661
▁farbenfro	-1662
▁fotografiert	-1663
▁verschneiten	-1664
kr	-1665
arn	-1666
hof	-1667
▁De	-1668
▁de	-1669
alle	-1670
hund	-1671
▁Bow	-1672
▁Eim	-1673
▁Geb	-1674
▁Kap	-1675
▁Ker	-1676
▁weg	-1677
eiten	-1678
rikan	-1679
spann	-1680
gebung	-1681
▁Armen	-1682
▁Rampe	-1683
▁Trick	-1684
▁starr	-1685
▁Nummer	-1686
▁Stange	-1687
pflaster	-1688
▁Trikots	-1689
▁Wanderer	-1690
▁einander	-1691
▁betrachten	-1692
akt	-1693
wen	-1694
öff	-1695
üst	-1696
eibe	-1697
hemd	-1698
rück	-1699
▁sur	-1700
echen	-1701
▁Back	-1702
▁Wett	-1703
lasche	-1704
▁beide	-1705
▁gleich	-1706
▁Plastik	-1707
▁trinken	-1708
▁Veranstaltung	-1709
ats	-1710
tre	-1711
heit	-1712
olgt	-1713
mütze	-1714
ocken	-1715
under	-1716
änzer	-1717
▁Geld	-1718
▁Laden	-1719
▁braune	-1720
▁Telefon	-1721
▁blonden	-1722
▁Gehsteig	-1723
▁Snowboarder	-1724
arf	-1725
vor	-1726
▁man	-1727
atten	-1728
▁Kapu	-1729
▁Tanz	-1730
▁unten	-1731
▁Kostüm	-1732
▁Roller	-1733
▁heraus	-1734
▁Bowling	-1735
untergang	-1736
▁Snowboard	-1737
▁außerhalb	-1738
▁Tennisball	-1739
Sch	-1740
ont	-1741
▁Sa	-1742
ogel	-1743
rand	-1744
▁hil	-1745
iehen	-1746
▁Surf	-1747
▁Vater	-1748
▁reden	-1749
Spieler	-1750
▁greift	-1751
▁weiter	-1752
▁Klassen	-1753
▁Musiker	-1754
▁ausgest	-1755
▁Polizist	-1756
▁unbefest	-1757
▁Instrumen	-1758
▁Skifahrer	-1759
▁Kampfsport	-1760
▁lilafarben	-1761
▁Sonnenuntergang	-1762
ume	-1763
geht	-1764
▁Che	-1765
▁Tau	-1766
▁Turn	-1767
▁dass	-1768
liches	-1769
▁hilft	-1770
▁rotes	-1771
▁beiden	-1772
▁gelbem	-1773
▁Kleidern	-1774
▁Mannschaft	-1775
me	-1776
own	-1777
ren	-1778
köpf	-1779
obil	-1780
phon	-1781
▁Asi	-1782
▁Swe	-1783
mauer	-1784
▁Hüten	-1785
atshirt	-1786
▁Bikini	-1787
▁werfen	-1788
▁zurück	-1789
▁Brunnen	-1790
▁Kletter	-1791
▁rutscht	-1792
▁Fahrzeug	-1793
▁überquert	-1794
▁Aufschrift	-1795
jak	-1796
unt	-1797
▁Ob	-1798
boot	-1799
eugt	-1800
hnen	-1801
oten	-1802
stre	-1803
▁Bei	-1804
uster	-1805
▁barf	-1806
▁legt	-1807
▁Haare	-1808
▁Vogel	-1809
▁einge	-1810
▁surft	-1811
▁Leiter	-1812
▁Kostümen	-1813
▁bärtiger	-1814
ausrüstung	-1815
▁Polizisten	-1816
umm	-1817
▁ko	-1818
ings	-1819
▁Bal	-1820
▁bem	-1821
▁pro	-1822
athon	-1823
halle	-1824
schir	-1825
stell	-1826
zentr	-1827
ünger	-1828
▁Weiß	-1829
einsam	-1830
halten	-1831
▁Damen	-1832
▁Kajak	-1833
▁Sechs	-1834
gebäude	-1835
▁Hochzeit	-1836
▁Maschine	-1837
▁gemeinsam	-1838
▁männliche	-1839
▁Sweatshirt	-1840
▁unbefestig	-1841
ed	-1842
ase	-1843
iff	-1844
▁Co	-1845
eige	-1846
ilit	-1847
osen	-1848
▁bal	-1849
▁geb	-1850
▁Korb	-1851
grünen	-1852
▁Waren	-1853
▁gelbe	-1854
▁kommt	-1855
▁wobei	-1856
▁grüner	-1857
▁nehmen	-1858
▁stellt	-1859
▁nacktem	-1860
▁genießen	-1861
äum	-1862
▁Kn	-1863
▁ir	-1864
ftem	-1865
hand	-1866
reis	-1867
▁Anz	-1868
boden	-1869
ilber	-1870
ilder	-1871
öcken	-1872
▁Pass	-1873
▁Rand	-1874
▁Schm	-1875
▁gras	-1876
mitten	-1877
▁Leine	-1878
▁Statue	-1879
▁blaues	-1880
▁jünger	-1881
▁Kopfhör	-1882
▁blonder	-1883
skleidung	-1884
▁schreibt	-1885
▁versammeln	-1886
▁Regenschirm	-1887
▁städtischen	-1888
ip	-1889
top	-1890
form	-1891
geln	-1892
ippe	-1893
▁Wohn	-1894
iefeln	-1895
▁Eimer	-1896
otorrad	-1897
▁Getränk	-1898
▁Rutsche	-1899
▁Spiegel	-1900
▁amerikan	-1901
▁inmitten	-1902
▁Parkplatz	-1903
▁asiatischen	-1904
▁Lebensmittel	-1905
add	-1906
ätow	-1907
▁Rot	-1908
ossen	-1909
▁trad	-1910
ilitär	-1911
▁Diese	-1912
▁Reifen	-1913
▁Vorder	-1914
▁Westen	-1915
▁leeren	-1916
▁schrei	-1917
▁Stühlen	-1918
▁streckt	-1919
▁Marathon	-1920
▁sprechen	-1921
▁tradition	-1922
▁gekleideten	-1923
ön	-1924
ukt	-1925
ulp	-1926
aske	-1927
eite	-1928
reck	-1929
stän	-1930
▁Caf	-1931
▁Kat	-1932
▁gep	-1933
instr	-1934
▁Aben	-1935
▁hört	-1936
▁weib	-1937
blasen	-1938
rennen	-1939
rillen	-1940
▁Rodeo	-1941
▁guckt	-1942
▁Seifen	-1943
▁Tänzer	-1944
▁Wellen	-1945
▁durchs	-1946
▁Wassers	-1947
bewachsen	-1948
▁Geländem	-1949
▁gegenüber	-1950
▁Schlagzeug	-1951
▁Schutzhelm	-1952
▁Erwachsenen	-1953
▁pinkfarbenen	-1954
pfl	-1955
urf	-1956
▁Hu	-1957
erle	-1958
ssel	-1959
▁Ohr	-1960
▁Pfl	-1961
aptop	-1962
führt	-1963
ischt	-1964
▁Ende	-1965
▁ohne	-1966
▁lesen	-1967
▁Gegend	-1968
▁Parade	-1969
▁Pferde	-1970
▁singen	-1971
▁Soldaten	-1972
▁Umgebung	-1973
▁entspann	-1974
▁schwingt	-1975
▁Mikrophon	-1976
▁Instrument	-1977
▁Kinderwagen	-1978
▁Motorradfahrer	-1979
üß	-1980
nah	-1981
▁ch	-1982
▁fl	-1983
inie	-1984
reht	-1985
ssen	-1986
▁Gol	-1987
allen	-1988
räder	-1989
öpfen	-1990
▁Kraw	-1991
▁Sohn	-1992
▁dies	-1993
ührung	-1994
▁kaufen	-1995
▁silber	-1996
▁Konzert	-1997
▁Schuhen	-1998
▁Schüler	-1999
▁Gebäuden	-2000
▁pinkfarben	-2001
▁Erwachsener	-2002
▁gestreiftem	-2003
▁grasbewachsen	-2004
do	-2005
gn	-2006
nung	-2007
oren	-2008
verk	-2009
▁ges	-2010
chten	-2011
icher	-2012
ierte	-2013
schuh	-2014
▁Kaff	-2015
▁Werk	-2016
▁Leder	-2017
▁Schoß	-2018
▁Bergen	-2019
▁Laptop	-2020
maschine	-2021
▁Bereich	-2022
▁afrikan	-2023
▁beleuch	-2024
▁älteren	-2025
▁lächelnd	-2026
▁riesigen	-2027
▁Badeanzug	-2028
▁Uniformen	-2029
▁verkleide	-2030
▁Straßenrand	-2031
euz	-2032
gem	-2033
▁nä	-2034
ader	-2035
egel	-2036
▁Gro	-2037
▁ind	-2038
▁mar	-2039
anken	-2040
▁Tier	-2041
▁jagt	-2042
verall	-2043
▁Party	-2044
▁Finger	-2045
▁balanc	-2046
▁gelbes	-2047
▁grauem	-2048
▁starrt	-2049
▁wander	-2050
▁Treppen	-2051
▁anderes	-2052
▁Schreibt	-2053
▁Backstein	-2054
▁Baustelle	-2055
▁gepflaster	-2056
▁Handschuhen	-2057
▁Straßenecke	-2058
▁Fußballspiel	-2059
▁gegeneinander	-2060
arm	-2061
bik	-2062
anne	-2063
farb	-2064
kten	-2065
skop	-2066
▁Kir	-2067
▁Arme	-2068
▁Blau	-2069
▁Fern	-2070
▁ganz	-2071
▁rein	-2072
ulptur	-2073
▁Pause	-2074
richter	-2075
▁Jacken	-2076
▁Kuchen	-2077
▁Sänger	-2078
▁offenen	-2079
▁schlagen	-2080
▁Fahrradfahrer	-2081
▁Geländemotorrad	-2082
co	-2083
ds	-2084
mä	-2085
“.	-2086
ork	-2087
▁wä	-2088
glie	-2089
üllt	-2090
asser	-2091
tritt	-2092
ucken	-2093
▁Blät	-2094
▁Koch	-2095
▁Tour	-2096
▁abge	-2097
indern	-2098
leisch	-2099
▁Stand	-2100
▁Wasch	-2101
▁grüne	-2102
▁irgend	-2103
▁umarmt	-2104
▁Cheerle	-2105
▁Krawatte	-2106
▁Künstler	-2107
▁Schatten	-2108
▁klettern	-2109
▁schwarzes	-2110
▁dunkelhäutiger	-2111
▁El	-2112
▁Vi	-2113
iste	-2114
▁Last	-2115
▁Lauf	-2116
▁Netz	-2117
hockey	-2118
üllten	-2119
▁bekom	-2120
▁putzt	-2121
strecke	-2122
▁gegner	-2123
▁leuchtend	-2124
▁verkaufen	-2125
▁asiatisches	-2126
▁Jugendlicher	-2127
▁Schreibtisch	-2128
zä	-2129
hal	-2130
ipp	-2131
urs	-2132
▁Fü	-2133
▁Hö	-2134
luft	-2135
ockt	-2136
team	-2137
▁The	-2138
▁gut	-2139
▁hol	-2140
aften	-2141
uppen	-2142
utzen	-2143
▁alle	-2144
▁link	-2145
itarre	-2146
▁Clown	-2147
▁glück	-2148
brunnen	-2149
▁Kunden	-2150
▁unters	-2151
▁verwen	-2152
▁Kapuzen	-2153
▁Overall	-2154
▁Pferden	-2155
▁Taschen	-2156
▁Sandalen	-2157
▁jemandem	-2158
▁Schlitten	-2159
▁repariert	-2160
▁schwimmen	-2161
▁Vordergrund	-2162
▁Tennisspieler	-2163
▁unbefestigten	-2164
▁orangefarbener	-2165
St	-2166
aß	-2167
ve	-2168
bew	-2169
ive	-2170
rot	-2171
atur	-2172
ieds	-2173
igem	-2174
korb	-2175
lage	-2176
lung	-2177
orfen	-2178
ppich	-2179
weste	-2180
▁Büro	-2181
▁Erde	-2182
▁Fell	-2183
Shirts	-2184
gelben	-2185
▁Mobil	-2186
▁Train	-2187
▁Baumst	-2188
▁Schnau	-2189
▁Sicher	-2190
▁Spring	-2191
▁kurzer	-2192
▁schauk	-2193
▁seines	-2194
schläger	-2195
stellung	-2196
▁bedeckt	-2197
▁belebte	-2198
▁Felswand	-2199
▁Schulter	-2200
▁hellhäut	-2201
▁balanciert	-2202
▁gekleidetes	-2203
▁verschiedene	-2204
▁Footballspieler	-2205
ac	-2206
äm	-2207
eim	-2208
hak	-2209
ktr	-2210
ord	-2211
unn	-2212
zel	-2213
▁so	-2214
amen	-2215
chte	-2216
hang	-2217
ient	-2218
raum	-2219
▁Lab	-2220
▁fäl	-2221
ahnen	-2222
westen	-2223
▁beste	-2224
▁setzt	-2225
▁winkt	-2226
▁Schauf	-2227
▁geschm	-2228
▁schütt	-2229
▁Gelände	-2230
▁Verkehr	-2231
schlossen	-2232
▁Halsband	-2233
▁Schläger	-2234
▁Stiefeln	-2235
▁Mikroskop	-2236
▁angezogen	-2237
iedsrichter	-2238
▁Fahrrädern	-2239
▁Klassenzimmer	-2240
atz	-2241
ift	-2242
irn	-2243
lan	-2244
▁Im	-2245
▁ob	-2246
ankt	-2247
deon	-2248
eier	-2249
hält	-2250
ilfe	-2251
ugel	-2252
wegs	-2253
zaun	-2254
▁Beg	-2255
druck	-2256
fährt	-2257
äsche	-2258
▁Jahr	-2259
▁verf	-2260
gebiet	-2261
schild	-2262
treppe	-2263
▁Akkor	-2264
▁beugt	-2265
anzügen	-2266
telefon	-2267
▁Zimmer	-2268
▁chines	-2269
▁dessen	-2270
▁reiten	-2271
▁ziehen	-2272
▁Militär	-2273
▁Schlamm	-2274
▁braunem	-2275
▁schmutz	-2276
▁Flugzeug	-2277
▁Schlauch	-2278
▁Mobiltelefon	-2279
▁lilafarbenen	-2280
▁Einkaufswagen	-2281
▁grasbewachsenen	-2282
fr	-2283
pä	-2284
app	-2285
bel	-2286
kar	-2287
▁Ta	-2288
auen	-2289
dert	-2290
land	-2291
ongl	-2292
pren	-2293
sern	-2294
ückt	-2295
▁Bul	-2296
▁Kla	-2297
▁Ste	-2298
▁for	-2299
▁ras	-2300
eicht	-2301
nahme	-2302
roten	-2303
rünet	-2304
▁Fall	-2305
▁Spaß	-2306
▁Teil	-2307
▁Angel	-2308
▁Schla	-2309
▁dreht	-2310
▁fällt	-2311
bereich	-2312
▁grünes	-2313
▁küssen	-2314
▁Fleisch	-2315
▁aussieht	-2316
▁Akkordeon	-2317
▁Surfbrett	-2318
▁lächelnde	-2319
▁Weihnachts	-2320
▁rothaarige	-2321
▁Schiedsrichter	-2322
▁orangefarbenem	-2323
öh	-2324
urt	-2325
ähn	-2326
aler	-2327
igur	-2328
lett	-2329
ocht	-2330
stad	-2331
hosen	-2332
▁Ecke	-2333
▁Golf	-2334
▁Höhe	-2335
▁Kanu	-2336
▁Loch	-2337
▁Wind	-2338
▁fünf	-2339
anktop	-2340
▁Stirn	-2341
▁davor	-2342
▁redet	-2343
▁train	-2344
▁Schuhe	-2345
▁wunder	-2346
▁zeigen	-2347
fahrzeug	-2348
▁Fischer	-2349
▁Kranken	-2350
▁Badehose	-2351
▁Schaufen	-2352
▁Schultern	-2353
▁Spielfeld	-2354
▁weibliche	-2355
▁Oberteilen	-2356
▁Sicherheit	-2357
▁hellbrauner	-2358
▁Seifenblasen	-2359
▁verschiedenen	-2360
ansp	-2361
cker	-2362
dien	-2363
ehrt	-2364
ffer	-2365
haki	-2366
▁fei	-2367
▁tau	-2368
▁was	-2369
▁Dies	-2370
▁Flie	-2371
▁Pick	-2372
▁Rück	-2373
▁Toch	-2374
▁afro	-2375
▁bewe	-2376
▁kahl	-2377
untain	-2378
▁Geige	-2379
▁Innen	-2380
▁Kappe	-2381
▁Kreis	-2382
▁Tramp	-2383
▁Tromm	-2384
▁ausge	-2385
▁kocht	-2386
▁küsst	-2387
▁recht	-2388
indernis	-2389
schaften	-2390
▁Stadion	-2391
▁Tanktop	-2392
▁Teppich	-2393
▁schönen	-2394
▁Mountain	-2395
▁Pflanzen	-2396
▁Schlange	-2397
▁Lastwagen	-2398
▁erwachsen	-2399
▁Rennstrecke	-2400
▁Springbrunnen	-2401
▁gepflasterten	-2402
du	-2403
ru	-2404
omm	-2405
one	-2406
prü	-2407
▁Wü	-2408
▁Zä	-2409
afel	-2410
belt	-2411
enkt	-2412
iern	-2413
lauf	-2414
ment	-2415
zene	-2416
▁Ele	-2417
▁kon	-2418
▁öff	-2419
dient	-2420
eitet	-2421
endes	-2422
ester	-2423
unnel	-2424
▁Mitt	-2425
▁komp	-2426
▁padd	-2427
▁Bäume	-2428
brauner	-2429
▁Gerüst	-2430
▁Hunden	-2431
▁Karate	-2432
▁bemalt	-2433
köpfiger	-2434
▁Tischen	-2435
▁Tochter	-2436
▁Freunden	-2437
▁Schnauze	-2438
▁bekleide	-2439
▁Mountainbik	-2440
by	-2441
pen	-2442
pro	-2443
urr	-2444
▁Da	-2445
▁en	-2446
dach	-2447
erin	-2448
gelt	-2449
olin	-2450
wärt	-2451
▁Säu	-2452
fahrt	-2453
kappe	-2454
weiße	-2455
▁Hula	-2456
▁Nach	-2457
hälter	-2458
igkeit	-2459
▁Kopft	-2460
▁Teich	-2461
scheibe	-2462
▁Kaffee	-2463
▁Kirche	-2464
▁brünet	-2465
▁entfer	-2466
▁frisch	-2467
farbener	-2468
▁Verkauf	-2469
▁Kapuzenp	-2470
▁Luftball	-2471
▁Hindernis	-2472
▁unterwegs	-2473
▁wundersch	-2474
▁Landschaft	-2475
▁männlicher	-2476
▁Skateboarder	-2477
▁farbenfrohen	-2478
sh	-2479
fte	-2480
nis	-2481
ool	-2482
oop	-2483
urg	-2484
▁Fe	-2485
Fahr	-2486
alto	-2487
anda	-2488
test	-2489
▁Kai	-2490
▁Sax	-2491
▁bis	-2492
▁hei	-2493
▁jog	-2494
▁ruh	-2495
alter	-2496
iform	-2497
stadt	-2498
▁fels	-2499
reifen	-2500
strukt	-2501
▁Küste	-2502
▁Stoff	-2503
▁Tasse	-2504
▁hüpft	-2505
▁jongl	-2506
ätowier	-2507
▁Balkon	-2508
▁Dieser	-2509
▁Haufen	-2510
▁hellen	-2511
▁marsch	-2512
igkeiten	-2513
▁Flasche	-2514
▁bedient	-2515
▁umarmen	-2516
▁Schaufel	-2517
▁Trampolin	-2518
▁aussehende	-2519
▁Cheerleader	-2520
▁geschlossen	-2521
▁afroamerikan	-2522
▁gegnerischen	-2523
kw	-2524
oo	-2525
pe	-2526
üs	-2527
bad	-2528
örm	-2529
arbe	-2530
zäun	-2531
▁Kur	-2532
▁Lie	-2533
▁nur	-2534
▁ärm	-2535
ammer	-2536
bogen	-2537
eifen	-2538
gerät	-2539
lagen	-2540
linie	-2541
olden	-2542
▁Mahl	-2543
▁Plat	-2544
▁Soft	-2545
▁Wein	-2546
▁holt	-2547
▁wein	-2548
iental	-2549
läufer	-2550
sprung	-2551
stücke	-2552
▁Schuh	-2553
▁Stroh	-2554
▁Farben	-2555
▁Meeres	-2556
▁Objekt	-2557
▁Seiten	-2558
▁aufger	-2559
▁befest	-2560
▁hängen	-2561
▁rechts	-2562
▁ärmell	-2563
▁Anzügen	-2564
▁Flaggen	-2565
▁Freunde	-2566
▁Gesichts	-2567
▁Parkbank	-2568
▁Schüssel	-2569
▁oriental	-2570
▁Gegenstän	-2571
▁Touristen	-2572
▁asiatisch	-2573
▁entspannt	-2574
▁schaukelt	-2575
▁verwendet	-2576
▁vollführt	-2577
▁reparieren	-2578
veranstaltung	-2579
▁Schwimmbrille	-2580
ard	-2581
del	-2582
kop	-2583
üte	-2584
▁Ke	-2585
ackt	-2586
amit	-2587
auto	-2588
tert	-2589
umpf	-2590
ürde	-2591
▁Flü	-2592
▁Hot	-2593
▁Inl	-2594
▁New	-2595
▁gie	-2596
▁wur	-2597
elten	-2598
gegen	-2599
hügel	-2600
inder	-2601
sperr	-2602
▁Hang	-2603
▁Spei	-2604
▁Terr	-2605
▁Ziel	-2606
erbung	-2607
ildern	-2608
ändern	-2609
▁Außen	-2610
▁Blatt	-2611
▁Gasse	-2612
▁Katze	-2613
▁Kreuz	-2614
▁Maske	-2615
▁aufge	-2616
▁damit	-2617
▁geöff	-2618
▁hinab	-2619
▁überf	-2620
▁Bullen	-2621
▁Fahnen	-2622
▁Helmen	-2623
▁Sachen	-2624
▁Schlaf	-2625
▁Skater	-2626
▁Steine	-2627
▁grauer	-2628
▁langem	-2629
▁steigt	-2630
schaukel	-2631
▁Asiatin	-2632
▁dunkler	-2633
▁gezogen	-2634
schwarzer	-2635
▁Kopfhörer	-2636
▁Kunstwerk	-2637
▁jongliert	-2638
▁violetten	-2639
▁Schaufenster	-2640
▁Schutzhelmen	-2641
▁beleuchteten	-2642
uh	-2643
age	-2644
aht	-2645
bis	-2646
eiß	-2647
inn	-2648
kat	-2649
ros	-2650
äst	-2651
▁kr	-2652
flug	-2653
helm	-2654
inen	-2655
▁Bad	-2656
▁übt	-2657
ement	-2658
▁Groß	-2659
▁Laub	-2660
▁Rett	-2661
▁gele	-2662
▁ruht	-2663
bewerb	-2664
kostüm	-2665
sstand	-2666
teilen	-2667
zeugen	-2668
▁Berge	-2669
▁Brett	-2670
▁heben	-2671
▁Bilder	-2672
▁Klippe	-2673
▁Skiern	-2674
▁Turner	-2675
▁Feldweg	-2676
▁Strecke	-2677
▁Straßenk	-2678
▁geschäft	-2679
▁Eishockey	-2680
▁Fallschirm	-2681
▁lächelnder	-2682
ic	-2683
yl	-2684
ale	-2685
dio	-2686
mit	-2687
üne	-2688
Hoop	-2689
emon	-2690
glas	-2691
ober	-2692
äten	-2693
▁Box	-2694
eiben	-2695
osten	-2696
rillt	-2697
zeigt	-2698
▁Glei	-2699
▁Grim	-2700
▁unge	-2701
iertem	-2702
omaten	-2703
äumten	-2704
▁Abend	-2705
▁Couch	-2706
▁Licht	-2707
▁Pickn	-2708
▁Umzug	-2709
▁Wüste	-2710
▁Zähne	-2711
▁bauen	-2712
▁bläst	-2713
▁inter	-2714
▁kauft	-2715
▁links	-2716
stühlen	-2717
▁Sitzen	-2718
▁Studen	-2719
▁barfuß	-2720
▁einsam	-2721
▁einzel	-2722
▁grillt	-2723
aufnahme	-2724
richtung	-2725
▁Projekt	-2726
▁Veranda	-2727
▁berührt	-2728
▁fliegen	-2729
▁schießt	-2730
▁Softball	-2731
▁schlafen	-2732
▁Cowboyhut	-2733
▁Sicherheits	-2734
▁Instrumenten	-2735
ay	-2736
ki	-2737
xt	-2738
“-	-2739
fft	-2740
ond	-2741
apel	-2742
blas	-2743
fern	-2744
inge	-2745
sent	-2746
▁Lkw	-2747
baren	-2748
chern	-2749
hoben	-2750
licht	-2751
ophon	-2752
seite	-2753
sicht	-2754
tisch	-2755
weise	-2756
▁Bach	-2757
▁Wurf	-2758
▁verh	-2759
eister	-2760
ichtet	-2761
ospiel	-2762
▁stein	-2763
führung	-2764
▁Asiate	-2765
▁Beinen	-2766
▁Bücher	-2767
▁Teller	-2768
▁allein	-2769
▁golden	-2770
▁linken	-2771
▁Blätter	-2772
▁Geschen	-2773
▁Gitarri	-2774
▁bekommt	-2775
▁reinigt	-2776
▁vorüber	-2777
▁wandert	-2778
schwarzen	-2779
verkäufer	-2780
▁Kopftuch	-2781
▁Mahlzeit	-2782
▁verfolgt	-2783
▁Wettkampf	-2784
▁hinterher	-2785
▁schüttelt	-2786
▁Handtasche	-2787
▁hellblauen	-2788
▁wunderschö	-2789
▁Instrumente	-2790
▁aussehender	-2791
▁vorbeigehen	-2792
▁überfüllten	-2793
▁dunkelhäutige	-2794
▁fotografieren	-2795
▁geschlossenen	-2796
üm	-2797
ere	-2798
orn	-2799
ürt	-2800
▁Ei	-2801
▁Jo	-2802
▁je	-2803
alon	-2804
apan	-2805
itze	-2806
päck	-2807
ross	-2808
uder	-2809
äfer	-2810
▁Erd	-2811
▁dir	-2812
▁nie	-2813
▁sau	-2814
itter	-2815
ützen	-2816
▁Grün	-2817
▁Nase	-2818
▁Ring	-2819
▁best	-2820
▁fröh	-2821
schuhe	-2822
▁Kurve	-2823
▁besch	-2824
▁hockt	-2825
▁stark	-2826
▁umher	-2827
▁Gebiet	-2828
▁Hauses	-2829
▁Reiter	-2830
▁diesem	-2831
▁schauf	-2832
▁öffnet	-2833
arbeiten	-2834
gestellt	-2835
▁Asiaten	-2836
instrumen	-2837
▁Sportler	-2838
▁bestehen	-2839
▁felsigen	-2840
▁Jahrmarkt	-2841
▁Wasserfall	-2842
▁braunhaarige	-2843
▁Personengruppe	-2844
ib	-2845
▁a	-2846
▁e	-2847
bus	-2848
ete	-2849
isk	-2850
ose	-2851
bart	-2852
baum	-2853
eles	-2854
igam	-2855
onen	-2856
räut	-2857
ütte	-2858
▁For	-2859
▁Neo	-2860
▁Wel	-2861
▁hüb	-2862
▁jub	-2863
▁wen	-2864
erfer	-2865
ippen	-2866
smann	-2867
wärts	-2868
▁Fest	-2869
▁Kart	-2870
▁Tarn	-2871
▁amüs	-2872
▁auch	-2873
▁farb	-2874
▁gebl	-2875
▁getr	-2876
▁gold	-2877
▁mehr	-2878
▁näch	-2879
▁verz	-2880
kommen	-2881
schirr	-2882
yboard	-2883
▁Bräut	-2884
▁Salto	-2885
▁Teams	-2886
eichnet	-2887
eleskop	-2888
fahrern	-2889
flasche	-2890
zentrum	-2891
▁Kissen	-2892
▁Küchen	-2893
▁gucken	-2894
▁taucht	-2895
schirmen	-2896
▁Neopren	-2897
▁Steinen	-2898
▁schnell	-2899
▁steigen	-2900
▁Getränke	-2901
▁Tätowier	-2902
▁Bräutigam	-2903
▁Fahrräder	-2904
▁Geschäfts	-2905
▁Schwimmer	-2906
▁schneiden	-2907
▁beieinander	-2908
▁hellbraunen	-2909
▁pinkfarbenem	-2910
▁dunkelhaarige	-2911
▁Winterkleidung	-2912
▁traditioneller	-2913
cr	-2914
ül	-2915
atr	-2916
bes	-2917
enk	-2918
▁Ol	-2919
eibt	-2920
eile	-2921
händ	-2922
kate	-2923
▁Nah	-2924
▁Pal	-2925
▁anh	-2926
▁neu	-2927
azier	-2928
etzen	-2929
hafen	-2930
icker	-2931
laden	-2932
scher	-2933
viert	-2934
zeuge	-2935
äcken	-2936
ällen	-2937
▁Afro	-2938
▁Kerl	-2939
▁Sees	-2940
▁Tuch	-2941
▁erkl	-2942
▁kann	-2943
▁samm	-2944
Fahrer	-2945
hängen	-2946
ierter	-2947
muster	-2948
schlag	-2949
stehen	-2950
▁beige	-2951
▁wurde	-2952
ansport	-2953
braunen	-2954
brillen	-2955
▁Fotogr	-2956
▁Gepäck	-2957
▁Gewehr	-2958
▁Wäsche	-2959
▁barfüß	-2960
▁bringt	-2961
▁gelegt	-2962
▁wäscht	-2963
bereitet	-2964
▁Gruppen	-2965
▁Mitglie	-2966
▁aufblas	-2967
▁langärm	-2968
▁streich	-2969
▁weitere	-2970
struktion	-2971
▁Rettungs	-2972
▁Terrasse	-2973
▁konzentr	-2974
▁untersch	-2975
▁Baumstamm	-2976
▁Rollstuhl	-2977
▁Lederjacke	-2978
▁untersucht	-2979
▁Fußgängerüber	-2980
hle	-2981
nes	-2982
opf	-2983
rol	-2984
sel	-2985
ton	-2986
äge	-2987
öhn	-2988
▁BM	-2989
▁He	-2990
▁Mö	-2991
ance	-2992
pfel	-2993
stag	-2994
ulli	-2995
▁Dre	-2996
▁Kuh	-2997
▁Ort	-2998
▁dan	-2999
▁ger	-3000
▁hel	-3001
▁höl	-3002
▁pfl	-3003
aktor	-3004
icken	-3005
ilden	-3006
änden	-3007
önnen	-3008
▁Blue	-3009
▁Bord	-3010
▁üben	-3011
ichten	-3012
ickelt	-3013
mantel	-3014
schein	-3015
▁Gerät	-3016
▁Kamer	-3017
▁Lager	-3018
▁Zunge	-3019
▁gießt	-3020
▁kickt	-3021
laschen	-3022
▁Kleine	-3023
▁Sieben	-3024
▁helfen	-3025
▁nassen	-3026
▁ringen	-3027
▁vollen	-3028
▁Eingang	-3029
▁Taucher	-3030
▁gleitet	-3031
▁nachdem	-3032
▁rasiert	-3033
▁darunter	-3034
▁sitzende	-3035
▁Passanten	-3036
▁sitzenden	-3037
▁Ausrüstung	-3038
▁Straßenkünstler	-3039
kü	-3040
are	-3041
hem	-3042
los	-3043
man	-3044
ole	-3045
ome	-3046
▁Ur	-3047
▁mö	-3048
förm	-3049
iere	-3050
ippt	-3051
itte	-3052
pfer	-3053
ugby	-3054
öcke	-3055
▁Fil	-3056
▁Kab	-3057
▁Per	-3058
▁näh	-3059
▁reg	-3060
eucht	-3061
hilfe	-3062
neten	-3063
stoff	-3064
▁Dunk	-3065
▁fert	-3066
▁land	-3067
▁nass	-3068
▁tief	-3069
▁vorn	-3070
fallen	-3071
wasser	-3072
▁Besen	-3073
▁Brust	-3074
▁Gesch	-3075
▁Matte	-3076
▁Rugby	-3077
▁Theke	-3078
▁Tromp	-3079
▁bespr	-3080
gewicht	-3081
schnitt	-3082
zäunten	-3083
▁Becher	-3084
▁Berges	-3085
▁Schiff	-3086
▁Spiels	-3087
▁Tunnel	-3088
▁hinaus	-3089
▁kommen	-3090
testelle	-3091
▁Drachen	-3092
▁Schäfer	-3093
▁Spielen	-3094
▁Trommel	-3095
▁überprü	-3096
▁Auftritt	-3097
▁Fotograf	-3098
▁Geschenk	-3099
▁Keyboard	-3100
▁Teleskop	-3101
▁gestreif	-3102
▁geworfen	-3103
▁Turnhalle	-3104
▁Weihnacht	-3105
▁sitzender	-3106
▁verkleidet	-3107
▁Kunststücke	-3108
▁Nahaufnahme	-3109
▁unterschied	-3110
▁Neoprenanzug	-3111
▁konzentriert	-3112
▁Hockeyspieler	-3113
▁amerikanische	-3114
ena	-3115
gnü	-3116
kte	-3117
ote	-3118
ult	-3119
ymp	-3120
zuf	-3121
▁Ex	-3122
▁Ki	-3123
▁Pl	-3124
crem	-3125
halt	-3126
otoc	-3127
unkt	-3128
älde	-3129
▁Ban	-3130
▁Heu	-3131
▁Mod	-3132
▁ele	-3133
amens	-3134
chter	-3135
änder	-3136
▁Mänt	-3137
▁Prof	-3138
▁Vide	-3139
▁brei	-3140
▁weit	-3141
ettern	-3142
haufen	-3143
stufen	-3144
tasche	-3145
▁Farbe	-3146
▁Figur	-3147
▁Motoc	-3148
▁Schot	-3149
▁bunte	-3150
▁dekor	-3151
▁geben	-3152
▁ihres	-3153
chester	-3154
▁Gewand	-3155
▁Hundes	-3156
▁Karren	-3157
▁Karten	-3158
▁Koffer	-3159
▁Soldat	-3160
▁Träger	-3161
▁angelt	-3162
▁bewegt	-3163
▁feiern	-3164
▁kalten	-3165
▁lehnen	-3166
▁Kleiner	-3167
▁Polizei	-3168
▁Spazier	-3169
▁Werbung	-3170
▁braunes	-3171
▁gezeigt	-3172
▁paddelt	-3173
▁rechten	-3174
▁schreit	-3175
▁Freizeit	-3176
▁Geschirr	-3177
▁Handtuch	-3178
▁benutzen	-3179
▁brünette	-3180
▁entfernt	-3181
▁entgegen	-3182
▁schießen	-3183
bekleidung	-3184
▁Motocross	-3185
▁glücklich	-3186
▁verlassen	-3187
▁Waldgebiet	-3188
▁Wohnzimmer	-3189
▁ärmellosen	-3190
▁Schäferhund	-3191
▁Afroamerikan	-3192
▁hellhäutiger	-3193
▁Arbeitskleidung	-3194
ake	-3195
bau	-3196
wir	-3197
öte	-3198
▁Vö	-3199
asst	-3200
bung	-3201
grau	-3202
ocks	-3203
räbt	-3204
satz	-3205
unde	-3206
älle	-3207
üten	-3208
▁Bes	-3209
▁Dau	-3210
▁Dor	-3211
▁Frü	-3212
▁Häu	-3213
▁Jog	-3214
▁Not	-3215
▁füt	-3216
▁kau	-3217
▁tür	-3218
anger	-3219
deckt	-3220
ommen	-3221
stern	-3222
tform	-3223
▁Gang	-3224
▁Knie	-3225
▁Mess	-3226
▁Sitz	-3227
▁Vers	-3228
▁Viol	-3229
▁Wild	-3230
▁selt	-3231
gerüst	-3232
nehmen	-3233
strand	-3234
▁Jungs	-3235
▁Segel	-3236
▁Staub	-3237
▁begut	-3238
▁blond	-3239
▁folgt	-3240
▁gräbt	-3241
▁herab	-3242
▁jagen	-3243
▁kehrt	-3244
▁khaki	-3245
▁Eltern	-3246
▁Fahrer	-3247
▁Jockey	-3248
▁Ketten	-3249
▁Zement	-3250
▁elektr	-3251
▁hölzer	-3252
▁schöne	-3253
▁Mänteln	-3254
▁Schnurr	-3255
▁alleine	-3256
▁blondem	-3257
▁daneben	-3258
▁offenem	-3259
▁seltsam	-3260
▁violett	-3261
▁Behälter	-3262
▁Skulptur	-3263
mannschaft	-3264
▁Flughafen	-3265
▁Handstand	-3266
▁irgendein	-3267
▁stehenden	-3268
▁trainiert	-3269
▁Bildschirm	-3270
▁Rolltreppe	-3271
▁Gegenstände	-3272
▁Kapuzenpulli	-3273
▁chinesischen	-3274
▁geschäftigen	-3275
▁Baseballkappe	-3276
▁Tennisschläger	-3277
▁Weihnachtsbaum	-3278
ia	-3279
ym	-3280
ail	-3281
box	-3282
hlt	-3283
llt	-3284
ong	-3285
rok	-3286
▁Sm	-3287
▁US	-3288
▁We	-3289
einw	-3290
flie	-3291
plat	-3292
rock	-3293
usch	-3294
▁Mon	-3295
▁geh	-3296
▁sel	-3297
attoo	-3298
ausch	-3299
icket	-3300
ieben	-3301
jeans	-3302
kugel	-3303
salon	-3304
statt	-3305
änken	-3306
äsern	-3307
▁Brot	-3308
▁Jack	-3309
▁Klav	-3310
▁Topf	-3311
▁Zahl	-3312
▁Zahn	-3313
▁anzu	-3314
▁baut	-3315
▁fast	-3316
▁form	-3317
▁lock	-3318
legest	-3319
männer	-3320
▁Füßen	-3321
▁bewöl	-3322
▁hören	-3323
▁lange	-3324
▁statt	-3325
reckten	-3326
reichen	-3327
rutsche	-3328
zeichen	-3329
▁Ballon	-3330
▁Daumen	-3331
▁Dieses	-3332
▁Fläche	-3333
▁Gegner	-3334
▁Pfütze	-3335
▁Stapel	-3336
▁kochen	-3337
▁lassen	-3338
▁runden	-3339
▁Angelru	-3340
▁Arbeits	-3341
▁bringen	-3342
▁steilen	-3343
▁Saxophon	-3344
▁jemanden	-3345
▁mehrfarb	-3346
instrument	-3347
legestelle	-3348
▁Bluejeans	-3349
▁Hochzeits	-3350
▁Skatepark	-3351
▁Studenten	-3352
▁befestigt	-3353
▁Kopfhörern	-3354
▁lächelndes	-3355
▁Jugendliche	-3356
▁Mountainbike	-3357
▁Frisbeescheibe	-3358
▁Weihnachtsmann	-3359
tm	-3360
äg	-3361
aal	-3362
ama	-3363
bör	-3364
emp	-3365
neh	-3366
ops	-3367
▁Kä	-3368
▁Pr	-3369
▁Rä	-3370
▁Su	-3371
▁bo	-3372
ages	-3373
bern	-3374
eute	-3375
glei	-3376
merk	-3377
othe	-3378
samm	-3379
schm	-3380
seit	-3381
utel	-3382
ößer	-3383
▁Oze	-3384
▁Pit	-3385
▁Pär	-3386
▁Tab	-3387
▁bie	-3388
affel	-3389
ampen	-3390
richt	-3391
szene	-3392
▁Gass	-3393
▁Pier	-3394
▁Schr	-3395
▁halb	-3396
▁klat	-3397
▁länd	-3398
▁plan	-3399
arbeit	-3400
dessen	-3401
träger	-3402
wegung	-3403
▁Balls	-3404
▁Feier	-3405
▁Hafen	-3406
▁Hocke	-3407
▁Hürde	-3408
▁Labor	-3409
▁Schaf	-3410
▁Schne	-3411
▁Stier	-3412
▁weint	-3413
geboren	-3414
merksam	-3415
▁Bushal	-3416
▁Körper	-3417
▁Lehrer	-3418
▁Orange	-3419
▁Plakat	-3420
▁Spitze	-3421
▁heißen	-3422
▁hinein	-3423
▁mittel	-3424
▁nähert	-3425
skulptur	-3426
▁Bahnhof	-3427
▁Ballons	-3428
▁Gemälde	-3429
▁Klavier	-3430
▁Pfosten	-3431
▁Pärchen	-3432
▁Traktor	-3433
▁gelehnt	-3434
▁Trompete	-3435
▁Wandbild	-3436
▁Werkzeug	-3437
▁beschäft	-3438
▁jüngeren	-3439
▁komplett	-3440
▁scheinen	-3441
bildschirm	-3442
▁Bahnsteig	-3443
▁einzelner	-3444
▁hölzernen	-3445
▁schaufelt	-3446
▁Lebensmitt	-3447
▁Trägerhemd	-3448
▁Videospiel	-3449
▁streichelt	-3450
▁Bowlingbahn	-3451
▁Krankenhaus	-3452
▁Motorrädern	-3453
▁schmutzigen	-3454
▁kahlköpfiger	-3455
▁Sonnenbrillen	-3456
▁Bushaltestelle	-3457
▁Zuschauermenge	-3458
dy	-3459
up	-3460
adl	-3461
kan	-3462
ood	-3463
äht	-3464
äng	-3465
▁Am	-3466
▁Fa	-3467
anze	-3468
keit	-3469
lern	-3470
netz	-3471
pool	-3472
rise	-3473
zern	-3474
▁Sto	-3475
▁Ton	-3476
▁Wal	-3477
ahmen	-3478
arren	-3479
creme	-3480
euert	-3481
hüter	-3482
kates	-3483
ostüm	-3484
trick	-3485
▁Deck	-3486
▁Dorf	-3487
▁Fans	-3488
▁Gumm	-3489
▁Stab	-3490
▁kopf	-3491
Schild	-3492
anlage	-3493
eligen	-3494
schutz	-3495
stange	-3496
weißem	-3497
▁Brand	-3498
▁Gassi	-3499
▁Start	-3500
▁Strom	-3501
▁gespr	-3502
▁joggt	-3503
▁sechs	-3504
Gitarre	-3505
adlocks	-3506
gestell	-3507
gitarre	-3508
händler	-3509
ichtern	-3510
▁Bauern	-3511
▁Hammer	-3512
▁Herbst	-3513
▁Kisten	-3514
▁Nicker	-3515
▁Schlei	-3516
▁Socken	-3517
▁bewund	-3518
▁geblüm	-3519
▁rudert	-3520
▁schlaf	-3521
▁teilen	-3522
arbeitet	-3523
haarigen	-3524
▁Inlines	-3525
▁Speisen	-3526
▁Zeichen	-3527
▁brennen	-3528
▁flausch	-3529
▁geparkt	-3530
▁spritzt	-3531
▁Freiluft	-3532
▁Kreuzung	-3533
▁Mädchens	-3534
▁Rollerbl	-3535
▁goldenen	-3536
▁zeichnet	-3537
▁Gitarrist	-3538
▁Graffitis	-3539
▁Kletterer	-3540
▁Orchester	-3541
▁Picknickt	-3542
▁Trainings	-3543
▁bedeckten	-3544
▁silbernen	-3545
▁Bekleidung	-3546
▁Dreadlocks	-3547
▁Nickerchen	-3548
▁Steinmauer	-3549
▁zusammenge	-3550
▁Luftballons	-3551
▁Restaurants	-3552
▁Schnurrbart	-3553
▁Stadtstraße	-3554
▁beschäftigt	-3555
▁Bowlingkugel	-3556
▁langhaariger	-3557
▁wunderschönen	-3558
▁Menschengruppe	-3559
▁ausgestreckten	-3560
▁Einkaufszentrum	-3561
je	-3562
ask	-3563
bem	-3564
eet	-3565
eir	-3566
enz	-3567
gro	-3568
ity	-3569
mel	-3570
nem	-3571
une	-3572
▁Bi	-3573
▁Lö	-3574
▁Na	-3575
▁Ze	-3576
▁ar	-3577
▁wa	-3578
affe	-3579
ativ	-3580
ettr	-3581
innt	-3582
klam	-3583
last	-3584
pfle	-3585
rohr	-3586
tüte	-3587
unft	-3588
wett	-3589
▁Ent	-3590
▁Man	-3591
▁Min	-3592
▁Mop	-3593
▁Näh	-3594
▁Sil	-3595
▁Tax	-3596
▁Zie	-3597
▁erl	-3598
▁mus	-3599
▁nah	-3600
▁zer	-3601
ammen	-3602
draht	-3603
enden	-3604
iskut	-3605
kette	-3606
ohner	-3607
othek	-3608
präch	-3609
recht	-3610
reckt	-3611
rückt	-3612
stock	-3613
trakt	-3614
useum	-3615
wanne	-3616
äften	-3617
▁Fass	-3618
▁Füße	-3619
▁Gelb	-3620
▁Gold	-3621
▁Gürt	-3622
▁Heiß	-3623
▁Kids	-3624
▁Kies	-3625
▁Lied	-3626
▁Rede	-3627
▁Warn	-3628
▁abzu	-3629
▁aufs	-3630
▁bunt	-3631
▁kümm	-3632
▁verb	-3633
Reifen	-3634
laufen	-3635
reiche	-3636
zeuger	-3637
▁Arena	-3638
▁Bauch	-3639
▁Blume	-3640
▁Flüss	-3641
▁Hütte	-3642
▁Sandd	-3643
▁Schub	-3644
▁Typen	-3645
▁Video	-3646
▁ungew	-3647
agieren	-3648
richten	-3649
▁Essens	-3650
▁Mittag	-3651
▁Modell	-3652
▁Schule	-3653
▁direkt	-3654
▁diskut	-3655
▁gepunk	-3656
▁hochge	-3657
▁können	-3658
▁passen	-3659
▁selbst	-3660
aschinen	-3661
▁Fingern	-3662
▁Geldbör	-3663
▁Kleines	-3664
▁schwach	-3665
▁trocken	-3666
▁älteres	-3667
▁indische	-3668
▁mithilfe	-3669
landschaft	-3670
▁Einkaufst	-3671
▁Getränken	-3672
▁Hinterhof	-3673
▁Rennwagen	-3674
▁gesäumten	-3675
▁Fotografen	-3676
▁Rucksäcken	-3677
▁bearbeitet	-3678
▁Nähmaschine	-3679
▁vorbeifährt	-3680
▁Anlegestelle	-3681
▁Schlagzeuger	-3682
▁Schutzbrille	-3683
▁rosafarbenem	-3684
▁Baseballmütze	-3685
▁Baseballspiel	-3686
▁Klettergerüst	-3687
▁Spielkleidung	-3688
▁amerikanischen	-3689
▁Feuerwehrmänner	-3690
eid	-3691
erw	-3692
ika	-3693
ino	-3694
org	-3695
ott	-3696
▁La	-3697
▁lö	-3698
ders	-3699
dium	-3700
gung	-3701
iten	-3702
leck	-3703
ortr	-3704
pack	-3705
öpfe	-3706
▁Bat	-3707
▁Bel	-3708
▁Bre	-3709
▁Kör	-3710
▁Lim	-3711
▁Piz	-3712
▁Plü	-3713
▁Süß	-3714
▁get	-3715
▁ser	-3716
▁stö	-3717
▁tre	-3718
cours	-3719
einen	-3720
ienen	-3721
orgen	-3722
rampe	-3723
udels	-3724
zeich	-3725
ämmer	-3726
▁Chor	-3727
▁Club	-3728
▁Elef	-3729
▁Herd	-3730
▁Sess	-3731
▁Teig	-3732
▁aben	-3733
▁aber	-3734
▁fegt	-3735
▁kaut	-3736
eirate	-3737
eisten	-3738
ettert	-3739
etzten	-3740
vollen	-3741
ächeln	-3742
▁Demon	-3743
▁Dinge	-3744
▁Dreck	-3745
▁Kamel	-3746
▁Kegel	-3747
▁Moped	-3748
▁Rauch	-3749
▁Ruder	-3750
▁Stamm	-3751
▁angel	-3752
▁anhat	-3753
▁dicht	-3754
▁füllt	-3755
▁glatz	-3756
▁Balken	-3757
▁Bänken	-3758
▁Rädern	-3759
▁Strick	-3760
▁Wänden	-3761
▁größer	-3762
▁runter	-3763
▁schwei	-3764
euchtung	-3765
luftball	-3766
sammlung	-3767
▁Outfits	-3768
▁Schacht	-3769
▁beladen	-3770
▁lachend	-3771
▁stellen	-3772
▁wandern	-3773
automaten	-3774
formation	-3775
▁Demonstr	-3776
▁Rennauto	-3777
▁Strohhut	-3778
▁Windhund	-3779
▁berühren	-3780
▁gehalten	-3781
▁schwenkt	-3782
▁ungewöhn	-3783
volleyball	-3784
▁Angelrute	-3785
▁Bordstein	-3786
▁Gewässers	-3787
▁Verkäufer	-3788
▁amüsieren	-3789
▁geblümten	-3790
▁steinigen	-3791
▁Abendessen	-3792
▁Kunststoff	-3793
▁Sandstrand	-3794
▁Wettbewerb	-3795
▁marschiert	-3796
▁verheirate	-3797
konstruktion	-3798
▁Heißluftball	-3799
▁aufblasbaren	-3800
▁dunkelblauen	-3801
▁Regenschirmen	-3802
▁afrikanischer	-3803
Tr	-3804
ga	-3805
ban	-3806
chn	-3807
dog	-3808
fle	-3809
hou	-3810
ieß	-3811
lem	-3812
tor	-3813
uhl	-3814
▁Kö	-3815
▁at	-3816
▁mo	-3817
ades	-3818
aube	-3819
burg	-3820
door	-3821
ität	-3822
ival	-3823
leit	-3824
säge	-3825
tmod	-3826
wimm	-3827
ären	-3828
äser	-3829
ürzt	-3830
▁Ast	-3831
▁Leg	-3832
▁fla	-3833
▁prü	-3834
▁sow	-3835
▁ähn	-3836
anien	-3837
eiger	-3838
irmen	-3839
musik	-3840
ohemd	-3841
utfit	-3842
üssel	-3843
▁Auff	-3844
▁Chin	-3845
▁Kalb	-3846
▁Krei	-3847
▁Oper	-3848
▁Puck	-3849
▁Somm	-3850
▁Trib	-3851
▁eins	-3852
▁noch	-3853
seitig	-3854
ziehen	-3855
▁Eisen	-3856
▁Fahne	-3857
▁Fahrt	-3858
▁Klapp	-3859
▁Noten	-3860
▁Stift	-3861
▁Tafel	-3862
▁rollt	-3863
▁sucht	-3864
▁tätow	-3865
ammlung	-3866
izieren	-3867
ollegen	-3868
schmuck	-3869
uniform	-3870
▁Becken	-3871
▁Einrad	-3872
▁Elektr	-3873
▁Kerzen	-3874
▁Konfer	-3875
▁Lippen	-3876
▁Palmen	-3877
▁Silhou	-3878
▁altmod	-3879
▁gepark	-3880
▁geschn	-3881
▁leicht	-3882
▁setzen	-3883
▁steckt	-3884
förmigen	-3885
ämmerung	-3886
▁Absperr	-3887
▁Ballett	-3888
▁Kleider	-3889
▁Lächeln	-3890
▁Orangen	-3891
▁Outdoor	-3892
▁Schlitt	-3893
▁Schwert	-3894
▁flachen	-3895
▁füttert	-3896
▁irgendw	-3897
▁jüngere	-3898
▁protest	-3899
▁richtet	-3900
▁riesige	-3901
▁treffen	-3902
ettrennen	-3903
schnitten	-3904
▁Gespräch	-3905
▁Schotter	-3906
▁kopfüber	-3907
▁Operation	-3908
▁Plattform	-3909
▁Wasserski	-3910
▁bewölkten	-3911
▁kariertem	-3912
▁scheinbar	-3913
▁violettem	-3914
instrumente	-3915
issenschaft	-3916
▁Motorräder	-3917
▁Schwimmbad	-3918
▁Waschsalon	-3919
▁bestehende	-3920
▁erwachsene	-3921
▁Flüssigkeit	-3922
▁Fußballfeld	-3923
▁Schlafanzug	-3924
▁Zeitschrift	-3925
▁Ziegelmauer	-3926
▁gegenseitig	-3927
▁marschieren	-3928
▁untersuchen	-3929
▁Mannschaften	-3930
▁Rollerblades	-3931
▁afrikanische	-3932
▁Feuerwehrmann	-3933
▁Picknicktisch	-3934
▁Sportkleidung	-3935
▁beigefarbenen	-3936
▁Straßenhändler	-3937
Ge	-3938
KW	-3939
ai	-3940
pt	-3941
öt	-3942
üh	-3943
bur	-3944
eep	-3945
ian	-3946
igh	-3947
tag	-3948
urm	-3949
way	-3950
ämm	-3951
üff	-3952
▁Di	-3953
▁Pe	-3954
Ober	-3955
ache	-3956
anke	-3957
buch	-3958
foto	-3959
gebr	-3960
hten	-3961
ikul	-3962
sitz	-3963
voll	-3964
zten	-3965
▁Gar	-3966
▁LKW	-3967
▁Pat	-3968
▁Pin	-3969
▁Red	-3970
▁Tal	-3971
▁dün	-3972
▁prä	-3973
etzte	-3974
ildet	-3975
leute	-3976
nimmt	-3977
ondon	-3978
▁Bass	-3979
▁Betr	-3980
▁Bill	-3981
▁Cafe	-3982
▁Esel	-3983
▁Irok	-3984
▁Lang	-3985
▁Löff	-3986
▁Robe	-3987
▁Rohr	-3988
▁Show	-3989
▁dazu	-3990
▁näht	-3991
▁will	-3992
▁zuge	-3993
braune	-3994
brücke	-3995
henden	-3996
hänger	-3997
ichter	-3998
kinder	-3999
leicht	-4000
nehmer	-4001
riseur	-4002
roller	-4003
ussell	-4004
zenden	-4005
▁Beine	-4006
▁Boots	-4007
▁Hilfe	-4008
▁Ohren	-4009
▁Piste	-4010
▁Produ	-4011
▁Super	-4012
▁beißt	-4013
▁japan	-4014
▁parkt	-4015
▁vorne	-4016
agessen	-4017
köpfige	-4018
leidung	-4019
richtet	-4020
steinen	-4021
urtstag	-4022
▁Baumes	-4023
▁Dudels	-4024
▁Herren	-4025
▁London	-4026
▁Messer	-4027
▁Podium	-4028
▁Röcken	-4029
▁Saiten	-4030
▁Tauben	-4031
▁Tricks	-4032
▁Umhang	-4033
▁bunter	-4034
▁findet	-4035
▁landet	-4036
▁treibt	-4037
▁wischt	-4038
geworfen	-4039
oberteil	-4040
springen	-4041
▁Maschen	-4042
▁Protest	-4043
▁Stangen	-4044
▁Tablett	-4045
▁gefüllt	-4046
▁sammelt	-4047
▁schlend	-4048
▁starren	-4049
sentation	-4050
▁Blättern	-4051
▁Brandung	-4052
▁Flaschen	-4053
▁Gitarren	-4054
▁Grimasse	-4055
▁Irokesen	-4056
▁Sanddüne	-4057
▁Sängerin	-4058
▁Turnerin	-4059
▁geöffnet	-4060
▁offenbar	-4061
▁planscht	-4062
▁schweißt	-4063
▁stehende	-4064
▁Badewanne	-4065
▁Elefanten	-4066
▁Geldbörse	-4067
▁Stirnband	-4068
▁Surfboard	-4069
▁indischer	-4070
▁transport	-4071
▁überprüft	-4072
▁Geburtstag	-4073
▁Geschäften	-4074
▁Grasfläche	-4075
▁Jeansjacke	-4076
▁Mitglieder	-4077
▁Sportwagen	-4078
▁Wettrennen	-4079
▁entspannen	-4080
▁herunterge	-4081
▁trainieren	-4082
▁vorbeigeht	-4083
▁Klassenraum	-4084
▁Mittagessen	-4085
▁Süßigkeiten	-4086
▁begutachtet	-4087
▁übergewicht	-4088
▁Fahrgeschäft	-4089
▁Maschendraht	-4090
▁eingezäunten	-4091
▁farbenfroher	-4092
▁Wasserflasche	-4093
▁Afroamerikaner	-4094
▁dunkelhaariger	-4095
▁Basketballspiel	-4096
cl	-4097
jo	-4098
abr	-4099
ace	-4100
bli	-4101
ial	-4102
kul	-4103
olk	-4104
uro	-4105
ymn	-4106
▁Af	-4107
▁Do	-4108
▁ak	-4109
Hemd	-4110
bare	-4111
bers	-4112
bert	-4113
dian	-4114
ernt	-4115
heim	-4116
iker	-4117
izin	-4118
kann	-4119
kurs	-4120
oben	-4121
räun	-4122
trag	-4123
wich	-4124
▁Kür	-4125
▁erh	-4126
▁fau	-4127
▁fre	-4128
▁med	-4129
▁mög	-4130
ainer	-4131
alung	-4132
anner	-4133
block	-4134
boten	-4135
decke	-4136
eilen	-4137
ernen	-4138
flekt	-4139
hören	-4140
karre	-4141
karte	-4142
kreuz	-4143
kunst	-4144
olgen	-4145
schla	-4146
usses	-4147
ustik	-4148
▁Auss	-4149
▁Floß	-4150
▁Flur	-4151
▁High	-4152
▁Händ	-4153
▁Punk	-4154
▁acht	-4155
▁baum	-4156
▁hind	-4157
▁neue	-4158
▁ober	-4159
▁prob	-4160
▁rast	-4161
▁vert	-4162
dienen	-4163
gebrei	-4164
kamera	-4165
leiter	-4166
sammen	-4167
schaut	-4168
ymnast	-4169
▁Bibli	-4170
▁Bogen	-4171
▁Einem	-4172
▁Einer	-4173
▁Karte	-4174
▁Khaki	-4175
▁Kiste	-4176
▁Later	-4177
▁Natur	-4178
▁Olymp	-4179
▁Stufe	-4180
▁Säugl	-4181
▁Vögel	-4182
▁bückt	-4183
▁engen	-4184
▁graue	-4185
▁kompl	-4186
▁malen	-4187
▁seich	-4188
artigen	-4189
mitglie	-4190
steigen	-4191
▁Achter	-4192
▁Bandan	-4193
▁Decken	-4194
▁Fernse	-4195
▁Hotdog	-4196
▁Kapuze	-4197
▁Kreide	-4198
▁Laufen	-4199
▁Reklam	-4200
▁Stehen	-4201
▁Tanzen	-4202
▁Welpen	-4203
▁fallen	-4204
▁faulen	-4205
▁joggen	-4206
▁jubeln	-4207
▁nieder	-4208
▁wendet	-4209
Oberteil	-4210
bemalung	-4211
gebunden	-4212
schlagen	-4213
▁Afrikan	-4214
▁Akustik	-4215
▁Büschen	-4216
▁Kricket	-4217
▁Müllton	-4218
▁Theater	-4219
▁Trainer	-4220
▁Violine	-4221
▁Waldweg	-4222
▁erleuch	-4223
▁ruhigen	-4224
▁schlamm	-4225
▁uniform	-4226
ennfahrer	-4227
▁Fernglas	-4228
▁Maulkorb	-4229
▁Schilder	-4230
▁Schirmen	-4231
▁befahren	-4232
▁bekommen	-4233
▁festhält	-4234
▁gleichen	-4235
▁hindurch	-4236
▁nächsten	-4237
▁reinigen	-4238
▁verlässt	-4239
▁Gewändern	-4240
▁Grimassen	-4241
▁Schildern	-4242
▁ausgebrei	-4243
▁bespritzt	-4244
▁bewundert	-4245
▁stehender	-4246
▁Aufführung	-4247
▁Bibliothek	-4248
▁Schubkarre	-4249
▁Silhouette	-4250
▁städtische	-4251
▁vielleicht	-4252
▁Motorroller	-4253
▁aussehenden	-4254
▁diskutieren	-4255
▁entlanggeht	-4256
▁gepunkteten	-4257
▁rothaariges	-4258
▁Blumenmuster	-4259
▁Straßenmusik	-4260
▁ausgestreckt	-4261
▁Teenageralter	-4262
▁glatzköpfiger	-4263
▁orangefarbene	-4264
Fl	-4265
Te	-4266
pa	-4267
akd	-4268
ari	-4269
ech	-4270
flü	-4271
how	-4272
ieb	-4273
ign	-4274
kla	-4275
mal	-4276
min	-4277
ola	-4278
uad	-4279
uer	-4280
ven	-4281
xen	-4282
äne	-4283
öhr	-4284
▁At	-4285
▁Gi	-4286
▁ör	-4287
Mann	-4288
aust	-4289
back	-4290
bett	-4291
biss	-4292
blät	-4293
egen	-4294
elst	-4295
elte	-4296
hlet	-4297
ilmt	-4298
lter	-4299
länd	-4300
olen	-4301
pfad	-4302
putz	-4303
rauß	-4304
ufer	-4305
uten	-4306
weis	-4307
äste	-4308
▁Akt	-4309
▁Amp	-4310
▁Pil	-4311
▁Prä	-4312
▁Som	-4313
▁erw	-4314
▁ged	-4315
abrik	-4316
affen	-4317
alken	-4318
arter	-4319
asten	-4320
iksch	-4321
iment	-4322
orden	-4323
spark	-4324
teams	-4325
waren	-4326
äumen	-4327
▁Bike	-4328
▁Euro	-4329
▁Fack	-4330
▁Freu	-4331
▁Glat	-4332
▁Kell	-4333
▁Kran	-4334
▁Mark	-4335
▁Wake	-4336
▁eben	-4337
▁insp	-4338
▁sand	-4339
▁webt	-4340
apelle	-4341
beutel	-4342
bstuhl	-4343
iertes	-4344
istole	-4345
leitet	-4346
lichem	-4347
ollege	-4348
rechen	-4349
stellt	-4350
trikot	-4351
wäsche	-4352
zeitig	-4353
▁Asien	-4354
▁Köche	-4355
▁Linie	-4356
▁Pfadf	-4357
▁Pudel	-4358
▁Rande	-4359
▁Szene	-4360
▁Wange	-4361
▁angem	-4362
▁bevor	-4363
▁leckt	-4364
▁legen	-4365
▁leger	-4366
▁niedr	-4367
▁rosar	-4368
einwand	-4369
fenster	-4370
haltung	-4371
▁Breakd	-4372
▁Bällen	-4373
▁Bühnen	-4374
▁Fänger	-4375
▁Kindes	-4376
▁Köpfen	-4377
▁Locken	-4378
▁Löffel	-4379
▁Moment	-4380
▁Museum	-4381
▁Poster	-4382
▁Ringer	-4383
▁Stofft	-4384
▁Stühle	-4385
▁Tattoo	-4386
▁Zöpfen	-4387
▁abends	-4388
▁bilden	-4389
▁dieser	-4390
▁feiert	-4391
▁graben	-4392
gebäudes	-4393
gelassen	-4394
geländer	-4395
schlauch	-4396
ymnastik	-4397
▁Bandana	-4398
▁Häusern	-4399
▁Jackett	-4400
▁Kameras	-4401
▁Kellner	-4402
▁Schmuck	-4403
▁Schmutz	-4404
▁beginnt	-4405
▁bewegen	-4406
▁drinnen	-4407
▁greifen	-4408
▁präsent	-4409
▁rauchen	-4410
▁spieler	-4411
geborenes	-4412
▁Aussicht	-4413
▁Ballerin	-4414
▁Fahrrads	-4415
▁Streifen	-4416
▁Torhüter	-4417
▁einsamer	-4418
▁farbigen	-4419
▁gestikul	-4420
▁lockigen	-4421
▁schieben	-4422
▁streicht	-4423
▁verdeckt	-4424
▁Dudelsack	-4425
▁Gymnastik	-4426
▁Radrennen	-4427
▁Rollschuh	-4428
▁gewickelt	-4429
▁schreiben	-4430
▁teilweise	-4431
▁Achterbahn	-4432
▁Asiatinnen	-4433
▁Innenstadt	-4434
▁Marktplatz	-4435
▁Pferdeschw	-4436
▁Radfahrern	-4437
▁aufmerksam	-4438
▁geschminkt	-4439
▁geöffneten	-4440
▁ländlichen	-4441
▁zubereitet	-4442
▁Beleuchtung	-4443
▁Tätowierung	-4444
▁Versammlung	-4445
▁rosafarbene	-4446
▁verkleidete	-4447
▁Sonnenschirm	-4448
▁gleichzeitig	-4449
▁khakifarbenen	-4450
▁Akustikgitarre	-4451
▁Reifenschaukel	-4452
▁Rettungswesten	-4453
▁Snowboardfahrer	-4454
▁Tennisspielerin	-4455
ce	-4456
id	-4457
io	-4458
yn	-4459
ys	-4460
▁-	-4461
ags	-4462
ami	-4463
bro	-4464
een	-4465
hes	-4466
irl	-4467
itr	-4468
koh	-4469
les	-4470
ore	-4471
osa	-4472
udd	-4473
utt	-4474
weh	-4475
üht	-4476
▁Bu	-4477
▁Mc	-4478
▁Mi	-4479
▁ei	-4480
▁qu	-4481
elbe	-4482
ersp	-4483
hört	-4484
iers	-4485
inde	-4486
ofon	-4487
otiv	-4488
rift	-4489
spre	-4490
wurf	-4491
▁Ess	-4492
▁Kil	-4493
▁Lac	-4494
▁Neu	-4495
▁Pel	-4496
▁Uhr	-4497
▁Wol	-4498
▁dah	-4499
▁pol	-4500
▁säu	-4501
ambur	-4502
dress	-4503
egeln	-4504
essen	-4505
falls	-4506
figur	-4507
haube	-4508
ichte	-4509
ießen	-4510
ister	-4511
ivers	-4512
kante	-4513
ligen	-4514
loser	-4515
läuft	-4516
onald	-4517
orter	-4518
sseln	-4519
stift	-4520
stuch	-4521
teilt	-4522
tlich	-4523
wandt	-4524
ündel	-4525
ürste	-4526
▁Bohr	-4527
▁Camp	-4528
▁Film	-4529
▁Home	-4530
▁Hüte	-4531
▁Kick	-4532
▁Sack	-4533
▁Tank	-4534
▁Taxi	-4535
▁Zuck	-4536
▁glän	-4537
▁neon	-4538
▁soll	-4539
▁sort	-4540
▁span	-4541
▁türk	-4542
etafel	-4543
liegen	-4544
menade	-4545
orange	-4546
orträt	-4547
statue	-4548
▁Alter	-4549
▁Beach	-4550
▁Draht	-4551
▁Durch	-4552
▁Feder	-4553
▁Flöte	-4554
▁Gehen	-4555
▁Hotel	-4556
▁Japan	-4557
▁Kontr	-4558
▁Kugel	-4559
▁Maler	-4560
▁Ozean	-4561
▁Snack	-4562
▁Türen	-4563
▁Wette	-4564
▁altes	-4565
▁knien	-4566
▁lernt	-4567
▁packt	-4568
▁prüft	-4569
▁schle	-4570
▁sowie	-4571
Station	-4572
Zeichen	-4573
gnügung	-4574
hobenen	-4575
ingpool	-4576
osition	-4577
schauen	-4578
spielen	-4579
station	-4580
▁Anweis	-4581
▁Banner	-4582
▁Hocker	-4583
▁Labork	-4584
▁Liefer	-4585
▁Mittel	-4586
▁Mützen	-4587
▁Namens	-4588
▁Riksch	-4589
▁Schach	-4590
▁Seilen	-4591
▁Turban	-4592
▁brauen	-4593
▁fertig	-4594
▁jubelt	-4595
▁kauert	-4596
▁marine	-4597
▁rechte	-4598
▁sauber	-4599
▁schwer	-4600
behälter	-4601
gebracht	-4602
wegungen	-4603
▁Friseur	-4604
▁Haltung	-4605
▁Hinterb	-4606
▁Händler	-4607
▁Papiere	-4608
▁Pitcher	-4609
▁Saxofon	-4610
▁Tribüne	-4611
▁Vortrag	-4612
▁Während	-4613
▁ansieht	-4614
▁besteht	-4615
▁dunklem	-4616
▁gebeugt	-4617
▁grillen	-4618
▁paddeln	-4619
▁reflekt	-4620
▁stehend	-4621
▁Anhänger	-4622
▁Golfball	-4623
▁Halstuch	-4624
▁Produkte	-4625
▁Sandwich	-4626
▁Telefonz	-4627
▁gemuster	-4628
▁klatscht	-4629
▁Dämmerung	-4630
▁Handschuh	-4631
▁Mülltonne	-4632
▁Werkstatt	-4633
▁geparkten	-4634
▁geschmink	-4635
wimmingpool	-4636
▁Badezimmer	-4637
▁Gesichtern	-4638
▁Kettensäge	-4639
▁Kunstwerke	-4640
▁Luftballon	-4641
▁Vergnügung	-4642
▁glänzenden	-4643
▁Bauarbeiten	-4644
▁Mitarbeiter	-4645
▁Plastiktüte	-4646
▁Spaziergang	-4647
▁Strickmütze	-4648
▁erwachsener	-4649
▁gestreiftes	-4650
▁langhaarige	-4651
▁vorbereitet	-4652
▁Inlineskates	-4653
▁Schwimmweste	-4654
▁gestikuliert	-4655
▁rosafarbener	-4656
▁unbefestigte	-4657
▁Tätowierungen	-4658
▁verheiratetes	-4659
▁Heißluftballon	-4660
▁Marathonläufer	-4661
▁traditionellen	-4662
▁Vergnügungspark	-4663
äb	-4664
üd	-4665
▁.	-4666
Hut	-4667
fig	-4668
häu	-4669
ieg	-4670
ike	-4671
ker	-4672
krä	-4673
kör	-4674
oga	-4675
ous	-4676
reg	-4677
rob	-4678
ron	-4679
sau	-4680
vie	-4681
xas	-4682
▁DJ	-4683
▁Py	-4684
▁Zw	-4685
▁te	-4686
alte	-4687
appt	-4688
beln	-4689
dunk	-4690
ello	-4691
ffiz	-4692
jung	-4693
legt	-4694
raur	-4695
strü	-4696
zune	-4697
ächt	-4698
ände	-4699
▁Asp	-4700
▁Bam	-4701
▁Bro	-4702
▁Fit	-4703
▁Mat	-4704
▁McD	-4705
▁Mün	-4706
▁Pon	-4707
▁Spe	-4708
▁Tee	-4709
▁USA	-4710
▁ans	-4711
▁bet	-4712
▁gek	-4713
▁ich	-4714
▁mod	-4715
▁trü	-4716
▁tut	-4717
▁umr	-4718
▁ung	-4719
allow	-4720
appen	-4721
blick	-4722
eiden	-4723
enken	-4724
feier	-4725
grill	-4726
horts	-4727
küche	-4728
nisse	-4729
obahn	-4730
unken	-4731
▁City	-4732
▁Eisw	-4733
▁Herz	-4734
▁Knei	-4735
▁Padd	-4736
▁Pink	-4737
▁Röhr	-4738
▁Töpf	-4739
▁hart	-4740
▁herr	-4741
▁pass	-4742
▁rück	-4743
▁trop	-4744
▁verm	-4745
▁warm	-4746
▁ziel	-4747
Kostüm	-4748
achter	-4749
arbiet	-4750
balken	-4751
becher	-4752
blauem	-4753
bungen	-4754
ession	-4755
estern	-4756
grauen	-4757
hammer	-4758
ienten	-4759
igiert	-4760
iziert	-4761
kasten	-4762
kuchen	-4763
rücken	-4764
stüten	-4765
uarter	-4766
ußball	-4767
weißes	-4768
üffelt	-4769
▁Banan	-4770
▁Biker	-4771
▁Bälle	-4772
▁Engel	-4773
▁Exper	-4774
▁Helme	-4775
▁Kante	-4776
▁Kasse	-4777
▁Kette	-4778
▁Köpfe	-4779
▁Möbel	-4780
▁Nebel	-4781
▁Sicht	-4782
▁Stahl	-4783
▁Welpe	-4784
▁aufzu	-4785
▁bräun	-4786
▁staub	-4787
▁watet	-4788
▁übers	-4789
angehör	-4790
brocken	-4791
gestrei	-4792
ierende	-4793
ständer	-4794
wehraut	-4795
öffnung	-4796
▁Bambus	-4797
▁Besitz	-4798
▁Booten	-4799
▁Gürtel	-4800
▁Inline	-4801
▁Junger	-4802
▁Klasse	-4803
▁Kragen	-4804
▁Passag	-4805
▁Perlen	-4806
▁Schafe	-4807
▁Schuss	-4808
▁Shirts	-4809
▁Ureinw	-4810
▁Werfer	-4811
▁gesäum	-4812
▁manche	-4813
▁putzen	-4814
▁suchen	-4815
▁türkis	-4816
▁verste	-4817
▁vorder	-4818
astanien	-4819
bereiten	-4820
derseite	-4821
farbigen	-4822
flugzeug	-4823
genommen	-4824
klettern	-4825
schlafen	-4826
zufangen	-4827
zunehmen	-4828
▁Asphalt	-4829
▁Cowboys	-4830
▁Dreirad	-4831
▁Fischen	-4832
▁Fliesen	-4833
▁Geräten	-4834
▁Knöpfen	-4835
▁Laptops	-4836
▁Strumpf	-4837
▁Stöcken	-4838
▁bedruck	-4839
▁fremden	-4840
▁gefleck	-4841
▁gehende	-4842
▁gemacht	-4843
▁kümmert	-4844
▁treiben	-4845
▁waschen	-4846
▁wirbelt	-4847
arbietung	-4848
asketball	-4849
bedeckten	-4850
ellschaft	-4851
schriften	-4852
spielerin	-4853
▁Autobahn	-4854
▁Bahnglei	-4855
▁Bewegung	-4856
▁Freundin	-4857
▁Holzbank	-4858
▁Laternen	-4859
▁McDonald	-4860
▁Pflaster	-4861
▁Schleife	-4862
▁Trommeln	-4863
▁Tänzerin	-4864
▁aufgerei	-4865
▁bemalten	-4866
▁interess	-4867
▁sandigen	-4868
▁schnitzt	-4869
▁serviert	-4870
ansammlung	-4871
▁Betonwand	-4872
▁Computern	-4873
▁Einkäufer	-4874
▁Konferenz	-4875
▁Schüsseln	-4876
▁Wassermel	-4877
▁angeboten	-4878
▁barfüßige	-4879
▁begeister	-4880
▁begleitet	-4881
▁beisammen	-4882
▁Asiatische	-4883
▁Breakdance	-4884
▁Brettspiel	-4885
▁Pfadfinder	-4886
▁Teilnehmer	-4887
▁Zahlreiche	-4888
▁aneinander	-4889
instrumenten	-4890
▁Badeanzügen	-4891
▁Bandmitglie	-4892
▁Krankenschw	-4893
▁Lieferwagen	-4894
▁Schneeanzug	-4895
▁Sprungbrett	-4896
▁Treppenhaus	-4897
▁Turnschuhen	-4898
▁Ureinwohner	-4899
▁Vorderseite	-4900
▁Waschbecken	-4901
▁aufgestellt	-4902
▁ausgestellt	-4903
▁flauschiger	-4904
▁gestreifter	-4905
▁herumstehen	-4906
▁spielerisch	-4907
▁verschneite	-4908
▁Geländewagen	-4909
▁Präsentation	-4910
▁Swimmingpool	-4911
▁Tarnkleidung	-4912
▁pinkfarbener	-4913
▁Footballspiel	-4914
▁Mountainbiker	-4915
▁Pferdeschwanz	-4916
▁Treppenstufen	-4917
▁braunhaariger	-4918
▁eingeschlafen	-4919
▁transportiert	-4920
▁Einkaufstasche	-4921
▁Feuerwehrleute	-4922
▁Trainingsanzug	-4923
▁schwarzhaarige	-4924
▁Beachvolleyball	-4925
▁Kapuzenpullover	-4926
bü	-4927
hm	-4928
rt	-4929
Aus	-4930
als	-4931
dre	-4932
ims	-4933
iss	-4934
ohl	-4935
oss	-4936
rib	-4937
skl	-4938
ube	-4939
wer	-4940
wol	-4941
äte	-4942
öst	-4943
▁Pa	-4944
▁Sl	-4945
▁pl	-4946
alde	-4947
arfe	-4948
denk	-4949
elig	-4950
esse	-4951
etze	-4952
fers	-4953
fert	-4954
heke	-4955
holz	-4956
iner	-4957
isse	-4958
kopf	-4959
ktem	-4960
laub	-4961
lust	-4962
mitt	-4963
nier	-4964
okal	-4965
riff	-4966
rosa	-4967
stet	-4968
vent	-4969
vers	-4970
ziel	-4971
ützt	-4972
▁App	-4973
▁Axt	-4974
▁Boo	-4975
▁Hab	-4976
▁Kie	-4977
▁Med	-4978
▁Mül	-4979
▁Reg	-4980
▁Sen	-4981
▁Zyl	-4982
▁erk	-4983
▁tie	-4984
▁tri	-4985
agger	-4986
annen	-4987
asier	-4988
auten	-4989
egten	-4990
endet	-4991
feuer	-4992
floch	-4993
front	-4994
heben	-4995
iefel	-4996
inten	-4997
maske	-4998
mäher	-4999
pfahl	-5000
rosse	-5001
ummel	-5002
xikan	-5003
ächer	-5004
üllen	-5005
▁Amer	-5006
▁Arzt	-5007
▁Auge	-5008
▁Beam	-5009
▁Bull	-5010
▁Dock	-5011
▁Garn	-5012
▁Hier	-5013
▁Horn	-5014
▁Jeep	-5015
▁John	-5016
▁Kauf	-5017
▁Lass	-5018
▁Legg	-5019
▁Matr	-5020
▁Obje	-5021
▁Ofen	-5022
▁Pizz	-5023
▁Plan	-5024
▁Post	-5025
▁Reis	-5026
▁Rode	-5027
▁Satt	-5028
▁Skil	-5029
▁Smok	-5030
▁Text	-5031
▁Toil	-5032
▁Vert	-5033
▁Wach	-5034
▁Woll	-5035
▁Zebr	-5036
▁berg	-5037
▁deut	-5038
▁einz	-5039
▁hohe	-5040
▁krat	-5041
▁rost	-5042
▁verw	-5043
▁weil	-5044
Outfit	-5045
ackelt	-5046
bereit	-5047
bürste	-5048
feuert	-5049
graben	-5050
ierung	-5051
ischem	-5052
karren	-5053
reiter	-5054
schnei	-5055
spannt	-5056
studio	-5057
vieren	-5058
werker	-5059
ärlich	-5060
üchern	-5061
▁Apfel	-5062
▁Babys	-5063
▁Boxer	-5064
▁China	-5065
▁Fecht	-5066
▁Kerle	-5067
▁Namen	-5068
▁Netze	-5069
▁Paare	-5070
▁Pfeil	-5071
▁Stunt	-5072
▁Tiere	-5073
▁Waffe	-5074
▁abgeb	-5075
▁daran	-5076
▁deren	-5077
▁diese	-5078
▁formt	-5079
▁gesen	-5080
▁hoher	-5081
▁indem	-5082
▁jeder	-5083
▁jewei	-5084
▁knall	-5085
▁kunst	-5086
▁ruhen	-5087
▁stößt	-5088
▁traur	-5089
▁würde	-5090
▁überw	-5091
bändern	-5092
eingang	-5093
konzert	-5094
projekt	-5095
springt	-5096
trägern	-5097
▁Clowns	-5098
▁Erzeug	-5099
▁Fabrik	-5100
▁Freude	-5101
▁Geschw	-5102
▁Karton	-5103
▁Katzen	-5104
▁Kürbis	-5105
▁Muster	-5106
▁Rahmen	-5107
▁Redner	-5108
▁Stöcke	-5109
▁Säulen	-5110
▁Tracht	-5111
▁Unfall	-5112
▁bietet	-5113
▁dritte	-5114
▁drückt	-5115
▁hochzu	-5116
▁klaren	-5117
▁kurzem	-5118
▁nasser	-5119
▁rudern	-5120
▁vergnü	-5121
Geschäft	-5122
onischen	-5123
sprecher	-5124
wehrauto	-5125
▁Bauwerk	-5126
▁Begriff	-5127
▁Bildern	-5128
▁Brillen	-5129
▁Einsatz	-5130
▁Felsvor	-5131
▁Früchte	-5132
▁Gläsern	-5133
▁Kaffeet	-5134
▁Nachbar	-5135
▁Plüscht	-5136
▁Rikscha	-5137
▁Scheibe	-5138
▁Schrift	-5139
▁Stammes	-5140
▁attrakt	-5141
▁bewalde	-5142
▁dritter	-5143
▁fischen	-5144
▁militär	-5145
▁oranger	-5146
▁sammeln	-5147
▁schwebt	-5148
▁unorden	-5149
▁verschw	-5150
dunkelten	-5151
schwimmen	-5152
▁Eiscreme	-5153
▁Erdhügel	-5154
▁Holzzaun	-5155
▁Händchen	-5156
▁Lacrosse	-5157
▁Overalls	-5158
▁Picknick	-5159
▁Rücksitz	-5160
▁Säugling	-5161
▁Webstuhl	-5162
▁Zylinder	-5163
▁fröhlich	-5164
▁gehender	-5165
▁verteilt	-5166
uarterback	-5167
▁Ballerina	-5168
▁Cheerlead	-5169
▁Eisenbahn	-5170
▁Holzboden	-5171
▁Karussell	-5172
▁Obststand	-5173
▁Schmetter	-5174
▁bekleidet	-5175
▁ebenfalls	-5176
▁gefüllten	-5177
▁kleineren	-5178
▁möglicher	-5179
▁passenden	-5180
▁rückwärts	-5181
▁schwingen	-5182
▁schütteln	-5183
▁seltsamen	-5184
▁streichen	-5185
▁örtlichen	-5186
▁Fußgängern	-5187
▁Landstraße	-5188
▁Schlagmann	-5189
▁Türöffnung	-5190
▁Untergrund	-5191
▁Ziegelwand	-5192
▁abgeworfen	-5193
▁bekleidete	-5194
▁gesprungen	-5195
▁männlichen	-5196
▁teilnehmen	-5197
mannschaften	-5198
▁Essensstand	-5199
▁Hockeyspiel	-5200
▁Kleinkinder	-5201
▁Laborkittel	-5202
▁Wasserspren	-5203
▁bekleideter	-5204
▁geschnitten	-5205
▁hellhäutige	-5206
▁japanischen	-5207
▁leuchtenden	-5208
▁präsentiert	-5209
▁Fußballdress	-5210
▁Gegenständen	-5211
▁Jugendlichen	-5212
▁Lebensmitteln	-5213
▁Schneeschuhen	-5214
▁Wasserrutsche	-5215
▁langärmeligen	-5216
▁orientalische	-5217
▁möglicherweise	-5218
▁silberfarbenen	-5219
▁ungewöhnlichen	-5220
▁Irokesenschnitt	-5221
▁übergewichtiger	-5222
bu	-5223
mo	-5224
ou	-5225
ph	-5226
zw	-5227
gef	-5228
hel	-5229
ins	-5230
inz	-5231
ips	-5232
isp	-5233
urz	-5234
wür	-5235
öck	-5236
üge	-5237
▁Ma	-5238
▁ex	-5239
▁ol	-5240
▁vö	-5241
Derb	-5242
anad	-5243
arte	-5244
betr	-5245
cont	-5246
digt	-5247
eide	-5248
emen	-5249
iene	-5250
ital	-5251
lech	-5252
llig	-5253
odie	-5254
oriz	-5255
part	-5256
schr	-5257
seil	-5258
udel	-5259
udio	-5260
ynch	-5261
ücke	-5262
▁Bla	-5263
▁Del	-5264
▁Fle	-5265
▁Hör	-5266
▁Kit	-5267
▁Mön	-5268
▁Pir	-5269
▁Zus	-5270
▁sto	-5271
▁zug	-5272
Derby	-5273
adung	-5274
asken	-5275
elzen	-5276
ertag	-5277
geben	-5278
genen	-5279
hause	-5280
iften	-5281
igten	-5282
inner	-5283
istor	-5284
ochen	-5285
offen	-5286
onnen	-5287
pferd	-5288
robat	-5289
schüt	-5290
ssaal	-5291
ührer	-5292
▁Acht	-5293
▁Eier	-5294
▁Ente	-5295
▁Esst	-5296
▁Farb	-5297
▁Flip	-5298
▁Font	-5299
▁Heim	-5300
▁Herk	-5301
▁Kühl	-5302
▁Pull	-5303
▁Rast	-5304
▁Sieg	-5305
▁Temp	-5306
▁Turm	-5307
▁burg	-5308
▁einf	-5309
▁gesp	-5310
▁krab	-5311
▁park	-5312
▁rund	-5313
▁tags	-5314
▁trot	-5315
alerie	-5316
blickt	-5317
garten	-5318
gelegt	-5319
gitter	-5320
iedens	-5321
iniert	-5322
jacken	-5323
kräfte	-5324
leimer	-5325
ocknet	-5326
reicht	-5327
sauger	-5328
schiff	-5329
schung	-5330
strauß	-5331
unifor	-5332
wander	-5333
▁Armee	-5334
▁Banjo	-5335
▁Drink	-5336
▁Gummi	-5337
▁Herrn	-5338
▁Inder	-5339
▁Lampe	-5340
▁Lasso	-5341
▁Paras	-5342
▁Profi	-5343
▁Puppe	-5344
▁Richt	-5345
▁Sprüh	-5346
▁Stern	-5347
▁Säule	-5348
▁Trink	-5349
▁boxen	-5350
▁filmt	-5351
▁kurze	-5352
▁ließt	-5353
▁moder	-5354
▁späht	-5355
▁stolz	-5356
▁verbr	-5357
Scheibe	-5358
fernung	-5359
gläsern	-5360
leitung	-5361
orizont	-5362
paratur	-5363
steiger	-5364
stellen	-5365
viertel	-5366
▁Aufzug	-5367
▁Bootes	-5368
▁Bruder	-5369
▁Eimern	-5370
▁Fische	-5371
▁Frisur	-5372
▁Glatze	-5373
▁Gleich	-5374
▁Hallen	-5375
▁Hambur	-5376
▁Hunder	-5377
▁Körben	-5378
▁Lampen	-5379
▁Obdach	-5380
▁Partie	-5381
▁Schaum	-5382
▁Schnei	-5383
▁Schnur	-5384
▁Schutt	-5385
▁Sessel	-5386
▁Speise	-5387
▁Wolken	-5388
▁erhält	-5389
▁fischt	-5390
▁histor	-5391
▁kratzt	-5392
▁mischt	-5393
▁namens	-5394
▁oberen	-5395
▁regner	-5396
▁steile	-5397
▁strahl	-5398
▁trifft	-5399
▁öffent	-5400
Kleidung	-5401
flaschen	-5402
flochten	-5403
schüssel	-5404
▁Billard	-5405
▁College	-5406
▁Gleisen	-5407
▁Kickbox	-5408
▁Kostüme	-5409
▁Pflanze	-5410
▁Porträt	-5411
▁Rennens	-5412
▁Scheinw	-5413
▁Schneem	-5414
▁Stelzen	-5415
▁Strands	-5416
▁Streich	-5417
▁Tomaten	-5418
▁Verteid	-5419
▁blocken	-5420
▁einiger	-5421
▁gefolgt	-5422
▁gesehen	-5423
▁löschen	-5424
▁medizin	-5425
▁meisten	-5426
▁schneit	-5427
▁verschr	-5428
▁zurecht	-5429
▁überall	-5430
ffentlich	-5431
spielzeug	-5432
uniformen	-5433
zeichnung	-5434
▁Fenstern	-5435
▁Friedens	-5436
▁Herkunft	-5437
▁Leggings	-5438
▁Leinwand	-5439
▁Schürzen	-5440
▁Zusammen	-5441
▁amüsiert	-5442
▁gefangen	-5443
▁größeren	-5444
▁jüngerer	-5445
▁rutschen	-5446
▁schminkt	-5447
▁schützen	-5448
▁seichten	-5449
▁spärlich	-5450
▁strecken	-5451
▁tagsüber	-5452
▁vergnügt	-5453
▁Feuerwerk	-5454
▁Halskette	-5455
▁Hamburger	-5456
▁Maschinen	-5457
▁Mülleimer	-5458
▁Patienten	-5459
▁Rückseite	-5460
▁Schaulust	-5461
▁Segelboot	-5462
▁Stromschn	-5463
▁Transport	-5464
▁Ziellinie	-5465
▁aufgeregt	-5466
▁burgunder	-5467
▁erklimmen	-5468
▁erreichen	-5469
▁formeller	-5470
▁kastanien	-5471
▁liegenden	-5472
▁mittelgro	-5473
▁niedrigen	-5474
▁staubigen	-5475
▁verbunden	-5476
▁verwenden	-5477
ausstellung	-5478
▁Darbietung	-5479
▁Entfernung	-5480
▁Experiment	-5481
▁Handschuhe	-5482
▁Klappstuhl	-5483
▁Lagerfeuer	-5484
▁Motorhaube	-5485
▁Richtungen	-5486
▁abgebildet	-5487
▁abgestellt	-5488
▁angebracht	-5489
▁aufgereiht	-5490
▁bewaldeten	-5491
▁fliegenden	-5492
▁lächelnden	-5493
▁männliches	-5494
▁schlendert	-5495
▁Ausstellung	-5496
▁Bauernmarkt	-5497
▁Bergsteiger	-5498
▁Erzeugnisse	-5499
▁Fahrradhelm	-5500
▁Gitarristen	-5501
▁Schulkinder	-5502
▁Straßenfest	-5503
▁Unterwäsche	-5504
▁Vorrichtung	-5505
▁aussehendes	-5506
ffentlichkeit	-5507
▁Freizeitpark	-5508
▁Hinterbeinen	-5509
▁Namensschild	-5510
▁Schlauchboot	-5511
▁blondhaarige	-5512
▁festgebunden	-5513
▁regnerischen	-5514
▁unterrichtet	-5515
▁wunderschöne	-5516
▁Straßenrennen	-5517
▁Ziegelsteinen	-5518
▁afrikanischen	-5519
▁Schutzkleidung	-5520
▁unordentlichen	-5521
▁schneebedecktes	-5522
iö	-5523
ls	-5524
nä	-5525
rm	-5526
uf	-5527
wa	-5528
▁,	-5529
▁c	-5530
ata	-5531
cre	-5532
ebe	-5533
frü	-5534
ish	-5535
itu	-5536
kle	-5537
mor	-5538
mpf	-5539
sol	-5540
tür	-5541
uhr	-5542
uld	-5543
ump	-5544
upp	-5545
uth	-5546
zus	-5547
ült	-5548
▁Et	-5549
▁du	-5550
▁fe	-5551
▁iP	-5552
▁mü	-5553
▁of	-5554
Team	-5555
abel	-5556
allt	-5557
aupt	-5558
awai	-5559
club	-5560
dukt	-5561
eife	-5562
eist	-5563
fält	-5564
gabe	-5565
ging	-5566
hack	-5567
hoch	-5568
horn	-5569
hren	-5570
imer	-5571
inos	-5572
ipfl	-5573
keln	-5574
lepp	-5575
lose	-5576
lück	-5577
mart	-5578
okol	-5579
onne	-5580
raft	-5581
ring	-5582
roll	-5583
saal	-5584
show	-5585
stab	-5586
tens	-5587
uert	-5588
uhen	-5589
zelt	-5590
ägen	-5591
ätte	-5592
ünen	-5593
▁Ang	-5594
▁Aqu	-5595
▁Con	-5596
▁Des	-5597
▁Gok	-5598
▁Lin	-5599
▁Old	-5600
▁Sub	-5601
▁Tim	-5602
▁Top	-5603
▁Wer	-5604
▁blü	-5605
▁bzw	-5606
▁bür	-5607
▁lau	-5608
apelt	-5609
armon	-5610
auber	-5611
blase	-5612
chsen	-5613
digen	-5614
eiter	-5615
gaben	-5616
gramm	-5617
griff	-5618
hunde	-5619
hörer	-5620
hütte	-5621
iesen	-5622
ilien	-5623
kater	-5624
kohol	-5625
kunft	-5626
lampe	-5627
maler	-5628
onder	-5629
pfleg	-5630
punkt	-5631
ragen	-5632
raten	-5633
schür	-5634
stall	-5635
ucher	-5636
wolke	-5637
ägers	-5638
ämmen	-5639
ärmen	-5640
ündet	-5641
ürden	-5642
▁Blas	-5643
▁Grau	-5644
▁Kilt	-5645
▁Lade	-5646
▁Papp	-5647
▁Rosa	-5648
▁Wart	-5649
▁buck	-5650
▁drib	-5651
▁fein	-5652
▁förm	-5653
▁gedr	-5654
▁grin	-5655
▁lust	-5656
▁mäht	-5657
▁wahr	-5658
▁wett	-5659
▁zahl	-5660
Trikot	-5661
ammert	-5662
blauer	-5663
bäumen	-5664
eligiö	-5665
gelber	-5666
gestür	-5667
gnügen	-5668
mützen	-5669
objekt	-5670
putzer	-5671
rochen	-5672
shorts	-5673
spielt	-5674
staben	-5675
tragen	-5676
utaten	-5677
utscht	-5678
werfen	-5679
äbchen	-5680
▁Akten	-5681
▁Ampel	-5682
▁Badem	-5683
▁Blech	-5684
▁Board	-5685
▁Cello	-5686
▁Fahrg	-5687
▁Glast	-5688
▁Hause	-5689
▁Inter	-5690
▁Kraft	-5691
▁Käfig	-5692
▁Lokal	-5693
▁Notiz	-5694
▁Pizza	-5695
▁Plate	-5696
▁Pullo	-5697
▁Rosen	-5698
▁Röhre	-5699
▁Texas	-5700
▁Zauns	-5701
▁Zeich	-5702
▁akust	-5703
▁beten	-5704
▁betet	-5705
▁darin	-5706
▁eigen	-5707
▁fasst	-5708
▁flach	-5709
▁hohes	-5710
▁holen	-5711
▁platz	-5712
▁sicht	-5713
▁türki	-5714
dachten	-5715
ipflops	-5716
schluss	-5717
verkehr	-5718
ynchron	-5719
▁Basken	-5720
▁Bildes	-5721
▁Blasen	-5722
▁Bäcker	-5723
▁Dunkel	-5724
▁Europa	-5725
▁Fliege	-5726
▁Gipfel	-5727
▁Gokart	-5728
▁Großer	-5729
▁Hallow	-5730
▁Hoodie	-5731
▁Häuser	-5732
▁Imbiss	-5733
▁Kneipe	-5734
▁Morgen	-5735
▁Platte	-5736
▁Sattel	-5737
▁Schieß	-5738
▁Sommer	-5739
▁Stativ	-5740
▁Wetter	-5741
▁Zelten	-5742
▁beißen	-5743
▁bindet	-5744
▁dicken	-5745
▁diesen	-5746
▁folgen	-5747
▁freien	-5748
▁füllen	-5749
▁heller	-5750
▁hervor	-5751
▁lernen	-5752
▁muskul	-5753
▁sieben	-5754
▁sonnen	-5755
▁spring	-5756
▁stürzt	-5757
▁verwir	-5758
▁völlig	-5759
▁warmen	-5760
▁wieder	-5761
Football	-5762
fallenen	-5763
ierenden	-5764
kommenen	-5765
pielzeug	-5766
▁Camping	-5767
▁Figuren	-5768
▁Flusses	-5769
▁Flügeln	-5770
▁Gericht	-5771
▁Jogging	-5772
▁Kartons	-5773
▁Pferder	-5774
▁Schokol	-5775
▁Station	-5776
▁Student	-5777
▁anhaben	-5778
▁ansehen	-5779
▁ausländ	-5780
▁besucht	-5781
▁breiten	-5782
▁hübsche	-5783
▁jeweils	-5784
▁schützt	-5785
▁umringt	-5786
▁unglück	-5787
▁unteren	-5788
▁ähnlich	-5789
container	-5790
eisterung	-5791
handschuh	-5792
indigkeit	-5793
wettkampf	-5794
ähnlichen	-5795
▁Aufnahme	-5796
▁Eiswagen	-5797
▁Familien	-5798
▁Horizont	-5799
▁Karohemd	-5800
▁Laufbahn	-5801
▁Läuferin	-5802
▁Mitglied	-5803
▁Parcours	-5804
▁Sandburg	-5805
▁bedienen	-5806
▁beginnen	-5807
▁betreten	-5808
▁dahinter	-5809
▁dieselbe	-5810
▁dribbelt	-5811
▁gelangen	-5812
▁gespannt	-5813
▁getragen	-5814
▁hübschen	-5815
▁passiert	-5816
▁spaziert	-5817
▁spritzen	-5818
▁vorführt	-5819
▁weiteren	-5820
▁ärmellos	-5821
Basketball	-5822
rennfahrer	-5823
scheinlich	-5824
wettbewerb	-5825
▁Arbeitern	-5826
▁Fahrzeuge	-5827
▁Flipflops	-5828
▁Flussufer	-5829
▁Großstadt	-5830
▁Halloween	-5831
▁Hochstuhl	-5832
▁Kleidungs	-5833
▁Projektor	-5834
▁Pullunder	-5835
▁Schachtel	-5836
▁Wakeboard	-5837
▁bestellen	-5838
▁entfernen	-5839
▁erhobenen	-5840
▁getroffen	-5841
▁schaukeln	-5842
▁trockenen	-5843
▁vergnügen	-5844
▁verschrän	-5845
▁Betrachter	-5846
▁Buchstaben	-5847
▁Oberfläche	-5848
▁Plüschtier	-5849
▁Regenbogen	-5850
▁Tanzfläche	-5851
▁Vorführung	-5852
▁Zahnbürste	-5853
▁angehalten	-5854
▁attraktive	-5855
▁ausgezogen	-5856
▁bedruckten	-5857
▁befahrenen	-5858
▁beleuchtet	-5859
▁geflochten	-5860
▁tätowierte	-5861
▁verzierten	-5862
▁überprüfen	-5863
▁Anweisungen	-5864
▁Baskenmütze	-5865
▁Felsbrocken	-5866
▁Fischernetz	-5867
▁Kopfschmuck	-5868
▁Musikgruppe	-5869
▁Nachrichten	-5870
▁Rasenfläche	-5871
▁Regenmantel	-5872
▁Skateboards	-5873
▁Spiegelbild	-5874
▁Steintreppe	-5875
▁Tennisplatz	-5876
▁Verteidiger	-5877
▁angezogener	-5878
▁mittelalter	-5879
▁protestiert	-5880
▁schlammigen	-5881
▁Außenbereich	-5882
▁Begeisterung	-5883
▁Konstruktion	-5884
▁Neugeborenes	-5885
▁Reklametafel	-5886
▁Scheinwerfer	-5887
▁Straßenseite	-5888
▁Straßenszene	-5889
▁Telefonzelle	-5890
▁Wasserbecken	-5891
▁Wasserfläche	-5892
▁elektrischen	-5893
▁erleuchteten	-5894
▁gepflasterte	-5895
▁heraushängen	-5896
▁orientalisch	-5897
▁wissenschaft	-5898
▁Einkaufstüten	-5899
▁Felsvorsprung	-5900
▁Feuerwehrauto	-5901
▁Fußballtrikot	-5902
▁Kampfsportler	-5903
▁Nachbarschaft	-5904
▁Verkaufsstand	-5905
▁Zeitschriften	-5906
▁uniformierter	-5907
▁Berglandschaft	-5908
▁Straßenmusiker	-5909
▁Stromschnellen	-5910
▁amerikanischer	-5911
▁elektronischen	-5912
▁orangefarbenes	-5913
▁schneebedeckte	-5914
▁Geschwindigkeit	-5915
▁Straßenarbeiter	-5916
An	-5917
asz	-5918
bie	-5919
bär	-5920
ddy	-5921
fol	-5922
hat	-5923
hte	-5924
ieh	-5925
ipe	-5926
kas	-5927
ogo	-5928
oly	-5929
sem	-5930
set	-5931
wel	-5932
ydr	-5933
yer	-5934
zur	-5935
äck	-5936
ärb	-5937
ügt	-5938
ütz	-5939
▁OP	-5940
▁me	-5941
▁we	-5942
Band	-5943
adet	-5944
aken	-5945
arin	-5946
deln	-5947
dent	-5948
dose	-5949
enga	-5950
enzt	-5951
erkl	-5952
flip	-5953
gibt	-5954
girl	-5955
gnis	-5956
grün	-5957
gurt	-5958
hebt	-5959
ider	-5960
ierc	-5961
iken	-5962
inis	-5963
inke	-5964
isst	-5965
itor	-5966
nach	-5967
ogie	-5968
orch	-5969
orte	-5970
oter	-5971
paar	-5972
stem	-5973
szug	-5974
vern	-5975
view	-5976
wend	-5977
will	-5978
wirt	-5979
zone	-5980
äcke	-5981
äden	-5982
öser	-5983
▁Car	-5984
▁Dig	-5985
▁Dom	-5986
▁Jet	-5987
▁Kok	-5988
▁Kul	-5989
▁Mil	-5990
▁Nad	-5991
▁Pop	-5992
▁Sar	-5993
▁Squ	-5994
▁Zer	-5995
▁ang	-5996
▁beh	-5997
▁eng	-5998
▁ern	-5999
▁fal	-6000
▁kap	-6001
▁loh	-6002
▁los	-6003
▁men	-6004
▁ska	-6005
▁the	-6006
▁tun	-6007
▁uns	-6008
▁wel	-6009
Flops	-6010
apier	-6011
aster	-6012
blaue	-6013
bluse	-6014
bühne	-6015
dustr	-6016
egelt	-6017
ehren	-6018
eimer	-6019
eindr	-6020
einig	-6021
eisen	-6022
endem	-6023
farbe	-6024
kommt	-6025
lings	-6026
losen	-6027
ltere	-6028
mpfen	-6029
opoly	-6030
orten	-6031
persp	-6032
roren	-6033
stens	-6034
teile	-6035
timer	-6036
tromm	-6037
ubsch	-6038
uktur	-6039
ungsk	-6040
ätzen	-6041
▁Bark	-6042
▁Best	-6043
▁Chef	-6044
▁Dose	-6045
▁Fang	-6046
▁Filz	-6047
▁Form	-6048
▁Gurt	-6049
▁Halb	-6050
▁Huhn	-6051
▁Hüpf	-6052
▁Konf	-6053
▁Latz	-6054
▁Leit	-6055
▁Mopp	-6056
▁Pelz	-6057
▁Stil	-6058
▁Them	-6059
▁Volk	-6060
▁bast	-6061
▁erle	-6062
▁fasz	-6063
▁fern	-6064
▁lack	-6065
▁lädt	-6066
▁meiß	-6067
▁muss	-6068
▁raus	-6069
▁seit	-6070
▁stür	-6071
▁sägt	-6072
▁zerr	-6073
ailing	-6074
athlet	-6075
aufger	-6076
bällen	-6077
ektive	-6078
emonie	-6079
espiel	-6080
itteln	-6081
itzern	-6082
klasse	-6083
mittag	-6084
nungen	-6085
platte	-6086
rahmen	-6087
rauber	-6088
rieben	-6089
schlie	-6090
schuss	-6091
swagen	-6092
treide	-6093
ummern	-6094
wärtss	-6095
ämpfer	-6096
ückten	-6097
▁Blask	-6098
▁Grund	-6099
▁Halle	-6100
▁Hüfte	-6101
▁Jenga	-6102
▁Limon	-6103
▁Nagel	-6104
▁Neben	-6105
▁Osten	-6106
▁Peace	-6107
▁Pilot	-6108
▁Smart	-6109
▁Taube	-6110
▁Teddy	-6111
▁Tüten	-6112
▁Wippe	-6113
▁auszu	-6114
▁denkt	-6115
▁gehol	-6116
▁hackt	-6117
▁hohem	-6118
▁kanad	-6119
▁passt	-6120
▁regen	-6121
▁ruhig	-6122
▁rührt	-6123
▁saugt	-6124
▁tromm	-6125
ansicht	-6126
ationen	-6127
elmarkt	-6128
erwatte	-6129
fahrrad	-6130
fession	-6131
flügeln	-6132
gematte	-6133
geräten	-6134
inosaur	-6135
pfosten	-6136
sichtig	-6137
striert	-6138
uscheln	-6139
utschen	-6140
verkauf	-6141
ylophon	-6142
▁Absatz	-6143
▁Anzahl	-6144
▁Batman	-6145
▁Blazer	-6146
▁Busses	-6147
▁Bündel	-6148
▁Fackel	-6149
▁Felskl	-6150
▁Fächer	-6151
▁Garage	-6152
▁Graben	-6153
▁Handys	-6154
▁Holzst	-6155
▁Indien	-6156
▁Jogger	-6157
▁Labrad	-6158
▁Laster	-6159
▁Leucht	-6160
▁Marmor	-6161
▁Ozeans	-6162
▁Pfanne	-6163
▁Puppen	-6164
▁Rasier	-6165
▁Reihen	-6166
▁Schrei	-6167
▁Schwer	-6168
▁Street	-6169
▁Studio	-6170
▁Tempel	-6171
▁Versch	-6172
▁Vögeln	-6173
▁Weißer	-6174
▁Ziegen	-6175
▁aufges	-6176
▁befind	-6177
▁besprü	-6178
▁beteil	-6179
▁blockt	-6180
▁bocken	-6181
▁eingew	-6182
▁hinweg	-6183
▁hocken	-6184
▁hüpfen	-6185
▁indian	-6186
▁kostüm	-6187
▁kämpft	-6188
▁möchte	-6189
▁schlei	-6190
▁skatet	-6191
▁soeben	-6192
▁sprüht	-6193
▁wettei	-6194
▁zuhört	-6195
▁öffnen	-6196
armonika	-6197
bewegung	-6198
klettert	-6199
kostümen	-6200
kreuzten	-6201
ospieler	-6202
parcours	-6203
schienen	-6204
spielern	-6205
springer	-6206
stiefeln	-6207
struktur	-6208
traktion	-6209
ydranten	-6210
zeichnet	-6211
▁Auslage	-6212
▁Bananen	-6213
▁Fontäne	-6214
▁Industr	-6215
▁Jockeys	-6216
▁Kameram	-6217
▁Kartoff	-6218
▁Papiert	-6219
▁Pferdes	-6220
▁Pistole	-6221
▁Platten	-6222
▁Produkt	-6223
▁Rollers	-6224
▁Smoking	-6225
▁Staffel	-6226
▁Stiefel	-6227
▁Tourist	-6228
▁Univers	-6229
▁Walmart	-6230
▁Wildnis	-6231
▁Zigarre	-6232
▁Zutaten	-6233
▁beeindr	-6234
▁brechen	-6235
▁bürstet	-6236
▁darüber	-6237
▁dritten	-6238
▁einheim	-6239
▁legerer	-6240
▁meißelt	-6241
▁mexikan	-6242
▁richten	-6243
▁schöner	-6244
geschäfts	-6245
liegenden	-6246
schützern	-6247
▁Esstisch	-6248
▁Forscher	-6249
▁Fotograp	-6250
▁Gehstock	-6251
▁Kaufhaus	-6252
▁Laufband	-6253
▁Monopoly	-6254
▁Musikern	-6255
▁Oldtimer	-6256
▁Polohemd	-6257
▁Schlucht	-6258
▁Stabhoch	-6259
▁Wachmann	-6260
▁Wettlauf	-6261
▁angemalt	-6262
▁einsamen	-6263
▁einzelne	-6264
▁erklimmt	-6265
▁frischem	-6266
▁gefallen	-6267
▁gefroren	-6268
▁gespielt	-6269
▁gewinnen	-6270
▁hochhack	-6271
▁krabbelt	-6272
▁lachende	-6273
▁probiert	-6274
▁rostigen	-6275
▁schlecht	-6276
▁schmalen	-6277
▁schnappt	-6278
▁silberne	-6279
▁unaufger	-6280
▁unbekann	-6281
▁vorderen	-6282
▁weiterer	-6283
bewegungen	-6284
gestellten	-6285
gestürzten	-6286
▁Brautjung	-6287
▁Fernseher	-6288
▁Flugzeugs	-6289
▁Kopfstein	-6290
▁Randstein	-6291
▁Reparatur	-6292
▁Ringkampf	-6293
▁Sandhügel	-6294
▁Smartphon	-6295
▁Sommertag	-6296
▁Stadtpark	-6297
▁Steinbank	-6298
▁Teenagern	-6299
▁Unterhemd	-6300
▁Windhunde	-6301
▁Wollmütze	-6302
▁Zeremonie	-6303
▁Ziegelbau	-6304
▁anzusehen	-6305
▁bestehend	-6306
▁bockenden	-6307
▁brennende	-6308
▁dekoriert	-6309
▁faulenzen	-6310
▁gelegenen	-6311
▁rosaroten	-6312
▁schaufeln	-6313
▁schwenken	-6314
▁umgebenen	-6315
▁umzäunten	-6316
formationen	-6317
perspektive	-6318
ubschrauber	-6319
vorrichtung	-6320
▁Absperrung	-6321
▁Baumstumpf	-6322
▁Betonmauer	-6323
▁Dunkelheit	-6324
▁Fahrzeugen	-6325
▁Feldhockey	-6326
▁Grünfläche	-6327
▁Hängematte	-6328
▁Ladefläche	-6329
▁Mitspieler	-6330
▁Passagiere	-6331
▁Schachteln	-6332
▁Schneeball	-6333
▁Sporthalle	-6334
▁Supermarkt	-6335
▁angezogene	-6336
▁barfüßiger	-6337
▁begeistert	-6338
▁brennenden	-6339
▁gefleckter	-6340
▁geschlagen	-6341
▁geschmückt	-6342
▁hellgrünen	-6343
▁kompletter	-6344
▁muskulöser	-6345
▁schnüffelt	-6346
▁vorsichtig	-6347
▁Blaskapelle	-6348
▁Feuerstelle	-6349
▁Gesichtsaus	-6350
▁Jeansshorts	-6351
▁Kajakfahrer	-6352
▁Olympischen	-6353
▁Parasailing	-6354
▁Seifenblase	-6355
▁Sonnenlicht	-6356
▁Spielsachen	-6357
▁Staubsauger	-6358
▁Strumpfhose	-6359
▁Verschieden	-6360
▁Zuckerwatte	-6361
▁aufblasbare	-6362
▁aufeinander	-6363
▁aufgenommen	-6364
▁chinesische	-6365
▁irgendeinem	-6366
▁irgendeiner	-6367
▁rothaariger	-6368
▁Baseballfeld	-6369
▁Hosenträgern	-6370
▁Metallstange	-6371
▁Rugbyspieler	-6372
▁Schlafzimmer	-6373
▁Unterhaltung	-6374
▁altmodischen	-6375
▁eingewickelt	-6376
▁mehrfarbigen	-6377
▁telefonieren	-6378
orangefarbenen	-6379
▁Demonstranten	-6380
▁Demonstration	-6381
▁Geldautomaten	-6382
▁Gleichgewicht	-6383
▁Müllcontainer	-6384
▁Waschmaschine	-6385
▁Ziegelgebäude	-6386
▁verschränkten	-6387
▁Backsteinmauer	-6388
▁Wassersprenger	-6389
▁ausgeschnitten	-6390
▁orientalischer	-6391
▁unaufgeräumten	-6392
▁Backsteinstraße	-6393
▁Kopfbedeckungen	-6394
▁Motocrossfahrer	-6395
▁Musikinstrument	-6396
▁heraushängender	-6397
BH	-6398
Bo	-6399
CE	-6400
MS	-6401
Un	-6402
ca	-6403
kä	-6404
mö	-6405
pl	-6406
po	-6407
vr	-6408
ye	-6409
ash	-6410
ble	-6411
caf	-6412
eck	-6413
eis	-6414
fäl	-6415
get	-6416
hol	-6417
hrt	-6418
hän	-6419
ica	-6420
lex	-6421
ney	-6422
opp	-6423
pla	-6424
rid	-6425
tra	-6426
upf	-6427
ute	-6428
zie	-6429
övr	-6430
üle	-6431
▁Cr	-6432
▁Fu	-6433
▁Ru	-6434
▁Wa	-6435
▁eu	-6436
Fest	-6437
Park	-6438
Wett	-6439
alat	-6440
anzt	-6441
brot	-6442
dest	-6443
egte	-6444
ende	-6445
enen	-6446
eter	-6447
etti	-6448
frau	-6449
halm	-6450
hedr	-6451
iegs	-6452
ikel	-6453
imon	-6454
isur	-6455
izen	-6456
kost	-6457
loch	-6458
mark	-6459
nähe	-6460
orgt	-6461
pert	-6462
plan	-6463
pult	-6464
ragt	-6465
rami	-6466
rauf	-6467
ropä	-6468
spur	-6469
tete	-6470
uell	-6471
wohl	-6472
äter	-6473
üler	-6474
▁Bur	-6475
▁Com	-6476
▁End	-6477
▁Fir	-6478
▁Ged	-6479
▁Gän	-6480
▁Ich	-6481
▁Ihr	-6482
▁Kom	-6483
▁Mus	-6484
▁Män	-6485
▁Ord	-6486
▁Pok	-6487
▁Pul	-6488
▁Ser	-6489
▁Tut	-6490
▁Wir	-6491
▁ant	-6492
▁lok	-6493
▁org	-6494
Wagen	-6495
allye	-6496
arium	-6497
blatt	-6498
chnik	-6499
dreht	-6500
eeper	-6501
einer	-6502
essel	-6503
gress	-6504
grube	-6505
hohen	-6506
hängt	-6507
iffen	-6508
ispan	-6509
katen	-6510
kröte	-6511
later	-6512
leger	-6513
ollie	-6514
pfeln	-6515
puppe	-6516
regal	-6517
roter	-6518
troll	-6519
udeln	-6520
uller	-6521
ungsm	-6522
weder	-6523
zeria	-6524
ärger	-6525
▁Abst	-6526
▁Blut	-6527
▁Body	-6528
▁Bong	-6529
▁Brau	-6530
▁Bron	-6531
▁Coca	-6532
▁Elmo	-6533
▁Erei	-6534
▁Food	-6535
▁Früh	-6536
▁Glet	-6537
▁Haut	-6538
▁Kamm	-6539
▁Kinn	-6540
▁Kuss	-6541
▁Käse	-6542
▁Laut	-6543
▁Lenk	-6544
▁Leop	-6545
▁Neon	-6546
▁Papa	-6547
▁Popc	-6548
▁Pult	-6549
▁Seni	-6550
▁Sims	-6551
▁Skim	-6552
▁Säge	-6553
▁Tüte	-6554
▁Zitr	-6555
▁bequ	-6556
▁brät	-6557
▁budd	-6558
▁ethn	-6559
▁heim	-6560
▁iPod	-6561
▁krie	-6562
▁nied	-6563
▁patr	-6564
▁wenn	-6565
▁wäre	-6566
▁zuzu	-6567
abteil	-6568
affeln	-6569
askott	-6570
blaues	-6571
blumen	-6572
bläser	-6573
bricht	-6574
dianer	-6575
ellern	-6576
etzter	-6577
führer	-6578
gegend	-6579
grüner	-6580
hüpfen	-6581
iellen	-6582
ierend	-6583
inchen	-6584
itäten	-6585
karten	-6586
ketten	-6587
körben	-6588
lassen	-6589
nummer	-6590
olster	-6591
rauben	-6592
school	-6593
steckt	-6594
storte	-6595
treten	-6596
änzern	-6597
▁Apple	-6598
▁Bades	-6599
▁Block	-6600
▁Boote	-6601
▁Dekor	-6602
▁Dosen	-6603
▁Enten	-6604
▁Geste	-6605
▁Hasen	-6606
▁Hawai	-6607
▁Kabel	-6608
▁Kanus	-6609
▁Knien	-6610
▁Löwen	-6611
▁Möwen	-6612
▁Nahen	-6613
▁Offiz	-6614
▁Paket	-6615
▁Palme	-6616
▁Reise	-6617
▁Spinn	-6618
▁Spitz	-6619
▁Spüle	-6620
▁Tages	-6621
▁Tiger	-6622
▁Times	-6623
▁Trock	-6624
▁Ufers	-6625
▁Umhän	-6626
▁Wanne	-6627
▁Warte	-6628
▁Werbe	-6629
▁Wände	-6630
▁Zelte	-6631
▁Ziege	-6632
▁aller	-6633
▁anzug	-6634
▁beauf	-6635
▁breit	-6636
▁creme	-6637
▁erhöh	-6638
▁genau	-6639
▁inner	-6640
▁keine	-6641
▁leben	-6642
▁linke	-6643
▁mobil	-6644
▁neuen	-6645
▁richt	-6646
▁teilt	-6647
▁tippt	-6648
▁umgek	-6649
▁voran	-6650
▁zielt	-6651
Fußball	-6652
alteten	-6653
aterial	-6654
ational	-6655
boarden	-6656
eichtem	-6657
galerie	-6658
gruppen	-6659
malerei	-6660
mädchen	-6661
oreiter	-6662
ostümen	-6663
schnell	-6664
stöcken	-6665
stücken	-6666
übungen	-6667
▁Aufnah	-6668
▁Bagger	-6669
▁Beginn	-6670
▁Beutel	-6671
▁Chines	-6672
▁Domino	-6673
▁Einzel	-6674
▁Fangen	-6675
▁Fitnes	-6676
▁Habsel	-6677
▁Herzen	-6678
▁Hängeb	-6679
▁Kabeln	-6680
▁Kabine	-6681
▁Kajaks	-6682
▁Können	-6683
▁Küsten	-6684
▁Ladens	-6685
▁Leicht	-6686
▁Ochsen	-6687
▁Pfeife	-6688
▁Pinsel	-6689
▁Plüsch	-6690
▁Reisen	-6691
▁Schals	-6692
▁Schnür	-6693
▁Spider	-6694
▁Square	-6695
▁Stelle	-6696
▁Subway	-6697
▁Urlaub	-6698
▁Waffel	-6699
▁Waffen	-6700
▁albern	-6701
▁beschm	-6702
▁binden	-6703
▁bleibt	-6704
▁bricht	-6705
▁buntem	-6706
▁decken	-6707
▁dieses	-6708
▁dünnen	-6709
▁erziel	-6710
▁europä	-6711
▁ganzen	-6712
▁geflie	-6713
▁gefärb	-6714
▁gießen	-6715
▁hübsch	-6716
▁langes	-6717
▁leitet	-6718
▁nassem	-6719
▁prächt	-6720
▁regelt	-6721
▁regnet	-6722
▁reicht	-6723
▁segelt	-6724
▁trüben	-6725
▁wilden	-6726
▁zweite	-6727
bewohner	-6728
blättern	-6729
einfahrt	-6730
gelegten	-6731
ichteten	-6732
ierender	-6733
itischen	-6734
schlange	-6735
schungel	-6736
streifen	-6737
werkzeug	-6738
zuführen	-6739
▁Alkohol	-6740
▁Ansicht	-6741
▁Bikinis	-6742
▁Digital	-6743
▁Draußen	-6744
▁Fassade	-6745
▁Felsens	-6746
▁Fernseh	-6747
▁Flammen	-6748
▁Fliegen	-6749
▁Glastür	-6750
▁Landung	-6751
▁Notizen	-6752
▁Nummern	-6753
▁Objekte	-6754
▁Piraten	-6755
▁Schritt	-6756
▁Schwebe	-6757
▁Sommerk	-6758
▁Trägers	-6759
▁Töpferw	-6760
▁Versuch	-6761
▁Violett	-6762
▁Zebrast	-6763
▁anderem	-6764
▁bleiben	-6765
▁buckeln	-6766
▁frische	-6767
▁gehoben	-6768
▁kümmern	-6769
▁religiö	-6770
▁schenkt	-6771
▁schwere	-6772
▁steuert	-6773
▁säubert	-6774
▁trottet	-6775
▁verlegt	-6776
▁verschm	-6777
▁zuhause	-6778
promenade	-6779
schildern	-6780
schlitten	-6781
schwimmer	-6782
undgebung	-6783
▁Backflip	-6784
▁Broschür	-6785
▁Dinosaur	-6786
▁Ereignis	-6787
▁Fernrohr	-6788
▁Getreide	-6789
▁Indianer	-6790
▁Innenhof	-6791
▁Pizzeria	-6792
▁Rockband	-6793
▁Schienen	-6794
▁Schnorch	-6795
▁Spielern	-6796
▁Spielers	-6797
▁Textnach	-6798
▁Torbogen	-6799
▁Wartungs	-6800
▁entweder	-6801
▁faulenzt	-6802
▁frischen	-6803
▁gesäumte	-6804
▁hinteren	-6805
▁pflanzen	-6806
▁schleift	-6807
▁seichtem	-6808
▁seitlich	-6809
▁sortiert	-6810
▁trocknet	-6811
▁tätowier	-6812
▁türkisen	-6813
askottchen	-6814
aufführung	-6815
gegenstand	-6816
itarbeiter	-6817
oberfläche	-6818
unterricht	-6819
wärtssalto	-6820
▁Afrikaner	-6821
▁Badehosen	-6822
▁Badekappe	-6823
▁Barkeeper	-6824
▁Dschungel	-6825
▁Fahrzeugs	-6826
▁Fernsehen	-6827
▁Frühstück	-6828
▁Gesichter	-6829
▁Gesichtsm	-6830
▁Gletscher	-6831
▁Holzbrett	-6832
▁Industrie	-6833
▁Innenraum	-6834
▁Kaninchen	-6835
▁Kontrolle	-6836
▁McDonalds	-6837
▁Pullovern	-6838
▁Ruderboot	-6839
▁Schnuller	-6840
▁Spielerin	-6841
▁Staffelei	-6842
▁Stofftier	-6843
▁Tauziehen	-6844
▁Toiletten	-6845
▁Warnweste	-6846
▁Wintertag	-6847
▁abgesperr	-6848
▁blühenden	-6849
▁dekorativ	-6850
▁dirigiert	-6851
▁einfachen	-6852
▁fröhliche	-6853
▁gepolster	-6854
▁irgendwel	-6855
▁karierter	-6856
▁probieren	-6857
▁schlafend	-6858
▁versteckt	-6859
▁violetter	-6860
▁weinendes	-6861
Bahnstation	-6862
gestreiften	-6863
handschuhen	-6864
merksamkeit	-6865
mitarbeiter	-6866
▁Eisschnell	-6867
▁Felsklippe	-6868
▁Fischmarkt	-6869
▁Geldbeutel	-6870
▁Handwerker	-6871
▁Highschool	-6872
▁Kameramann	-6873
▁Rennfahrer	-6874
▁Smartphone	-6875
▁Stadtszene	-6876
▁Startlinie	-6877
▁Tankstelle	-6878
▁Wildwasser	-6879
▁angefeuert	-6880
▁beaufsicht	-6881
▁gestreifte	-6882
▁glückliche	-6883
▁profession	-6884
▁spielenden	-6885
▁tropischen	-6886
▁weiblichen	-6887
▁Aktentasche	-6888
▁Baumstämmen	-6889
▁Betonstufen	-6890
▁Einrichtung	-6891
▁Handtaschen	-6892
▁Hängebrücke	-6893
▁Kaffeetasse	-6894
▁Passagieren	-6895
▁Rodeoreiter	-6896
▁Schokoladen	-6897
▁Speisekarte	-6898
▁Trägershirt	-6899
▁Videokamera	-6900
▁Vorstellung	-6901
▁Wandmalerei	-6902
▁Winterjacke	-6903
▁aufgeblasen	-6904
▁einzufangen	-6905
▁gegnerische	-6906
▁gemusterten	-6907
▁geschrieben	-6908
▁pinkfarbene	-6909
▁schlafendes	-6910
▁tätowierter	-6911
▁Blumenstrauß	-6912
▁Bohrmaschine	-6913
▁Cheerleadern	-6914
▁Footballfeld	-6915
▁Gesellschaft	-6916
▁Kunstgalerie	-6917
▁Leichtathlet	-6918
▁Schlittschuh	-6919
▁Seilspringen	-6920
▁Straßenmarkt	-6921
▁Verschiedene	-6922
▁Wasserstraße	-6923
▁Wissenschaft	-6924
▁ausgebreitet	-6925
▁beeindrucken	-6926
▁geflochtenen	-6927
▁geschminktem	-6928
▁geschmückten	-6929
▁goldfarbenen	-6930
▁historischen	-6931
▁hochhackigen	-6932
▁interagieren	-6933
▁lilafarbener	-6934
▁umgestürzten	-6935
▁verschwommen	-6936
▁vorbeifahren	-6937
▁Brautjungfern	-6938
▁Cheerleaderin	-6939
▁Fahrradrennen	-6940
▁Freiluftmarkt	-6941
▁Schmetterling	-6942
▁Schwebebalken	-6943
▁Wassermelonen	-6944
▁Zebrastreifen	-6945
▁blondhaariger	-6946
▁braunhaariges	-6947
▁khakifarbener	-6948
▁traditionelle	-6949
▁Aufmerksamkeit	-6950
▁Basketballfeld	-6951
▁Habseligkeiten	-6952
▁Hundespielzeug	-6953
▁Militärangehör	-6954
▁Pflasterstraße	-6955
▁Schlittschuhen	-6956
▁ausgebreiteten	-6957
▁burgunderroten	-6958
▁hochzuklettern	-6959
▁wahrscheinlich	-6960
▁Einkaufstaschen	-6961
▁Friedenszeichen	-6962
▁Geländefahrzeug	-6963
▁Krankenhausbett	-6964
▁Stammeskleidung	-6965
▁Volleyballspiel	-6966
▁reflektierenden	-6967
.“	-6968
Co	-6969
Gr	-6970
Kl	-6971
Sp	-6972
bh	-6973
ct	-6974
gi	-6975
go	-6976
if	-6977
kn	-6978
Air	-6979
Aut	-6980
Kon	-6981
Rad	-6982
alk	-6983
bon	-6984
bun	-6985
car	-6986
eug	-6987
gar	-6988
hom	-6989
ide	-6990
lim	-6991
mar	-6992
mun	-6993
nev	-6994
olf	-6995
osn	-6996
our	-6997
ove	-6998
por	-6999
try	-7000
ymb	-7001
änt	-7002
öße	-7003
▁Go	-7004
▁Ir	-7005
▁Lu	-7006
▁Rü	-7007
▁Sö	-7008
▁Wä	-7009
▁co	-7010
▁dü	-7011
Cola	-7012
afft	-7013
agaz	-7014
anis	-7015
ards	-7016
ator	-7017
atze	-7018
baby	-7019
bike	-7020
book	-7021
boss	-7022
chco	-7023
chor	-7024
crew	-7025
ehen	-7026
entr	-7027
erie	-7028
etch	-7029
fass	-7030
ffet	-7031
fiel	-7032
font	-7033
ford	-7034
gelb	-7035
hüte	-7036
icke	-7037
ießt	-7038
iven	-7039
jama	-7040
lers	-7041
ltim	-7042
nern	-7043
ness	-7044
ofen	-7045
oliz	-7046
ollt	-7047
onge	-7048
pern	-7049
pipe	-7050
ppel	-7051
reit	-7052
rest	-7053
rote	-7054
saft	-7055
sich	-7056
sort	-7057
stil	-7058
uchs	-7059
wahl	-7060
wart	-7061
würd	-7062
ädel	-7063
äumt	-7064
▁Ant	-7065
▁Cam	-7066
▁Dis	-7067
▁Don	-7068
▁Fan	-7069
▁Far	-7070
▁Fäu	-7071
▁Gas	-7072
▁Kek	-7073
▁Lig	-7074
▁Meg	-7075
▁Mel	-7076
▁Pow	-7077
▁SMS	-7078
▁Van	-7079
▁Whe	-7080
▁frü	-7081
▁kor	-7082
▁nav	-7083
▁par	-7084
▁üpp	-7085
Compu	-7086
altet	-7087
anell	-7088
arden	-7089
atein	-7090
attle	-7091
aufel	-7092
aunen	-7093
autos	-7094
boote	-7095
bälle	-7096
empor	-7097
erker	-7098
erste	-7099
esser	-7100
essor	-7101
ettel	-7102
ettes	-7103
fisch	-7104
hüten	-7105
illen	-7106
kreis	-7107
onern	-7108
oners	-7109
order	-7110
packt	-7111
party	-7112
produ	-7113
rotes	-7114
schul	-7115
spass	-7116
stron	-7117
ständ	-7118
train	-7119
trock	-7120
untry	-7121
usche	-7122
ustet	-7123
viewt	-7124
waffe	-7125
wiese	-7126
wirft	-7127
zählt	-7128
ängst	-7129
ässer	-7130
übung	-7131
ücher	-7132
üllte	-7133
▁Aufw	-7134
▁Barr	-7135
▁Blei	-7136
▁Blon	-7137
▁Chir	-7138
▁Dess	-7139
▁Eben	-7140
▁Empf	-7141
▁Jung	-7142
▁Krug	-7143
▁Live	-7144
▁Mehl	-7145
▁Pain	-7146
▁Ping	-7147
▁Polo	-7148
▁Pony	-7149
▁Pose	-7150
▁Reit	-7151
▁Saal	-7152
▁Saft	-7153
▁Spag	-7154
▁Steg	-7155
▁Tief	-7156
▁Tren	-7157
▁Wund	-7158
▁bett	-7159
▁eink	-7160
▁etwa	-7161
▁gekü	-7162
▁glät	-7163
▁hech	-7164
▁herz	-7165
▁knie	-7166
▁lebh	-7167
▁qual	-7168
▁ruft	-7169
▁senk	-7170
▁sorg	-7171
▁stud	-7172
▁wolk	-7173
agiert	-7174
ammung	-7175
besitz	-7176
bligen	-7177
booten	-7178
bunten	-7179
chcoat	-7180
detwas	-7181
eibeam	-7182
fältig	-7183
führen	-7184
gelenk	-7185
geräte	-7186
geträn	-7187
gläser	-7188
hemden	-7189
hörern	-7190
immten	-7191
ivität	-7192
koffer	-7193
kragen	-7194
lesung	-7195
minton	-7196
mittel	-7197
nneren	-7198
oshirt	-7199
ousine	-7200
outfit	-7201
papier	-7202
person	-7203
pfütze	-7204
ramide	-7205
schnee	-7206
splatz	-7207
tennis	-7208
tensiv	-7209
tresen	-7210
tunnel	-7211
tänzer	-7212
uchten	-7213
urnier	-7214
utlich	-7215
änteln	-7216
ärgert	-7217
▁Batik	-7218
▁Baums	-7219
▁Bulle	-7220
▁Busch	-7221
▁Dress	-7222
▁Faust	-7223
▁Gebir	-7224
▁Gleis	-7225
▁Griff	-7226
▁Gäste	-7227
▁Haken	-7228
▁Haust	-7229
▁Hänge	-7230
▁Kimon	-7231
▁Kunde	-7232
▁Körbe	-7233
▁Liebl	-7234
▁Liege	-7235
▁Milch	-7236
▁Minig	-7237
▁Mönch	-7238
▁Nasen	-7239
▁Parks	-7240
▁Pitch	-7241
▁Radio	-7242
▁Salat	-7243
▁Schär	-7244
▁Skist	-7245
▁Speer	-7246
▁State	-7247
▁Tauch	-7248
▁Teamk	-7249
▁Thema	-7250
▁Toten	-7251
▁Ultim	-7252
▁alber	-7253
▁armen	-7254
▁außen	-7255
▁beför	-7256
▁bohrt	-7257
▁dreck	-7258
▁event	-7259
▁freut	-7260
▁gemüt	-7261
▁helle	-7262
▁heran	-7263
▁irgen	-7264
▁leere	-7265
▁olymp	-7266
▁plant	-7267
▁rückt	-7268
▁sport	-7269
▁spült	-7270
▁still	-7271
▁wenig	-7272
▁wiegt	-7273
▁wählt	-7274
▁zeich	-7275
▁zerkl	-7276
Konzert	-7277
absperr	-7278
anzeige	-7279
blätter	-7280
braunem	-7281
brechen	-7282
deckten	-7283
dienung	-7284
hedrale	-7285
kapelle	-7286
meister	-7287
ohmarkt	-7288
pistole	-7289
platten	-7290
respiel	-7291
rutscht	-7292
schoben	-7293
skuchen	-7294
smittel	-7295
sstudio	-7296
unktion	-7297
zenerie	-7298
▁Abhang	-7299
▁Aktion	-7300
▁Amboss	-7301
▁Aschen	-7302
▁Beamte	-7303
▁Berggi	-7304
▁Besuch	-7305
▁Bulldo	-7306
▁Bürste	-7307
▁Doppel	-7308
▁Fußweg	-7309
▁Gemein	-7310
▁Golden	-7311
▁Hawaii	-7312
▁Inhalt	-7313
▁Joggen	-7314
▁Karnev	-7315
▁Kasten	-7316
▁Kegeln	-7317
▁Kittel	-7318
▁Kokosn	-7319
▁Ladung	-7320
▁Massen	-7321
▁Rallye	-7322
▁Ringen	-7323
▁Rummel	-7324
▁Schale	-7325
▁Spritz	-7326
▁Spruch	-7327
▁Stücke	-7328
▁Tische	-7329
▁Transp	-7330
▁Vaters	-7331
▁Zauber	-7332
▁Zähnen	-7333
▁abgest	-7334
▁aufhat	-7335
▁balgen	-7336
▁beigen	-7337
▁bequem	-7338
▁buntes	-7339
▁einger	-7340
▁essend	-7341
▁feuert	-7342
▁freund	-7343
▁gebaut	-7344
▁gesche	-7345
▁herein	-7346
▁kaukas	-7347
▁kehren	-7348
▁kicken	-7349
▁kommun	-7350
▁kosten	-7351
▁leiden	-7352
▁mensch	-7353
▁nackte	-7354
▁obwohl	-7355
▁pinken	-7356
▁raufen	-7357
▁schatt	-7358
▁schick	-7359
▁schält	-7360
▁sicher	-7361
▁stattf	-7362
▁surfen	-7363
▁tiefen	-7364
▁wurden	-7365
▁zündet	-7366
Computer	-7367
arinette	-7368
handwerk	-7369
köpfigen	-7370
mannszug	-7371
pflanzen	-7372
pflegten	-7373
position	-7374
schaufel	-7375
schlacht	-7376
spassage	-7377
▁Armband	-7378
▁Ausflug	-7379
▁Auswahl	-7380
▁Blument	-7381
▁Cowgirl	-7382
▁Dunkeln	-7383
▁Eisbahn	-7384
▁Empfang	-7385
▁Filzhut	-7386
▁Flanell	-7387
▁Flieger	-7388
▁Garagen	-7389
▁Gehwegs	-7390
▁Gürteln	-7391
▁Hotdogs	-7392
▁Hörsaal	-7393
▁Japaner	-7394
▁Kamelen	-7395
▁Kiefern	-7396
▁Kirchen	-7397
▁Langarm	-7398
▁Läufern	-7399
▁Nadelst	-7400
▁Perücke	-7401
▁Pfannen	-7402
▁Popcorn	-7403
▁Punkten	-7404
▁Rollern	-7405
▁Schiffs	-7406
▁Schloss	-7407
▁Schnell	-7408
▁Schwanz	-7409
▁Schweiß	-7410
▁Schwier	-7411
▁Skilift	-7412
▁Terrier	-7413
▁Trinken	-7414
▁Tänzern	-7415
▁Uferweg	-7416
▁Wohnung	-7417
▁akrobat	-7418
▁beendet	-7419
▁beschäd	-7420
▁farbige	-7421
▁fertigt	-7422
▁füttern	-7423
▁gehüllt	-7424
▁haltend	-7425
▁kompliz	-7426
▁lokalen	-7427
▁nackten	-7428
▁nacktes	-7429
▁offener	-7430
▁pflückt	-7431
▁ruhigem	-7432
▁schippt	-7433
▁stecken	-7434
▁strickt	-7435
▁tackelt	-7436
▁umgedre	-7437
▁zuhören	-7438
bereitung	-7439
fahrzeuge	-7440
gestellte	-7441
plattform	-7442
schneiden	-7443
sgeschäft	-7444
stehenden	-7445
▁Aquarium	-7446
▁Arbeiten	-7447
▁Arbeitsk	-7448
▁Ausschau	-7449
▁Autositz	-7450
▁Berghang	-7451
▁Festival	-7452
▁Fingernä	-7453
▁Fußboden	-7454
▁Gewehren	-7455
▁Hüpfburg	-7456
▁Klettern	-7457
▁Kollegen	-7458
▁Konfetti	-7459
▁Labrador	-7460
▁Mülltüte	-7461
▁National	-7462
▁Position	-7463
▁Pyramide	-7464
▁Schalter	-7465
▁Schotten	-7466
▁Schwarze	-7467
▁Schülern	-7468
▁Senioren	-7469
▁Strandes	-7470
▁Struktur	-7471
▁Training	-7472
▁Ultimate	-7473
▁Umhängen	-7474
▁angelein	-7475
▁anschaut	-7476
▁aufrecht	-7477
▁bestellt	-7478
▁besuchen	-7479
▁erhalten	-7480
▁erreicht	-7481
▁erwischt	-7482
▁gefahren	-7483
▁hochhält	-7484
▁intensiv	-7485
▁irgendwo	-7486
▁jüngeres	-7487
▁kleinere	-7488
▁kontroll	-7489
▁liegende	-7490
▁lustigen	-7491
▁modernen	-7492
▁rauchend	-7493
▁schweren	-7494
▁studiert	-7495
▁trommelt	-7496
▁versehen	-7497
▁zeichnen	-7498
Mannschaft	-7499
schaftlich	-7500
wirtschaft	-7501
▁Aufschlag	-7502
▁Badminton	-7503
▁Begleiter	-7504
▁Betonbank	-7505
▁Durchgang	-7506
▁Eislaufen	-7507
▁Golfplatz	-7508
▁Hemdbluse	-7509
▁Holztisch	-7510
▁Hydranten	-7511
▁Kellnerin	-7512
▁Khakihose	-7513
▁Landkarte	-7514
▁Leoparden	-7515
▁Limousine	-7516
▁Meeresfrü	-7517
▁Mikrofone	-7518
▁Motorboot	-7519
▁Nachtclub	-7520
▁Poloshirt	-7521
▁Professor	-7522
▁Promenade	-7523
▁Schaufeln	-7524
▁Schrauben	-7525
▁Spiderman	-7526
▁Vorlesung	-7527
▁Wanderweg	-7528
▁Wunderker	-7529
▁Zeitungen	-7530
▁bedeckter	-7531
▁befahrene	-7532
▁beteiligt	-7533
▁eventuell	-7534
▁fahrenden	-7535
▁geradeaus	-7536
▁gerichtet	-7537
▁geschoben	-7538
▁gesenktem	-7539
▁klatschen	-7540
▁platziert	-7541
▁selbstgeb	-7542
▁servieren	-7543
▁teilnimmt	-7544
▁untergeht	-7545
▁verfolgen	-7546
▁verärgert	-7547
▁Abstammung	-7548
▁Eiswaffeln	-7549
▁Kampfkunst	-7550
▁Kathedrale	-7551
▁Marktstand	-7552
▁Maulkörben	-7553
▁Metallzaun	-7554
▁Mikrofonen	-7555
▁Möbelstück	-7556
▁Nachmittag	-7557
▁Rasenmäher	-7558
▁Sackhüpfen	-7559
▁Schneemann	-7560
▁Schnorchel	-7561
▁Spielzeuge	-7562
▁Sportplatz	-7563
▁Teenagerin	-7564
▁Tischdecke	-7565
▁Trenchcoat	-7566
▁Unterricht	-7567
▁Warnwesten	-7568
▁Wasserball	-7569
▁Wasserfont	-7570
▁Werkzeugen	-7571
▁akustische	-7572
▁ausgestopf	-7573
▁barfüßiges	-7574
▁durchsucht	-7575
▁farbenfroh	-7576
▁fasziniert	-7577
▁fröhliches	-7578
▁geöffnetem	-7579
▁hellgelben	-7580
▁inspiziert	-7581
▁interviewt	-7582
▁irgendeine	-7583
▁regenbogen	-7584
▁schlendern	-7585
▁schmettert	-7586
▁sorgfältig	-7587
▁steinernen	-7588
▁streicheln	-7589
▁verbringen	-7590
▁vermutlich	-7591
▁wetteifern	-7592
▁ärmellosem	-7593
▁überblickt	-7594
▁Bahngleisen	-7595
▁Betonplatte	-7596
▁Bücherregal	-7597
▁Essenswagen	-7598
▁Fußballteam	-7599
▁Karateanzug	-7600
▁Kartenspiel	-7601
▁Lippenstift	-7602
▁Obdachloser	-7603
▁Polizeibeam	-7604
▁Schotterweg	-7605
▁Seitenlinie	-7606
▁Straßenbahn	-7607
▁Tischtennis	-7608
▁Tänzerinnen	-7609
▁Videospiele	-7610
▁Weihnachten	-7611
▁befestigten	-7612
▁begutachten	-7613
▁dekorativen	-7614
▁dekorierten	-7615
▁dreiköpfige	-7616
▁entgegenges	-7617
▁erwachsenen	-7618
▁farbenfrohe	-7619
▁flauschigen	-7620
▁gelbbrauner	-7621
▁geschäftige	-7622
▁glückliches	-7623
▁hochgehoben	-7624
▁hochspringt	-7625
▁inspizieren	-7626
▁irgendetwas	-7627
▁kostümierte	-7628
▁kunstvollen	-7629
▁mehrfarbige	-7630
▁rothaarigen	-7631
▁schmutziges	-7632
▁verlassenen	-7633
▁vierköpfige	-7634
▁wunderschön	-7635
▁überdachten	-7636
▁Badekleidung	-7637
▁Bullenreiter	-7638
▁Dekorationen	-7639
▁Fußballteams	-7640
▁Gitarrespiel	-7641
▁Hubschrauber	-7642
▁Klappstühlen	-7643
▁Küchentresen	-7644
▁Liegestühlen	-7645
▁Mannschaftsk	-7646
▁Sandskulptur	-7647
▁Schaulustige	-7648
▁Schauspieler	-7649
▁Spazierstock	-7650
▁Taucheranzug	-7651
▁abgesperrten	-7652
▁befindlichen	-7653
▁chinesischer	-7654
▁entlanggehen	-7655
▁geschminkten	-7656
▁marineblauen	-7657
▁protestieren	-7658
▁uniformierte	-7659
▁verkleideter	-7660
▁vorübergehen	-7661
pflasterstraße	-7662
▁Digitalkamera	-7663
▁Fitnessstudio	-7664
▁Karateanzügen	-7665
▁Nadelstreifen	-7666
▁Radrennfahrer	-7667
▁Schwimmwesten	-7668
▁Softballspiel	-7669
▁Spielmannszug	-7670
▁Spielzeugauto	-7671
▁Tennisschuhen	-7672
▁abgedunkelten	-7673
▁aufgeblasenen	-7674
▁beaufsichtigt	-7675
▁schwarzweißer	-7676
▁Bandmitglieder	-7677
▁Bordsteinkante	-7678
▁Fußballspielen	-7679
▁Hochzeitskleid	-7680
▁Hochzeitstorte	-7681
▁Modellflugzeug	-7682
▁Rückwärtssalto	-7683
▁Schotterstraße	-7684
▁Schwimmflügeln	-7685
▁Skateboardpark	-7686
▁Stabhochsprung	-7687
▁türkisfarbenen	-7688
▁Einkaufspassage	-7689
▁Fußgängerbrücke	-7690
▁Motorradfahrern	-7691
▁Schwierigkeiten	-7692
▁Skateboardrampe	-7693
▁Skateboardtrick	-7694
▁Strandpromenade	-7695
▁verschiedenfarb	-7696
Fr	-7697
fz	-7698
ix	-7699
ky	-7700
zz	-7701
äf	-7702
äß	-7703
ös	-7704
Bob	-7705
Str	-7706
adr	-7707
agg	-7708
ahm	-7709
ane	-7710
any	-7711
ape	-7712
ars	-7713
atu	-7714
azz	-7715
eld	-7716
flu	-7717
ham	-7718
han	-7719
ice	-7720
ilf	-7721
int	-7722
iot	-7723
iqu	-7724
mat	-7725
met	-7726
mon	-7727
nam	-7728
nte	-7729
oke	-7730
orb	-7731
osk	-7732
ota	-7733
pit	-7734
pul	-7735
pur	-7736
ree	-7737
ruh	-7738
ses	-7739
ski	-7740
stä	-7741
sur	-7742
ugt	-7743
ure	-7744
völ	-7745
ätz	-7746
öne	-7747
ühl	-7748
ümm	-7749
üss	-7750
▁Bö	-7751
▁Is	-7752
▁Li	-7753
▁Lo	-7754
▁Ri	-7755
▁Wh	-7756
▁el	-7757
▁gä	-7758
▁pf	-7759
▁wü	-7760
Bade	-7761
Base	-7762
adem	-7763
afür	-7764
akes	-7765
alie	-7766
anas	-7767
aran	-7768
arat	-7769
arst	-7770
bein	-7771
biet	-7772
brer	-7773
bter	-7774
bude	-7775
chan	-7776
eckt	-7777
ehrs	-7778
elie	-7779
esst	-7780
euen	-7781
ftet	-7782
geld	-7783
gumm	-7784
gürt	-7785
häng	-7786
ilde	-7787
jagt	-7788
kart	-7789
kelt	-7790
ktor	-7791
lass	-7792
llen	-7793
nack	-7794
nehm	-7795
nete	-7796
obby	-7797
pink	-7798
rmel	-7799
rädr	-7800
sack	-7801
sein	-7802
terr	-7803
tuch	-7804
umor	-7805
uren	-7806
zahl	-7807
zimm	-7808
ßten	-7809
ämpf	-7810
änen	-7811
öten	-7812
üsse	-7813
▁Als	-7814
▁Blu	-7815
▁Day	-7816
▁Dir	-7817
▁Dog	-7818
▁Dok	-7819
▁Drä	-7820
▁Exp	-7821
▁Hel	-7822
▁Hus	-7823
▁Hüt	-7824
▁Ind	-7825
▁Kal	-7826
▁Kau	-7827
▁Kop	-7828
▁Kre	-7829
▁Mal	-7830
▁Mix	-7831
▁Müt	-7832
▁Prü	-7833
▁Sam	-7834
▁San	-7835
▁Sol	-7836
▁Tun	-7837
▁Wäl	-7838
▁Wür	-7839
▁Zom	-7840
▁app	-7841
▁att	-7842
▁deu	-7843
▁eis	-7844
▁hal	-7845
▁jüd	-7846
▁kni	-7847
▁mat	-7848
▁met	-7849
▁ord	-7850
▁per	-7851
▁san	-7852
Teams	-7853
Tisch	-7854
achte	-7855
altes	-7856
apeln	-7857
artet	-7858
atuen	-7859
aupts	-7860
boter	-7861
ction	-7862
eugen	-7863
euten	-7864
fpipe	-7865
fälle	-7866
grüne	-7867
gäste	-7868
herum	-7869
ierer	-7870
igner	-7871
igtes	-7872
irmes	-7873
junge	-7874
kiste	-7875
klapp	-7876
kremp	-7877
lakat	-7878
legen	-7879
lässt	-7880
mitte	-7881
mobil	-7882
ohren	-7883
pierc	-7884
piste	-7885
plane	-7886
reich	-7887
reise	-7888
ridor	-7889
rmeln	-7890
schel	-7891
sfest	-7892
start	-7893
steht	-7894
stöck	-7895
tafel	-7896
tetes	-7897
theke	-7898
tüten	-7899
ugeln	-7900
uldig	-7901
ulpen	-7902
umzug	-7903
unner	-7904
wache	-7905
ymbol	-7906
zügen	-7907
ßlich	-7908
ärten	-7909
▁Alte	-7910
▁Arch	-7911
▁Beim	-7912
▁Cock	-7913
▁Cola	-7914
▁Dart	-7915
▁Denk	-7916
▁Deut	-7917
▁Dirt	-7918
▁Disk	-7919
▁Fast	-7920
▁Fund	-7921
▁Hart	-7922
▁Head	-7923
▁Hebe	-7924
▁Kara	-7925
▁Kass	-7926
▁Krab	-7927
▁Lego	-7928
▁Lehm	-7929
▁Mach	-7930
▁Mais	-7931
▁Make	-7932
▁Mast	-7933
▁Mini	-7934
▁Männ	-7935
▁Münz	-7936
▁Nike	-7937
▁Open	-7938
▁Pack	-7939
▁Patr	-7940
▁Pend	-7941
▁Prie	-7942
▁Sari	-7943
▁Sche	-7944
▁Stoß	-7945
▁Trau	-7946
▁Vieh	-7947
▁Viel	-7948
▁Walk	-7949
▁Welt	-7950
▁Werb	-7951
▁Wort	-7952
▁arab	-7953
▁bumm	-7954
▁dick	-7955
▁enge	-7956
▁erst	-7957
▁gute	-7958
▁kein	-7959
▁klar	-7960
▁krei	-7961
▁leer	-7962
▁merk	-7963
▁oper	-7964
▁rang	-7965
▁stol	-7966
▁umkl	-7967
▁verd	-7968
▁winz	-7969
▁zerb	-7970
Rennen	-7971
Tattoo	-7972
Tunnel	-7973
affell	-7974
afting	-7975
blöcke	-7976
bündel	-7977
denten	-7978
eignis	-7979
eigung	-7980
eliger	-7981
ellung	-7982
entrum	-7983
eudert	-7984
flügel	-7985
frisur	-7986
gebaut	-7987
großen	-7988
grünem	-7989
grünes	-7990
hauses	-7991
helmen	-7992
ichert	-7993
iedhof	-7994
iegend	-7995
ikatur	-7996
ingham	-7997
ington	-7998
irsich	-7999
itiert	-8000
kappen	-8001
kissen	-8002
latten	-8003
lterer	-8004
masten	-8005
omplex	-8006
passen	-8007
ringen	-8008
schale	-8009
selben	-8010
steigt	-8011
strich	-8012
sätzen	-8013
uthahn	-8014
voller	-8015
werfer	-8016
äfchen	-8017
ärtner	-8018
ässern	-8019
äuchen	-8020
▁Acker	-8021
▁Bauer	-8022
▁Blase	-8023
▁Braun	-8024
▁Brief	-8025
▁Bären	-8026
▁Coach	-8027
▁Comic	-8028
▁Derby	-8029
▁Ebene	-8030
▁Front	-8031
▁Gabel	-8032
▁Gänse	-8033
▁Harfe	-8034
▁Hucke	-8035
▁Jahre	-8036
▁Juwel	-8037
▁Kamin	-8038
▁Kanal	-8039
▁Kerze	-8040
▁Kites	-8041
▁Lobby	-8042
▁Messe	-8043
▁Miami	-8044
▁Orgel	-8045
▁Paint	-8046
▁Plane	-8047
▁Ponch	-8048
▁Power	-8049
▁Preis	-8050
▁Punkt	-8051
▁Regal	-8052
▁Runde	-8053
▁Saris	-8054
▁Seife	-8055
▁Skige	-8056
▁Stach	-8057
▁Stiel	-8058
▁Sturm	-8059
▁Sturz	-8060
▁Städt	-8061
▁Sumpf	-8062
▁Tritt	-8063
▁Zehen	-8064
▁Zweig	-8065
▁abgel	-8066
▁anger	-8067
▁baden	-8068
▁badet	-8069
▁beruh	-8070
▁bevöl	-8071
▁bewer	-8072
▁biegt	-8073
▁dafür	-8074
▁deckt	-8075
▁demon	-8076
▁dünne	-8077
▁einzu	-8078
▁empor	-8079
▁ersch	-8080
▁fremd	-8081
▁gefäl	-8082
▁halbw	-8083
▁heißt	-8084
▁kaput	-8085
▁klass	-8086
▁kreis	-8087
▁künst	-8088
▁lehrt	-8089
▁lenkt	-8090
▁maler	-8091
▁minde	-8092
▁misst	-8093
▁nasse	-8094
▁neues	-8095
▁nippt	-8096
▁nächt	-8097
▁näher	-8098
▁probt	-8099
▁räumt	-8100
▁saust	-8101
▁schrä	-8102
▁stämm	-8103
▁sumpf	-8104
▁wadet	-8105
▁waten	-8106
▁zupft	-8107
Fahrrad	-8108
Werbung	-8109
aufgang	-8110
chniker	-8111
eidigen	-8112
ennbahn	-8113
farbene	-8114
figuren	-8115
fleisch	-8116
fliegen	-8117
flieger	-8118
geschen	-8119
gesicht	-8120
iebenen	-8121
issenen	-8122
istolen	-8123
mischer	-8124
mänteln	-8125
olizist	-8126
ongeBob	-8127
orangen	-8128
otebook	-8129
reckter	-8130
schlägt	-8131
schwarm	-8132
sstatue	-8133
streckt	-8134
treffen	-8135
turnier	-8136
wendung	-8137
ächlich	-8138
ätzchen	-8139
▁Abdeck	-8140
▁Anzüge	-8141
▁Athlet	-8142
▁Aufkle	-8143
▁Bahnen	-8144
▁Boogie	-8145
▁Büsche	-8146
▁Collie	-8147
▁Design	-8148
▁Diadem	-8149
▁Disney	-8150
▁Federn	-8151
▁Geiger	-8152
▁Grills	-8153
▁Kiefer	-8154
▁Kirmes	-8155
▁Lachen	-8156
▁Lappen	-8157
▁Linien	-8158
▁Marsch	-8159
▁Masken	-8160
▁Miniat	-8161
▁Montur	-8162
▁Nudeln	-8163
▁Pfoten	-8164
▁Pinata	-8165
▁Pyjama	-8166
▁Rampen	-8167
▁Reinig	-8168
▁Riemen	-8169
▁Riesen	-8170
▁Rollen	-8171
▁Ruinen	-8172
▁Steuer	-8173
▁Surfen	-8174
▁Tinten	-8175
▁Wangen	-8176
▁Wüsten	-8177
▁Zucker	-8178
▁attack	-8179
▁beschn	-8180
▁deutet	-8181
▁dicker	-8182
▁einzig	-8183
▁ersten	-8184
▁gebück	-8185
▁gejagt	-8186
▁gemalt	-8187
▁geschl	-8188
▁graues	-8189
▁großem	-8190
▁harten	-8191
▁inform	-8192
▁letzte	-8193
▁manövr	-8194
▁nasses	-8195
▁nichts	-8196
▁obdach	-8197
▁packen	-8198
▁parken	-8199
▁pustet	-8200
▁rollen	-8201
▁rundes	-8202
▁rustik	-8203
▁sollen	-8204
▁stoßen	-8205
▁stützt	-8206
▁tollen	-8207
▁verspr	-8208
▁wasser	-8209
▁winken	-8210
▁wirken	-8211
▁würden	-8212
▁zugeht	-8213
▁zweier	-8214
Kostümen	-8215
aufgaben	-8216
auftritt	-8217
chaniker	-8218
enztisch	-8219
farbenem	-8220
farbenes	-8221
fertigen	-8222
fluteten	-8223
handlung	-8224
isierten	-8225
pullover	-8226
schonern	-8227
stattung	-8228
teiligen	-8229
umgebung	-8230
ünstlern	-8231
▁America	-8232
▁Angriff	-8233
▁Artikel	-8234
▁Aufgabe	-8235
▁Büchern	-8236
▁Denkmal	-8237
▁Dessert	-8238
▁Dirigen	-8239
▁Endzone	-8240
▁Fackeln	-8241
▁Fitness	-8242
▁Flecken	-8243
▁Führung	-8244
▁Gewicht	-8245
▁Inneren	-8246
▁Kulisse	-8247
▁Kutsche	-8248
▁Liegest	-8249
▁Medizin	-8250
▁Melonen	-8251
▁Partner	-8252
▁Patient	-8253
▁Reklame	-8254
▁Roboter	-8255
▁Schanze	-8256
▁Schlepp	-8257
▁Schädel	-8258
▁Seattle	-8259
▁Sombrer	-8260
▁Sprache	-8261
▁Tellern	-8262
▁Tisches	-8263
▁Turnier	-8264
▁Vordach	-8265
▁Wheelie	-8266
▁Zentrum	-8267
▁Zuhörer	-8268
▁abwärts	-8269
▁bastelt	-8270
▁baumges	-8271
▁beenden	-8272
▁befragt	-8273
▁betritt	-8274
▁bettelt	-8275
▁drängen	-8276
▁eigenen	-8277
▁erzählt	-8278
▁fechten	-8279
▁felsige	-8280
▁flaches	-8281
▁gebogen	-8282
▁gemisch	-8283
▁gesprei	-8284
▁gesäumt	-8285
▁grinsen	-8286
▁hechtet	-8287
▁letzten	-8288
▁mobilen	-8289
▁nackter	-8290
▁poliert	-8291
▁richtig	-8292
▁sitzend	-8293
▁stöbern	-8294
▁traurig	-8295
▁wischen	-8296
▁zuguckt	-8297
▁zweiten	-8298
▁zweiter	-8299
affellauf	-8300
appschuss	-8301
arsteller	-8302
kommenden	-8303
lastwagen	-8304
scheinend	-8305
strümpfen	-8306
ähnliches	-8307
▁Balkonen	-8308
▁Boxkampf	-8309
▁Brunnens	-8310
▁Bäckerei	-8311
▁Einfahrt	-8312
▁Erdboden	-8313
▁Freundes	-8314
▁Friedhof	-8315
▁Fußtritt	-8316
▁Gemeinde	-8317
▁Halfpipe	-8318
▁Holzboot	-8319
▁Kongress	-8320
▁Korridor	-8321
▁Lehrerin	-8322
▁Lichtern	-8323
▁Material	-8324
▁Matratze	-8325
▁Matrosen	-8326
▁Militärs	-8327
▁Minigolf	-8328
▁Oberhemd	-8329
▁Priester	-8330
▁Radsport	-8331
▁Rennbahn	-8332
▁Schminke	-8333
▁Schneewe	-8334
▁Spielzug	-8335
▁Teddybär	-8336
▁Truthahn	-8337
▁Verkehrs	-8338
▁Zitronen	-8339
▁außerdem	-8340
▁deutsche	-8341
▁erhöhten	-8342
▁erzielen	-8343
▁fertigen	-8344
▁funktion	-8345
▁gedrängt	-8346
▁geholfen	-8347
▁gescheck	-8348
▁gesteckt	-8349
▁gestützt	-8350
▁gewonnen	-8351
▁hellrosa	-8352
▁herausge	-8353
▁jemandes	-8354
▁künstler	-8355
▁lackiert	-8356
▁lockigem	-8357
▁nebligen	-8358
▁schicken	-8359
▁schüttet	-8360
▁stolpert	-8361
▁streiten	-8362
▁synchron	-8363
▁verkehrs	-8364
▁verkehrt	-8365
▁verletzt	-8366
▁verliert	-8367
▁verloren	-8368
▁verwirrt	-8369
▁verzieht	-8370
▁vornüber	-8371
▁zugucken	-8372
Ausrüstung	-8373
Restaurant	-8374
amerikaner	-8375
handschuhe	-8376
▁Abschluss	-8377
▁Aufwärmen	-8378
▁Bauernhof	-8379
▁Bedienung	-8380
▁Blattwerk	-8381
▁Bulldozer	-8382
▁Eiswaffel	-8383
▁Felsblock	-8384
▁Holzpfahl	-8385
▁Holzstuhl	-8386
▁Huckepack	-8387
▁Karikatur	-8388
▁Kickboxen	-8389
▁Limonaden	-8390
▁Motorroll	-8391
▁Rucksäcke	-8392
▁Schaumbad	-8393
▁Schwester	-8394
▁Schülerin	-8395
▁Skigebiet	-8396
▁Strohhalm	-8397
▁Warenkorb	-8398
▁Zeichnung	-8399
▁anschauen	-8400
▁beladenen	-8401
▁besuchten	-8402
▁betrunken	-8403
▁bewachsen	-8404
▁bewundern	-8405
▁brünettes	-8406
▁eingepack	-8407
▁einkaufen	-8408
▁einschlie	-8409
▁erledigen	-8410
▁gemütlich	-8411
▁geschnitz	-8412
▁gespritzt	-8413
▁gestapelt	-8414
▁innerhalb	-8415
▁navigiert	-8416
▁plantscht	-8417
▁reagieren	-8418
▁sitzendes	-8419
▁sortieren	-8420
▁unterhalb	-8421
▁verdienen	-8422
▁vereisten	-8423
▁verteilen	-8424
▁vollständ	-8425
▁zugewandt	-8426
Mitarbeiter	-8427
vorstellung	-8428
▁Ansammlung	-8429
▁Außenseite	-8430
▁Bademantel	-8431
▁Ballbesitz	-8432
▁Betonrampe	-8433
▁Bewegungen	-8434
▁Elternteil	-8435
▁Garagentor	-8436
▁Halsketten	-8437
▁Handgelenk	-8438
▁Khakihosen	-8439
▁Klarinette	-8440
▁Kleinstadt	-8441
▁Kragenhemd	-8442
▁Künstlerin	-8443
▁Lastwagens	-8444
▁Luftsprung	-8445
▁Plakatwand	-8446
▁Polizistin	-8447
▁Rednerpult	-8448
▁Schwertern	-8449
▁Skulpturen	-8450
▁Stadtplatz	-8451
▁Staubwolke	-8452
▁Straßencaf	-8453
▁Tiefschnee	-8454
▁Türeingang	-8455
▁Wasserlauf	-8456
▁Zigaretten	-8457
▁angemaltem	-8458
▁anzuziehen	-8459
▁befestigen	-8460
▁besprechen	-8461
▁besprühten	-8462
▁blaugrünen	-8463
▁buckelnden	-8464
▁durchsicht	-8465
▁erleuchtet	-8466
▁fröhlicher	-8467
▁gemeinsame	-8468
▁geschossen	-8469
▁hellbraune	-8470
▁herrlichen	-8471
▁mindestens	-8472
▁neugeboren	-8473
▁schattigen	-8474
▁schmutzige	-8475
▁spanischer	-8476
▁umklammert	-8477
▁verlassene	-8478
▁zerbrochen	-8479
▁zueinander	-8480
gesellschaft	-8481
ungsfahrzeug	-8482
▁Absperrband	-8483
▁Bergsteigen	-8484
▁Blumenwiese	-8485
▁Dinosaurier	-8486
▁Eisskulptur	-8487
▁Freundinnen	-8488
▁Gartenstuhl	-8489
▁Golfspieler	-8490
▁Haarschnitt	-8491
▁Hafengebiet	-8492
▁Kastenwagen	-8493
▁Kleinigkeit	-8494
▁Kletterwand	-8495
▁Kopftüchern	-8496
▁Ledermantel	-8497
▁Orangensaft	-8498
▁Rollstühlen	-8499
▁Schildkröte	-8500
▁Schusswaffe	-8501
▁Schwimmerin	-8502
▁Spielzeugen	-8503
▁Staffellauf	-8504
▁Toreinfahrt	-8505
▁Transporter	-8506
▁Weingläsern	-8507
▁anscheinend	-8508
▁anzugreifen	-8509
▁aufzunehmen	-8510
▁bräunlicher	-8511
▁grauhaarige	-8512
▁hellbraunem	-8513
▁kanadischen	-8514
▁knallbunten	-8515
▁lohfarbener	-8516
▁nächtlichen	-8517
▁olympischen	-8518
▁politischen	-8519
▁schlafenden	-8520
▁schlafender	-8521
▁schreiendes	-8522
▁springenden	-8523
▁unglücklich	-8524
▁verbundenen	-8525
▁verteidigen	-8526
▁vorbereiten	-8527
▁Afrikanische	-8528
▁Auszeichnung	-8529
▁Babyschaukel	-8530
▁Fliesenboden	-8531
▁Footballteam	-8532
▁Kindergruppe	-8533
▁Lautsprecher	-8534
▁Marathonlauf	-8535
▁Pferderennen	-8536
▁Rollerskates	-8537
▁Schneehaufen	-8538
▁Schutzwesten	-8539
▁Seilschaukel	-8540
▁Steingebäude	-8541
▁Straßenlater	-8542
▁Wassermelone	-8543
▁Werkzeuggürt	-8544
▁Wintermantel	-8545
▁funktioniert	-8546
▁grauhaariger	-8547
▁hochklettert	-8548
▁langärmligen	-8549
▁neugeborenes	-8550
▁schwimmenden	-8551
▁traditionell	-8552
▁verdunkelten	-8553
▁weißhaariger	-8554
▁übereinander	-8555
▁überkreuzten	-8556
▁Backsteinwand	-8557
▁Balletttänzer	-8558
▁Blätterhaufen	-8559
▁Fahrradreifen	-8560
▁Fensterputzer	-8561
▁Geschäftsmann	-8562
▁Informationen	-8563
▁Laternenpfahl	-8564
▁Rettungsweste	-8565
▁Schaufenstern	-8566
▁Tennisspielen	-8567
▁Textnachricht	-8568
▁blondhaariges	-8569
▁einheimischer	-8570
▁interessanten	-8571
▁kreisförmigen	-8572
▁medizinischen	-8573
▁mexikanischen	-8574
▁schwarzweißen	-8575
▁Basketballkorb	-8576
▁Eishockeyspiel	-8577
▁Hochzeitsfeier	-8578
▁Konferenztisch	-8579
▁Motorradrennen	-8580
▁Operationssaal	-8581
▁Spielzeugpferd	-8582
▁Tenniskleidung	-8583
▁Wasserfahrzeug	-8584
▁ausgestrecktem	-8585
▁dunkelhaariges	-8586
▁einschließlich	-8587
▁Heißluftballons	-8588
▁Restaurantküche	-8589
▁Spielplatzgerät	-8590
▁Tauchausrüstung	-8591
▁Wasserskifahrer	-8592
▁Wissenschaftler	-8593
AR	-8594
Be	-8595
Cl	-8596
Ex	-8597
IN	-8598
In	-8599
MC	-8600
NI	-8601
Ob	-8602
So	-8603
To	-8604
UV	-8605
aj	-8606
hö	-8607
ii	-8608
ps	-8609
ra	-8610
rz	-8611
xi	-8612
“,	-8613
Aid	-8614
CEF	-8615
Ein	-8616
Kam	-8617
Spr	-8618
The	-8619
Tor	-8620
Ver	-8621
abe	-8622
aha	-8623
ait	-8624
aks	-8625
apr	-8626
aud	-8627
bab	-8628
bor	-8629
bot	-8630
cap	-8631
cur	-8632
ece	-8633
elz	-8634
enf	-8635
eno	-8636
ese	-8637
eup	-8638
eut	-8639
fuß	-8640
grä	-8641
iko	-8642
ird	-8643
irk	-8644
ite	-8645
ium	-8646
ixt	-8647
kol	-8648
lin	-8649
oos	-8650
sto	-8651
stö	-8652
uff	-8653
uma	-8654
urn	-8655
uts	-8656
vag	-8657
yro	-8658
äbe	-8659
öch	-8660
ölf	-8661
ürz	-8662
▁Ga	-8663
▁Ox	-8664
▁bü	-8665
▁ed	-8666
▁he	-8667
▁ju	-8668
▁rö	-8669
▁sü	-8670
▁ur	-8671
Auto	-8672
Ball	-8673
Eink	-8674
Feld	-8675
Kopf	-8676
Land	-8677
Logo	-8678
Love	-8679
Sand	-8680
Schw	-8681
Welt	-8682
abri	-8683
afte	-8684
ahlt	-8685
ails	-8686
akko	-8687
anbe	-8688
anie	-8689
arzt	-8690
auna	-8691
aune	-8692
baut	-8693
berr	-8694
bill	-8695
cert	-8696
dyll	-8697
edal	-8698
eedo	-8699
ehnt	-8700
eien	-8701
eilt	-8702
eish	-8703
emmt	-8704
enna	-8705
esel	-8706
fran	-8707
frei	-8708
fung	-8709
gers	-8710
gnor	-8711
grap	-8712
gren	-8713
hell	-8714
hler	-8715
holt	-8716
homa	-8717
host	-8718
iebs	-8719
ieft	-8720
ison	-8721
jahr	-8722
klus	-8723
kurr	-8724
laud	-8725
lten	-8726
mast	-8727
mähl	-8728
ocke	-8729
odil	-8730
olkl	-8731
oney	-8732
onik	-8733
rzte	-8734
ston	-8735
stro	-8736
stär	-8737
tier	-8738
trie	-8739
turm	-8740
urrt	-8741
vill	-8742
viol	-8743
wald	-8744
wink	-8745
zeln	-8746
zger	-8747
ztin	-8748
zzle	-8749
ähre	-8750
älte	-8751
öhnt	-8752
ölle	-8753
ösen	-8754
ügel	-8755
ülen	-8756
▁All	-8757
▁Alt	-8758
▁Arc	-8759
▁Brü	-8760
▁But	-8761
▁Cal	-8762
▁Cro	-8763
▁Elf	-8764
▁Fal	-8765
▁Fro	-8766
▁Gab	-8767
▁Got	-8768
▁Har	-8769
▁Hem	-8770
▁Hin	-8771
▁Hir	-8772
▁Hüh	-8773
▁Ins	-8774
▁Joe	-8775
▁Kle	-8776
▁Krü	-8777
▁Lot	-8778
▁Mac	-8779
▁Moh	-8780
▁Pos	-8781
▁Pub	-8782
▁Reh	-8783
▁Rod	-8784
▁SUV	-8785
▁Sho	-8786
▁Ter	-8787
▁Toy	-8788
▁Tub	-8789
▁UNI	-8790
▁Von	-8791
▁Wör	-8792
▁Zoo	-8793
▁abw	-8794
▁and	-8795
▁bed	-8796
▁fil	-8797
▁fru	-8798
▁gal	-8799
▁kam	-8800
▁kos	-8801
▁les	-8802
▁mel	-8803
▁nor	-8804
▁pur	-8805
▁rum	-8806
▁sod	-8807
▁typ	-8808
▁täg	-8809
▁une	-8810
▁wäl	-8811
Feuer	-8812
Gebäu	-8813
Jacke	-8814
Kugel	-8815
Laden	-8816
Stand	-8817
abass	-8818
ahlen	-8819
akers	-8820
akeup	-8821
alien	-8822
allel	-8823
amaha	-8824
ament	-8825
ammit	-8826
anker	-8827
anzös	-8828
apfen	-8829
apler	-8830
arena	-8831
artig	-8832
artik	-8833
ascar	-8834
asino	-8835
atzen	-8836
aufäl	-8837
bares	-8838
berqu	-8839
bkost	-8840
braun	-8841
bären	-8842
ckern	-8843
ditor	-8844
durch	-8845
echan	-8846
eitel	-8847
engel	-8848
enger	-8849
etang	-8850
euern	-8851
euers	-8852
fluss	-8853
gummi	-8854
hauer	-8855
holen	-8856
ieder	-8857
iente	-8858
ierig	-8859
iffer	-8860
iforn	-8861
igtem	-8862
ipper	-8863
iskol	-8864
itore	-8865
itzer	-8866
kamer	-8867
kanne	-8868
kegel	-8869
klame	-8870
kohle	-8871
latte	-8872
lichk	-8873
liest	-8874
linge	-8875
motiv	-8876
nchen	-8877
ograf	-8878
oskop	-8879
passt	-8880
press	-8881
regen	-8882
rolle	-8883
schar	-8884
seits	-8885
shaus	-8886
sters	-8887
strei	-8888
sturm	-8889
städt	-8890
stütz	-8891
terie	-8892
teter	-8893
teuer	-8894
ulter	-8895
ungss	-8896
urcht	-8897
urgen	-8898
ussel	-8899
volle	-8900
wegen	-8901
yline	-8902
ystem	-8903
zieht	-8904
ähnen	-8905
ästen	-8906
ünden	-8907
üsten	-8908
▁Alle	-8909
▁Allt	-8910
▁Atem	-8911
▁Benz	-8912
▁Brat	-8913
▁Bunt	-8914
▁Bust	-8915
▁Capr	-8916
▁Chem	-8917
▁Drag	-8918
▁Dreh	-8919
▁Ehem	-8920
▁Eich	-8921
▁Farm	-8922
▁Fein	-8923
▁Fond	-8924
▁Fuße	-8925
▁Föhn	-8926
▁Grab	-8927
▁Hahn	-8928
▁Heck	-8929
▁Holl	-8930
▁Inse	-8931
▁Kenn	-8932
▁Kino	-8933
▁Krok	-8934
▁Kund	-8935
▁Kurs	-8936
▁Lama	-8937
▁Leot	-8938
▁Logo	-8939
▁Mama	-8940
▁Mehr	-8941
▁Mich	-8942
▁Möwe	-8943
▁Neun	-8944
▁Okla	-8945
▁Pian	-8946
▁Prop	-8947
▁Rena	-8948
▁Rent	-8949
▁Rest	-8950
▁Shop	-8951
▁Sieb	-8952
▁Slam	-8953
▁Spir	-8954
▁Tutu	-8955
▁Verw	-8956
▁Weit	-8957
▁Zugs	-8958
▁bess	-8959
▁blät	-8960
▁drän	-8961
▁eleg	-8962
▁ents	-8963
▁flat	-8964
▁gehe	-8965
▁gekr	-8966
▁hand	-8967
▁haus	-8968
▁hier	-8969
▁hämm	-8970
▁kaum	-8971
▁knab	-8972
▁laub	-8973
▁lauf	-8974
▁live	-8975
▁lümm	-8976
▁mask	-8977
▁mass	-8978
▁mixt	-8979
▁müde	-8980
▁neug	-8981
▁ragt	-8982
▁reno	-8983
▁senf	-8984
▁wach	-8985
▁wild	-8986
▁wind	-8987
Kittel	-8988
Shorts	-8989
Skater	-8990
Statue	-8991
achtel	-8992
ackeln	-8993
agazin	-8994
aillen	-8995
aktion	-8996
angere	-8997
ansatz	-8998
arrang	-8999
artige	-9000
atisch	-9001
attoos	-9002
auchen	-9003
ballen	-9004
bringt	-9005
busses	-9006
denken	-9007
druckt	-9008
drängt	-9009
eidigt	-9010
enteil	-9011
ersitz	-9012
finger	-9013
funden	-9014
gangen	-9015
geroll	-9016
golden	-9017
helfer	-9018
iegelt	-9019
ietnam	-9020
indeln	-9021
inkend	-9022
irbelt	-9023
ispano	-9024
itrine	-9025
jungen	-9026
karton	-9027
kisten	-9028
klappe	-9029
klippe	-9030
lingen	-9031
messer	-9032
museum	-9033
möbeln	-9034
pfanne	-9035
puppen	-9036
rollen	-9037
röcken	-9038
schnur	-9039
shalle	-9040
solven	-9041
stapel	-9042
stchen	-9043
steine	-9044
stisch	-9045
streut	-9046
strüpp	-9047
stäben	-9048
stöcke	-9049
sänger	-9050
teiler	-9051
tracht	-9052
travag	-9053
ummert	-9054
undert	-9055
usikal	-9056
wehren	-9057
zieher	-9058
ändert	-9059
äufers	-9060
▁Absch	-9061
▁Affen	-9062
▁Apart	-9063
▁Autor	-9064
▁Bandk	-9065
▁Beruf	-9066
▁Bongo	-9067
▁Bunge	-9068
▁Chefk	-9069
▁Chips	-9070
▁Clubs	-9071
▁Colle	-9072
▁Deere	-9073
▁Defen	-9074
▁Eiern	-9075
▁Eines	-9076
▁Elast	-9077
▁Enkel	-9078
▁Erdbe	-9079
▁Essst	-9080
▁Flach	-9081
▁Frühl	-9082
▁Gebet	-9083
▁Gehör	-9084
▁Geish	-9085
▁Große	-9086
▁Großm	-9087
▁Größe	-9088
▁Haupt	-9089
▁Henna	-9090
▁Husky	-9091
▁Höhle	-9092
▁Hölle	-9093
▁Imbis	-9094
▁Jongl	-9095
▁Kälte	-9096
▁Kühen	-9097
▁Lande	-9098
▁Lesen	-9099
▁Lokom	-9100
▁Marki	-9101
▁Match	-9102
▁Meter	-9103
▁Misch	-9104
▁Mundh	-9105
▁Münzt	-9106
▁Nonne	-9107
▁Pfahl	-9108
▁Piers	-9109
▁Pingu	-9110
▁Pokal	-9111
▁Press	-9112
▁Raums	-9113
▁Roben	-9114
▁Rolle	-9115
▁Rotes	-9116
▁Rudel	-9117
▁Sakko	-9118
▁Seile	-9119
▁Sofas	-9120
▁Starb	-9121
▁Stepp	-9122
▁Stopp	-9123
▁Stütz	-9124
▁Sumor	-9125
▁Taxis	-9126
▁Teile	-9127
▁Trans	-9128
▁Wisch	-9129
▁Zeige	-9130
▁Zwill	-9131
▁Zügen	-9132
▁absol	-9133
▁anbie	-9134
▁ausru	-9135
▁belei	-9136
▁darum	-9137
▁dicke	-9138
▁drein	-9139
▁edlen	-9140
▁guten	-9141
▁gähnt	-9142
▁hatte	-9143
▁hinge	-9144
▁hätte	-9145
▁hügel	-9146
▁ident	-9147
▁idyll	-9148
▁ignor	-9149
▁kalte	-9150
▁lötet	-9151
▁neigt	-9152
▁prunk	-9153
▁reist	-9154
▁stürm	-9155
▁sägen	-9156
▁tiefe	-9157
▁toter	-9158
▁unruh	-9159
▁wegen	-9160
▁wirbt	-9161
Gebäude	-9162
Schuhen	-9163
Schwimm	-9164
ausflug	-9165
auslage	-9166
billard	-9167
blöcken	-9168
chenAid	-9169
debrett	-9170
denkmal	-9171
drücken	-9172
einiger	-9173
elligen	-9174
erunner	-9175
fielder	-9176
fußball	-9177
fzettel	-9178
getränk	-9179
gleiter	-9180
griffen	-9181
häusern	-9182
irlpool	-9183
issance	-9184
kleiden	-9185
kleider	-9186
klusive	-9187
komplex	-9188
ografie	-9189
oldaten	-9190
ordnung	-9191
ristall	-9192
rünette	-9193
scheint	-9194
schicht	-9195
schigen	-9196
semarkt	-9197
skostüm	-9198
stadion	-9199
stasiat	-9200
stärker	-9201
technik	-9202
trommel	-9203
udenten	-9204
werbung	-9205
zession	-9206
änzerin	-9207
ärtiger	-9208
üsslich	-9209
▁Abendd	-9210
▁Action	-9211
▁Ananas	-9212
▁Angeln	-9213
▁Angler	-9214
▁Anlage	-9215
▁Anlass	-9216
▁Banane	-9217
▁Barren	-9218
▁Basket	-9219
▁Bekann	-9220
▁Blusen	-9221
▁Bohrer	-9222
▁Boston	-9223
▁Buffet	-9224
▁Butter	-9225
▁Bärten	-9226
▁Deckel	-9227
▁Dingen	-9228
▁Doktor	-9229
▁Dritte	-9230
▁Fahren	-9231
▁Feldes	-9232
▁Flanke	-9233
▁Fleece	-9234
▁Flügel	-9235
▁Frisch	-9236
▁Funken	-9237
▁Gebäck	-9238
▁Gewäch	-9239
▁Glasur	-9240
▁Gottes	-9241
▁Hacken	-9242
▁Happen	-9243
▁Hürden	-9244
▁Irgend	-9245
▁Jetski	-9246
▁Kamele	-9247
▁Kanone	-9248
▁Keller	-9249
▁Kirsch	-9250
▁Kronen	-9251
▁Lebens	-9252
▁Lecker	-9253
▁Lenker	-9254
▁Löcher	-9255
▁Matsch	-9256
▁Matten	-9257
▁Mütter	-9258
▁Nacken	-9259
▁Nonnen	-9260
▁Oxford	-9261
▁Paddel	-9262
▁Pickup	-9263
▁Pinien	-9264
▁Podest	-9265
▁Raster	-9266
▁Rängen	-9267
▁Schere	-9268
▁Schwan	-9269
▁Singen	-9270
▁Snacks	-9271
▁Spagat	-9272
▁Speedo	-9273
▁Sprink	-9274
▁Steins	-9275
▁Strauß	-9276
▁Symbol	-9277
▁Talent	-9278
▁Tassen	-9279
▁Truppe	-9280
▁Tulpen	-9281
▁Töpfen	-9282
▁Töpfer	-9283
▁UNICEF	-9284
▁Unters	-9285
▁Wagens	-9286
▁Waldes	-9287
▁Wochen	-9288
▁Wörter	-9289
▁aufgem	-9290
▁aufgew	-9291
▁auszur	-9292
▁baufäl	-9293
▁behand	-9294
▁bellen	-9295
▁bieten	-9296
▁bildet	-9297
▁bügelt	-9298
▁daraus	-9299
▁duscht	-9300
▁erhebt	-9301
▁erkund	-9302
▁festge	-9303
▁freuen	-9304
▁galopp	-9305
▁gebeug	-9306
▁geland	-9307
▁getupf	-9308
▁grinst	-9309
▁grüßen	-9310
▁haupts	-9311
▁herauf	-9312
▁jugend	-9313
▁kahlen	-9314
▁kargen	-9315
▁kauern	-9316
▁kostet	-9317
▁körper	-9318
▁landen	-9319
▁langer	-9320
▁lecker	-9321
▁mechan	-9322
▁muslim	-9323
▁nahöst	-9324
▁nähern	-9325
▁offene	-9326
▁ordnet	-9327
▁pflügt	-9328
▁pracht	-9329
▁prüfen	-9330
▁purpur	-9331
▁ruhige	-9332
▁schott	-9333
▁sodass	-9334
▁sowohl	-9335
▁stimmt	-9336
▁tiefes	-9337
▁welche	-9338
▁wenige	-9339
▁wählen	-9340
Baseball	-9341
Festival	-9342
Künstler	-9343
artikeln	-9344
besucher	-9345
brettern	-9346
bstiften	-9347
fahrener	-9348
festival	-9349
geschirr	-9350
getasche	-9351
goldenen	-9352
ierungen	-9353
iskolben	-9354
jungfrau	-9355
kreuzung	-9356
laufbahn	-9357
motorrad	-9358
ogitarre	-9359
pistolen	-9360
schnallt	-9361
schwarze	-9362
sgebäude	-9363
stehende	-9364
stützung	-9365
treklame	-9366
zufinden	-9367
ähnliche	-9368
▁Akrobat	-9369
▁Anblick	-9370
▁Anzeige	-9371
▁Betrieb	-9372
▁Blöcken	-9373
▁Cockpit	-9374
▁Concert	-9375
▁Country	-9376
▁Cricket	-9377
▁Drähten	-9378
▁Dunking	-9379
▁Ehemann	-9380
▁Einheim	-9381
▁Eiscrem	-9382
▁Festzug	-9383
▁Gabelst	-9384
▁Glatzen	-9385
▁Grillen	-9386
▁Gummist	-9387
▁Holztür	-9388
▁Kimonos	-9389
▁Knochen	-9390
▁Kranich	-9391
▁Krücken	-9392
▁Kämpfer	-9393
▁Kühlbox	-9394
▁Lasters	-9395
▁Leitern	-9396
▁Lichter	-9397
▁Metzger	-9398
▁Notfall	-9399
▁Ordnung	-9400
▁Packung	-9401
▁Paddeln	-9402
▁Pendler	-9403
▁Posaune	-9404
▁Prüfung	-9405
▁Reitern	-9406
▁Schafen	-9407
▁Schalen	-9408
▁Schiene	-9409
▁Schleif	-9410
▁Schrank	-9411
▁Schwein	-9412
▁Schwung	-9413
▁Seetang	-9414
▁Sesseln	-9415
▁Skyline	-9416
▁Sooners	-9417
▁Spitzen	-9418
▁Sporter	-9419
▁Stachel	-9420
▁Statuen	-9421
▁Teammit	-9422
▁Trocken	-9423
▁Vorhang	-9424
▁Windsur	-9425
▁Wäschel	-9426
▁Ziegeln	-9427
▁ansetzt	-9428
▁antiken	-9429
▁applaud	-9430
▁befreit	-9431
▁bereits	-9432
▁brünett	-9433
▁bärtige	-9434
▁dunkles	-9435
▁enthält	-9436
▁erklärt	-9437
▁flieder	-9438
▁französ	-9439
▁gefilmt	-9440
▁gegrill	-9441
▁gehören	-9442
▁geküsst	-9443
▁gleiche	-9444
▁gleiten	-9445
▁grindet	-9446
▁knappen	-9447
▁konkurr	-9448
▁kriecht	-9449
▁kurzärm	-9450
▁langsam	-9451
▁musikal	-9452
▁organis	-9453
▁pflanzt	-9454
▁rangeln	-9455
▁scharfe	-9456
▁schönes	-9457
▁stapelt	-9458
▁verrück	-9459
▁verschl	-9460
▁verzerr	-9461
▁wachsen	-9462
▁weggeht	-9463
▁wirbeln	-9464
▁zuläuft	-9465
Bahnsteig	-9466
andschaft	-9467
ashington	-9468
berqueren	-9469
fahrzeugs	-9470
gemachten	-9471
geschenke	-9472
karussell	-9473
krempigen	-9474
maschinen	-9475
produkten	-9476
schbecken	-9477
schneidet	-9478
solventen	-9479
stöckigen	-9480
ungskraft	-9481
wanderweg	-9482
▁Absätzen	-9483
▁Aufdruck	-9484
▁Aufgaben	-9485
▁Ausblick	-9486
▁Ausdruck	-9487
▁Besitzer	-9488
▁Brünette	-9489
▁Bürgerkr	-9490
▁Dirigent	-9491
▁Dirtbike	-9492
▁Elasthan	-9493
▁Esswaren	-9494
▁Fahrradt	-9495
▁Freiheit	-9496
▁Gedanken	-9497
▁Gestrüpp	-9498
▁Hartholz	-9499
▁Hemdchen	-9500
▁Indische	-9501
▁Interess	-9502
▁Juwelier	-9503
▁Kleinbus	-9504
▁Kopfball	-9505
▁Krokodil	-9506
▁Maulesel	-9507
▁Miniatur	-9508
▁Muscheln	-9509
▁Münzfern	-9510
▁Notebook	-9511
▁Objekten	-9512
▁Oklahoma	-9513
▁Programm	-9514
▁Rückhand	-9515
▁Scheiben	-9516
▁Scheitel	-9517
▁Schießen	-9518
▁Schulbus	-9519
▁Schärpen	-9520
▁Sitzende	-9521
▁Skijacke	-9522
▁Skimütze	-9523
▁Skipiste	-9524
▁Spinnrad	-9525
▁Strähnen	-9526
▁Stäbchen	-9527
▁Superman	-9528
▁Synchron	-9529
▁Teppiche	-9530
▁Toilette	-9531
▁Trocknen	-9532
▁Verkaufs	-9533
▁Vorstadt	-9534
▁Wassersk	-9535
▁Zeitungs	-9536
▁albernen	-9537
▁auftritt	-9538
▁bedeckte	-9539
▁behinder	-9540
▁belebter	-9541
▁bergigen	-9542
▁beritten	-9543
▁besonder	-9544
▁blättert	-9545
▁bärtigen	-9546
▁einsames	-9547
▁entladen	-9548
▁extravag	-9549
▁gebunden	-9550
▁geduldig	-9551
▁gemalten	-9552
▁gleicher	-9553
▁glitzern	-9554
▁goldener	-9555
▁heiraten	-9556
▁kaputten	-9557
▁klammert	-9558
▁knabbert	-9559
▁knietief	-9560
▁langärml	-9561
▁laufende	-9562
▁liebkost	-9563
▁oberhalb	-9564
▁parallel	-9565
▁pfirsich	-9566
▁rasieren	-9567
▁riesiger	-9568
▁schaffen	-9569
▁schickes	-9570
▁schippen	-9571
▁schlanke	-9572
▁schließt	-9573
▁schwerer	-9574
▁seichtes	-9575
▁sichtbar	-9576
▁spielend	-9577
▁vorliest	-9578
▁vorwärts	-9579
▁winzigen	-9580
▁wolkigen	-9581
▁übergibt	-9582
Rennfahrer	-9583
Volleyball	-9584
Wettbewerb	-9585
absperrung	-9586
attraktion	-9587
gepflaster	-9588
lichkeiten	-9589
restaurant	-9590
schlagenen	-9591
strichenen	-9592
▁Aktivität	-9593
▁Angesicht	-9594
▁Anweisung	-9595
▁Apartment	-9596
▁Aufnahmen	-9597
▁Augenbrau	-9598
▁Bleistift	-9599
▁Broschüre	-9600
▁Chirurgen	-9601
▁Einkaufen	-9602
▁Einteiler	-9603
▁Esszimmer	-9604
▁Flohmarkt	-9605
▁Fotograph	-9606
▁Fundament	-9607
▁Geländern	-9608
▁Großküche	-9609
▁Halbkreis	-9610
▁Harmonika	-9611
▁Hinterrad	-9612
▁Holzkohle	-9613
▁Holzrampe	-9614
▁Holzstück	-9615
▁Hundeshow	-9616
▁Jeansrock	-9617
▁Korbleger	-9618
▁Krawatten	-9619
▁Lieblings	-9620
▁Notizbuch	-9621
▁Oberteile	-9622
▁Offiziere	-9623
▁Ohrhörern	-9624
▁Paintball	-9625
▁Passagier	-9626
▁Pressluft	-9627
▁Radfahren	-9628
▁Schaukeln	-9629
▁Schlangen	-9630
▁Schnauzer	-9631
▁Schwarzer	-9632
▁Schweißer	-9633
▁Schwimmen	-9634
▁Sonnenhut	-9635
▁SpongeBob	-9636
▁Starbucks	-9637
▁Steinwand	-9638
▁Volksfest	-9639
▁Wanderung	-9640
▁Wandtafel	-9641
▁Werkzeuge	-9642
▁Windjacke	-9643
▁Wohnmobil	-9644
▁Wohnwagen	-9645
▁abgewandt	-9646
▁angelehnt	-9647
▁angezeigt	-9648
▁befördert	-9649
▁deutscher	-9650
▁erwischen	-9651
▁fahrbaren	-9652
▁fliegende	-9653
▁führenden	-9654
▁gebückter	-9655
▁gefällten	-9656
▁gefärbten	-9657
▁gesichert	-9658
▁getackelt	-9659
▁gewaschen	-9660
▁hellroten	-9661
▁herstellt	-9662
▁indischen	-9663
▁inklusive	-9664
▁kariertes	-9665
▁kniehohen	-9666
▁langärmel	-9667
▁planschen	-9668
▁rasierten	-9669
▁schlanker	-9670
▁schließen	-9671
▁seltsames	-9672
▁spielende	-9673
▁stehendes	-9674
▁strahlend	-9675
▁trockenem	-9676
▁trockenes	-9677
▁unruhigem	-9678
▁verbringt	-9679
▁violettes	-9680
▁übernimmt	-9681
beleuchtung	-9682
gestreiftem	-9683
schulkinder	-9684
▁Angelruten	-9685
▁Aschenbahn	-9686
▁Ausführung	-9687
▁Badesachen	-9688
▁Bahngleise	-9689
▁Bauprojekt	-9690
▁Baustellen	-9691
▁Berggipfel	-9692
▁Blumenfeld	-9693
▁Blumentopf	-9694
▁Brautkleid	-9695
▁Darsteller	-9696
▁Doppeldeck	-9697
▁Einkäufern	-9698
▁Elektriker	-9699
▁Elektronik	-9700
▁Frühstücks	-9701
▁Geschichte	-9702
▁Geschirrsp	-9703
▁Handarbeit	-9704
▁Hinterteil	-9705
▁Innenseite	-9706
▁KitchenAid	-9707
▁Kontrabass	-9708
▁Laubbläser	-9709
▁Laubhaufen	-9710
▁Maiskolben	-9711
▁Meeresufer	-9712
▁Meerwasser	-9713
▁Müllbeutel	-9714
▁Outfielder	-9715
▁Pelzmantel	-9716
▁Rallyeauto	-9717
▁Rugbyspiel	-9718
▁Schläfchen	-9719
▁Schneewehe	-9720
▁Segelboote	-9721
▁Skistöcken	-9722
▁Sportlerin	-9723
▁Sportspiel	-9724
▁Sprühfarbe	-9725
▁Städtische	-9726
▁University	-9727
▁Unterseite	-9728
▁Verstärker	-9729
▁Werbetafel	-9730
▁Wäschekorb	-9731
▁abzuwehren	-9732
▁abzuwerfen	-9733
▁arbeitende	-9734
▁aufzuheben	-9735
▁diskutiert	-9736
▁frustriert	-9737
▁förmlicher	-9738
▁gefliesten	-9739
▁gefrorenen	-9740
▁genüsslich	-9741
▁gepflegten	-9742
▁ineinander	-9743
▁musizieren	-9744
▁neongrünen	-9745
▁rustikalen	-9746
▁schlummert	-9747
▁sportliche	-9748
▁tropischer	-9749
▁umeinander	-9750
▁unfertigen	-9751
▁verhindern	-9752
▁verspritzt	-9753
▁verstecken	-9754
▁verteidigt	-9755
Mannschaften	-9756
▁Absolventen	-9757
▁Angelschnur	-9758
▁Angestellte	-9759
▁Bassgitarre	-9760
▁Blumenkleid	-9761
▁Essstäbchen	-9762
▁Fensterbank	-9763
▁Feuerleiter	-9764
▁Fingernägel	-9765
▁Fischerboot	-9766
▁Flanellhemd	-9767
▁Fotographen	-9768
▁Geburtstags	-9769
▁Gehörschutz	-9770
▁Gemüsemarkt	-9771
▁Glasgebäude	-9772
▁Gruppenfoto	-9773
▁Hafenbecken	-9774
▁Haltestelle	-9775
▁Hausmeister	-9776
▁Klettergurt	-9777
▁Kunstmuseum	-9778
▁Küchentheke	-9779
▁Küchentisch	-9780
▁Langarmhemd	-9781
▁Liegestütze	-9782
▁Poolbillard	-9783
▁Radfahrerin	-9784
▁Renaissance	-9785
▁Reparaturen	-9786
▁Rockkonzert	-9787
▁Schneeengel	-9788
▁Schneehügel	-9789
▁Schuhputzer	-9790
▁Schulklasse	-9791
▁Seilrutsche	-9792
▁Sommerkleid	-9793
▁Steinstufen	-9794
▁Strafzettel	-9795
▁Strickjacke	-9796
▁Teammitglie	-9797
▁Tintenfisch	-9798
▁Töpferwaren	-9799
▁Universität	-9800
▁Wasserkante	-9801
▁Wäscheleine	-9802
▁angerichtet	-9803
▁angezogenes	-9804
▁ankommenden	-9805
▁ausgefallen	-9806
▁auszuführen	-9807
▁balancieren	-9808
▁baufälligen	-9809
▁beginnender	-9810
▁eingegraben	-9811
▁gelbbraunen	-9812
▁gespreizten	-9813
▁gestalteten	-9814
▁glücklicher	-9815
▁herausragen	-9816
▁idyllischen	-9817
▁knallgelben	-9818
▁kurzhaarige	-9819
▁lilafarbene	-9820
▁obdachloser	-9821
▁schmutzigem	-9822
▁schmutziger	-9823
▁umgedrehten	-9824
▁unterbricht	-9825
▁öffentliche	-9826
▁überwiegend	-9827
Veranstaltung	-9828
amerikanische	-9829
▁Bierflaschen	-9830
▁Dorfbewohner	-9831
▁Fahrradtrick	-9832
▁Felsenklippe	-9833
▁Fußballplatz	-9834
▁Gabelstapler	-9835
▁Gegenspieler	-9836
▁Hausaufgaben	-9837
▁Inlineskater	-9838
▁Jogginganzug	-9839
▁Meerjungfrau	-9840
▁Motorradhelm	-9841
▁Motorrollern	-9842
▁Männergruppe	-9843
▁Notenständer	-9844
▁Regenschirme	-9845
▁Schwimmhilfe	-9846
▁Sonnenschein	-9847
▁Spritzwasser	-9848
▁Stadtviertel	-9849
▁Tennisbällen	-9850
▁Vorbereitung	-9851
▁akrobatische	-9852
▁altmodischer	-9853
▁ausländische	-9854
▁beschnüffelt	-9855
▁demonstriert	-9856
▁dunkelgrünen	-9857
▁entlangfährt	-9858
▁geschminkter	-9859
▁goldfarbener	-9860
▁hellhäutigen	-9861
▁indianischer	-9862
▁lilafarbenem	-9863
▁lilafarbenes	-9864
▁medizinische	-9865
▁militärische	-9866
▁mittelgroßen	-9867
▁nacheinander	-9868
▁prachtvollen	-9869
▁rosafarbenes	-9870
▁vorbeilaufen	-9871
▁zweiteiligen	-9872
▁öffentlicher	-9873
Fußballspieler	-9874
▁Absatzschuhen	-9875
▁Blumenmädchen	-9876
▁Felsformation	-9877
▁Fußballspiels	-9878
▁Gartenstühlen	-9879
▁Gerätschaften	-9880
▁Gesichtsmaske	-9881
▁Glatzenansatz	-9882
▁Holzplattform	-9883
▁Kunsthandwerk	-9884
▁Mundharmonika	-9885
▁Protestschild	-9886
▁Schnappschuss	-9887
▁Schneidebrett	-9888
▁Schuhgeschäft	-9889
▁Skiausrüstung	-9890
▁Sportereignis	-9891
▁Sportgeschäft	-9892
▁Taucherbrille	-9893
▁Telefonmasten	-9894
▁Töpferscheibe	-9895
▁Umhängetasche	-9896
▁Unterstützung	-9897
▁Wasserfontäne	-9898
▁Wintermänteln	-9899
▁Zusammenkunft	-9900
▁afrikanisches	-9901
▁ausländischen	-9902
▁baumgesäumten	-9903
▁cremefarbenen	-9904
▁dunkelbrauner	-9905
▁hauptsächlich	-9906
▁hinunterfährt	-9907
▁laubbedeckten	-9908
▁unbefestigtem	-9909
▁verschiedener	-9910
▁Abenddämmerung	-9911
▁Badebekleidung	-9912
▁Baseballkappen	-9913
▁Baseballspiels	-9914
▁Baseballwerfer	-9915
▁Basketballwurf	-9916
▁Bikinioberteil	-9917
▁Elektrogitarre	-9918
▁Feuerwehrwagen	-9919
▁Geschäftsanzug	-9920
▁Hockeyschläger	-9921
▁Kricketspieler	-9922
▁Militäruniform	-9923
▁Schokoladeneis	-9924
▁Sonnenschirmen	-9925
▁Untergrundbahn	-9926
▁Wasserschlauch	-9927
▁breitkrempigen	-9928
▁grasbewachsene	-9929
▁orientalischen	-9930
▁vorbeigehenden	-9931
▁Bandmitgliedern	-9932
▁Basketballplatz	-9933
▁Fahrradgeschäft	-9934
▁Kleidungsstücke	-9935
▁Leopardenmuster	-9936
▁Restauranttisch	-9937
▁Rückenschwimmen	-9938
▁Straßenarbeiten	-9939
▁Treppengeländer	-9940
▁grasbewachsenes	-9941
▁schwarzhaariger	-9942
AT	-9943
IG	-9944
Kr	-9945
Le	-9946
MA	-9947
Mo	-9948
ON	-9949
Po	-9950
bö	-9951
cc	-9952
da	-9953
gs	-9954
gy	-9955
hy	-9956
lö	-9957
pu	-9958
rd	-9959
sl	-9960
so	-9961
va	-9962
äs	-9963
üf	-9964
▁“	-9965
Anz	-9966
Arm	-9967
Eis	-9968
Lkw	-9969
Mar	-9970
Mon	-9971
Ski	-9972
abt	-9973
ada	-9974
ame	-9975
apf	-9976
awk	-9977
axi	-9978
bug	-9979
cue	-9980
day	-9981
erz	-9982
hio	-9983
höh	-9984
ido	-9985
iki	-9986
ila	-9987
inj	-9988
jen	-9989
jub	-9990
krü	-9991
kur	-9992
ley	-9993
lig	-9994
lik	-9995
lle	-9996
obo	-9997
ook	-9998
ora	-9999
hi	-10000
lu	-10001
Car	-10002
Wel	-10003
geh	-10004
hil	-10005
ics	-10006
orl	-10007
phä	-10008
ras	-10009
tro	-10010
upc	-10011
wan	-10012
ycl	-10013
zut	-10014
ßes	-10015
ßig	-10016
äol	-10017
ümp	-10018
ünd	-10019
▁Ag	-10020
▁Ap	-10021
▁DS	-10022
▁No	-10023
▁OU	-10024
▁Th	-10025
▁VW	-10026
▁em	-10027
▁pu	-10028
▁zö	-10029
Aren	-10030
Boot	-10031
Cart	-10032
Flug	-10033
Lauf	-10034
Rock	-10035
Roll	-10036
Show	-10037
Talk	-10038
Weiß	-10039
Welc	-10040
aber	-10041
achi	-10042
achs	-10043
ador	-10044
afon	-10045
agel	-10046
agle	-10047
akul	-10048
amas	-10049
amik	-10050
angs	-10051
annt	-10052
anta	-10053
ante	-10054
ants	-10055
apft	-10056
appe	-10057
arty	-10058
aste	-10059
atex	-10060
atür	-10061
aunt	-10062
aßen	-10063
beam	-10064
bend	-10065
bies	-10066
blem	-10067
blon	-10068
bren	-10069
bten	-10070
egas	-10071
elch	-10072
ells	-10073
emor	-10074
endr	-10075
fang	-10076
ffel	-10077
folg	-10078
food	-10079
frig	-10080
fuhr	-10081
füll	-10082
hals	-10083
hist	-10084
hock	-10085
hoot	-10086
höhe	-10087
ickn	-10088
iebt	-10089
iede	-10090
igan	-10091
ille	-10092
imit	-10093
inal	-10094
inar	-10095
ions	-10096
itty	-10097
itän	-10098
ivan	-10099
-,	-10100
..	-10101
ER	-10102
KE	-10103
bä	-10104
yd	-10105
Gel	-10106
Pro	-10107
emm	-10108
eng	-10109
ens	-10110
fin	-10111
rer	-10112
ugs	-10113
▁Pi	-10114
ales	-10115
eman	-10116
kade	-10117
kett	-10118
kler	-10119
krem	-10120
kter	-10121
llie	-10122
lump	-10123
malt	-10124
matr	-10125
maus	-10126
mest	-10127
mpfe	-10128
mtem	-10129
nase	-10130
nten	-10131
okus	-10132
omie	-10133
opft	-10134
orak	-10135
orld	-10136
otst	-10137
otte	-10138
owns	-10139
oyer	-10140
oßen	-10141
pose	-10142
pper	-10143
quet	-10144
rist	-10145
rott	-10146
rten	-10147
same	-10148
ssch	-10149
sste	-10150
steg	-10151
stoß	-10152
tanz	-10153
teig	-10154
teth	-10155
tief	-10156
topf	-10157
trem	-10158
uche	-10159
unch	-10160
unte	-10161
urai	-10162
uter	-10163
viet	-10164
wagg	-10165
wass	-10166
weck	-10167
weif	-10168
wein	-10169
wohn	-10170
wood	-10171
zack	-10172
zahn	-10173
zend	-10174
zept	-10175
zest	-10176
ähte	-10177
ämme	-10178
änze	-10179
ärmt	-10180
äuch	-10181
äuel	-10182
ömen	-10183
öpft	-10184
ötze	-10185
üche	-10186
üsch	-10187
üßes	-10188
▁Afr	-10189
▁Ass	-10190
▁BMW	-10191
▁Big	-10192
▁Bod	-10193
▁Bon	-10194
▁Bud	-10195
▁Cen	-10196
▁Cir	-10197
▁Cre	-10198
▁Cur	-10199
▁Dal	-10200
▁Dem	-10201
▁Dia	-10202
▁Eck	-10203
▁Fac	-10204
▁Fed	-10205
▁Fei	-10206
▁Fot	-10207
▁Gap	-10208
▁Gut	-10209
▁Jag	-10210
▁Jal	-10211
▁Kid	-10212
▁Kol	-10213
▁Las	-10214
▁Los	-10215
▁Lou	-10216
▁Lut	-10217
▁Mad	-10218
▁Nag	-10219
▁Nat	-10220
▁Ori	-10221
▁Pak	-10222
▁Pan	-10223
▁Pot	-10224
▁Rep	-10225
▁Sco	-10226
▁Sel	-10227
▁Tam	-10228
▁Umr	-10229
▁Unk	-10230
▁Vis	-10231
▁Web	-10232
▁Wee	-10233
▁Wii	-10234
▁Wim	-10235
▁Wok	-10236
▁alt	-10237
▁anf	-10238
▁bez	-10239
▁bit	-10240
▁dad	-10241
▁dre	-10242
▁gig	-10243
▁hän	-10244
▁jed	-10245
▁kul	-10246
▁kön	-10247
▁maj	-10248
▁mal	-10249
▁rad	-10250
▁rie	-10251
▁run	-10252
▁süd	-10253
▁tex	-10254
▁trö	-10255
▁ört	-10256
Arena	-10257
Armee	-10258
Hosen	-10259
Kunst	-10260
Musik	-10261
Puppe	-10262
Schau	-10263
Sport	-10264
Texas	-10265
Unter	-10266
abine	-10267
ackel	-10268
adrat	-10269
agenz	-10270
agner	-10271
agten	-10272
ahmte	-10273
aktiv	-10274
album	-10275
andem	-10276
andid	-10277
annel	-10278
antes	-10279
anzer	-10280
anzig	-10281
aphon	-10282
arbie	-10283
ashow	-10284
atown	-10285
aucht	-10286
banen	-10287
bauen	-10288
bruch	-10289
buggy	-10290
bäume	-10291
chert	-10292
derin	-10293
dosen	-10294
drink	-10295
elett	-10296
ember	-10297
ertig	-10298
estät	-10299
ettet	-10300
euzen	-10301
feder	-10302
flöte	-10303
folie	-10304
fotos	-10305
gelbe	-10306
gesch	-10307
gespr	-10308
geste	-10309
gitar	-10310
gners	-10311
graue	-10312
gräbt	-10313
guckt	-10314
haben	-10315
hakis	-10316
hlten	-10317
hnten	-10318
höhle	-10319
iachi	-10320
iegen	-10321
ienst	-10322
igeun	-10323
igter	-10324
ility	-10325
illas	-10326
ineal	-10327
iness	-10328
intet	-10329
ionen	-10330
irkus	-10331
irurg	-10332
itekt	-10333
itish	-10334
käfig	-10335
kämpf	-10336
lesen	-10337
malen	-10338
netze	-10339
obern	-10340
offee	-10341
olleg	-10342
ometr	-10343
ongle	-10344
orben	-10345
orist	-10346
osaik	-10347
ouill	-10348
ppent	-10349
pulen	-10350
rauch	-10351
reihe	-10352
rohre	-10353
rotem	-10354
schee	-10355
shirt	-10356
spieß	-10357
sraum	-10358
stüte	-10359
teria	-10360
tigen	-10361
truck	-10362
trägt	-10363
ubsen	-10364
uitar	-10365
ullen	-10366
utens	-10367
utsch	-10368
vogel	-10369
wasch	-10370
wechs	-10371
weilt	-10372
welle	-10373
zeugt	-10374
ählen	-10375
äkelt	-10376
äldes	-10377
örder	-10378
ötzen	-10379
ümpel	-10380
▁Bast	-10381
▁Beob	-10382
▁Blum	-10383
▁Boje	-10384
▁Burg	-10385
▁Camc	-10386
▁Cany	-10387
▁Cast	-10388
▁Chev	-10389
▁Corg	-10390
▁Cupc	-10391
▁Doll	-10392
▁East	-10393
▁Eins	-10394
▁Erhe	-10395
▁Fach	-10396
▁Farn	-10397
▁Fire	-10398
▁Ford	-10399
▁Ganz	-10400
▁Gast	-10401
▁Graf	-10402
▁Hack	-10403
▁Heil	-10404
▁Hero	-10405
▁Jazz	-10406
▁Just	-10407
▁Kipp	-10408
▁Klub	-10409
▁Komm	-10410
▁Korn	-10411
▁Leck	-10412
▁Lehr	-10413
▁Life	-10414
▁Limo	-10415
▁Lkws	-10416
▁Loll	-10417
▁Long	-10418
▁Lupe	-10419
▁Malb	-10420
▁Mand	-10421
▁Mart	-10422
▁Maus	-10423
▁Menü	-10424
▁Mets	-10425
▁Mike	-10426
▁Minn	-10427
▁Muff	-10428
▁Mult	-10429
▁Must	-10430
▁Nahr	-10431
▁Ninj	-10432
▁Oben	-10433
▁Pilz	-10434
▁Port	-10435
▁Prit	-10436
▁Puma	-10437
▁Rass	-10438
▁Ritu	-10439
▁Rund	-10440
▁Satz	-10441
▁Sehr	-10442
▁Side	-10443
▁Sign	-10444
▁Solo	-10445
▁Spar	-10446
▁Spät	-10447
▁Ster	-10448
▁Strü	-10449
▁Tack	-10450
▁Tast	-10451
▁Ukul	-10452
▁Verb	-10453
▁Verl	-10454
▁Wade	-10455
▁Wahl	-10456
▁Wahr	-10457
▁Ware	-10458
▁Weib	-10459
▁Wend	-10460
▁Zent	-10461
▁Zopf	-10462
▁arch	-10463
▁auft	-10464
▁aufw	-10465
▁boxt	-10466
▁dort	-10467
▁dram	-10468
▁engl	-10469
▁entz	-10470
▁erör	-10471
▁flei	-10472
▁gern	-10473
▁gewe	-10474
▁grob	-10475
▁grus	-10476
▁habe	-10477
▁inne	-10478
▁ital	-10479
▁lind	-10480
▁lugt	-10481
▁läss	-10482
▁moll	-10483
▁moos	-10484
▁oliv	-10485
▁pelz	-10486
▁plau	-10487
▁proj	-10488
▁riss	-10489
▁schu	-10490
▁sehe	-10491
▁seht	-10492
▁sign	-10493
▁verg	-10494
▁vorm	-10495
▁weht	-10496
▁wirk	-10497
▁wohl	-10498
▁zeit	-10499
▁zott	-10500
Gruppe	-10501
Jungen	-10502
Klasse	-10503
Muster	-10504
Plakat	-10505
Schlag	-10506
Talkie	-10507
Tasche	-10508
altete	-10509
amaran	-10510
ammelt	-10511
ampelt	-10512
ascara	-10513
astell	-10514
ations	-10515
atland	-10516
aucher	-10517
bagger	-10518
bahnen	-10519
benden	-10520
biente	-10521
bieren	-10522
bstanz	-10523
bummel	-10524
bänder	-10525
bänken	-10526
bücher	-10527
decken	-10528
dienst	-10529
druckr	-10530
drückt	-10531
eimnis	-10532
ellack	-10533
ellten	-10534
esteck	-10535
farbig	-10536
ffnung	-10537
fliegt	-10538
froren	-10539
fächer	-10540
fäller	-10541
gefähr	-10542
gelbes	-10543
gewöhn	-10544
graues	-10545
größer	-10546
hallen	-10547
hantel	-10548
heiten	-10549
hilfen	-10550
hleten	-10551
hunden	-10552
häuser	-10553
hügeln	-10554
iebene	-10555
iertel	-10556
imbiss	-10557
indung	-10558
inzess	-10559
ippten	-10560
isiert	-10561
itäter	-10562
jekten	-10563
kettet	-10564
klaren	-10565
kunden	-10566
laggen	-10567
leuten	-10568
losion	-10569
mallow	-10570
mengen	-10571
merzen	-10572
ontier	-10573
ooping	-10574
ortler	-10575
parade	-10576
pflegt	-10577
pielen	-10578
pieler	-10579
planke	-10580
podest	-10581
putzen	-10582
rechte	-10583
reifer	-10584
reihen	-10585
reisen	-10586
reiten	-10587
räumen	-10588
schaum	-10589
schlei	-10590
schuhl	-10591
sladen	-10592
spange	-10593
spitze	-10594
spunkt	-10595
sspiel	-10596
steins	-10597
stofft	-10598
stätte	-10599
säcken	-10600
termin	-10601
trennt	-10602
uckter	-10603
uddelt	-10604
umente	-10605
umhang	-10606
urfing	-10607
ustern	-10608
utzend	-10609
villon	-10610
wandte	-10611
weiser	-10612
willig	-10613
wister	-10614
wänden	-10615
yropor	-10616
zernes	-10617
zäunte	-10618
zünden	-10619
öpfige	-10620
öpften	-10621
üffeln	-10622
ümchen	-10623
üstern	-10624
üttert	-10625
▁Ahorn	-10626
▁Altar	-10627
▁Amish	-10628
▁Arten	-10629
▁Besch	-10630
▁Blond	-10631
▁Broad	-10632
▁Bucht	-10633
▁Buden	-10634
▁Cabri	-10635
▁Cargo	-10636
▁Champ	-10637
▁Chore	-10638
▁Coney	-10639
▁Cross	-10640
▁Dampf	-10641
▁Einst	-10642
▁Ellen	-10643
▁Ernte	-10644
▁Eseln	-10645
▁Felds	-10646
▁Filmp	-10647
▁First	-10648
▁Fleck	-10649
▁Fokus	-10650
▁Frack	-10651
▁Frank	-10652
▁Frise	-10653
▁Fähre	-10654
▁Gewür	-10655
▁Gleit	-10656
▁Green	-10657
▁Grube	-10658
▁Halte	-10659
▁Hecke	-10660
▁Herde	-10661
▁Herzt	-10662
▁Jacks	-10663
▁Kapuz	-10664
▁Kekse	-10665
▁Kelle	-10666
▁Kinds	-10667
▁Kliff	-10668
▁Krone	-10669
▁Käfer	-10670
▁Lader	-10671
▁Latex	-10672
▁Läden	-10673
▁Lösch	-10674
▁Marke	-10675
▁Mixer	-10676
▁Model	-10677
▁Motiv	-10678
▁Musch	-10679
▁Nudel	-10680
▁Obama	-10681
▁Offen	-10682
▁Ollie	-10683
▁Pappt	-10684
▁Pfann	-10685
▁Pirat	-10686
▁Posen	-10687
▁Puder	-10688
▁Pulli	-10689
▁Rings	-10690
▁Rohre	-10691
▁Salon	-10692
▁Sauna	-10693
▁Schie	-10694
▁Shopp	-10695
▁Short	-10696
▁Sparr	-10697
▁Sprün	-10698
▁Söhne	-10699
▁Tabak	-10700
▁Techn	-10701
▁Toast	-10702
▁Torte	-10703
▁Tutus	-10704
▁Umarm	-10705
▁Vegas	-10706
▁Waage	-10707
▁Wache	-10708
▁Weges	-10709
▁Weise	-10710
▁Weiße	-10711
▁Zebra	-10712
▁Zweck	-10713
▁Zwölf	-10714
▁Zügel	-10715
▁abzus	-10716
▁allen	-10717
▁bellt	-10718
▁beweg	-10719
▁bewir	-10720
▁blass	-10721
▁block	-10722
▁busch	-10723
▁bäuch	-10724
▁coole	-10725
▁daste	-10726
▁dehnt	-10727
▁drauf	-10728
▁duckt	-10729
▁dösen	-10730
▁eilen	-10731
▁entle	-10732
▁erfor	-10733
▁erste	-10734
▁fegen	-10735
▁feier	-10736
▁fitte	-10737
▁föhnt	-10738
▁ganze	-10739
▁geeig	-10740
▁gehäu	-10741
▁gitar	-10742
▁grüßt	-10743
▁harkt	-10744
▁innen	-10745
▁kräft	-10746
▁laden	-10747
▁liebe	-10748
▁motor	-10749
▁offiz	-10750
▁prakt	-10751
▁rasen	-10752
▁reibt	-10753
▁reißt	-10754
▁rockt	-10755
▁sagen	-10756
▁sanft	-10757
▁schäb	-10758
▁sonnt	-10759
▁spekt	-10760
▁stach	-10761
▁süßes	-10762
▁unsch	-10763
▁verst	-10764
▁volle	-10765
▁weite	-10766
▁wicht	-10767
▁wirkt	-10768
▁wühlt	-10769
▁wüten	-10770
▁zerle	-10771
▁zöger	-10772
▁ängst	-10773
Anzeige	-10774
Bahnhof	-10775
Einkauf	-10776
Gelände	-10777
Overall	-10778
Turnier	-10779
Uniform	-10780
Welcome	-10781
ackenen	-10782
allenge	-10783
alocken	-10784
anische	-10785
bauwerk	-10786
beamter	-10787
bechern	-10788
berdach	-10789
bestand	-10790
braunes	-10791
brenner	-10792
bringen	-10793
elladen	-10794
endruck	-10795
ertisch	-10796
euchtet	-10797
fahrers	-10798
flocken	-10799
friseur	-10800
förmige	-10801
gebilde	-10802
gelegen	-10803
gemälde	-10804
gericht	-10805
gesetzt	-10806
hooting	-10807
ienhaus	-10808
intendo	-10809
ituosen	-10810
kameras	-10811
kindern	-10812
körpern	-10813
lichter	-10814
läufern	-10815
marktes	-10816
matiner	-10817
mähltes	-10818
nackter	-10819
oboskop	-10820
ontiere	-10821
packten	-10822
pflanze	-10823
pfleger	-10824
rennens	-10825
schlend	-10826
schloss	-10827
schwimm	-10828
schüler	-10829
skörper	-10830
spazier	-10831
spitzen	-10832
splatte	-10833
stangen	-10834
stiften	-10835
stützen	-10836
taschen	-10837
teppich	-10838
trainer	-10839
traktor	-10840
treppen	-10841
triever	-10842
ungenen	-10843
ungslos	-10844
ursalon	-10845
utender	-10846
utzende	-10847
äckchen	-10848
ähnchen	-10849
ändigen	-10850
öckchen	-10851
▁Abfall	-10852
▁Alltag	-10853
▁Angels	-10854
▁Anorak	-10855
▁Arcade	-10856
▁Arkade	-10857
▁Astron	-10858
▁Barbie	-10859
▁Barett	-10860
▁Baucht	-10861
▁Beagle	-10862
▁Bereit	-10863
▁Blüten	-10864
▁Boards	-10865
▁Boxers	-10866
▁Bungee	-10867
▁Burger	-10868
▁Button	-10869
▁Coucht	-10870
▁Donuts	-10871
▁Drinks	-10872
▁Dusche	-10873
▁Fertig	-10874
▁Feuers	-10875
▁Flugbe	-10876
▁Frosch	-10877
▁Frucht	-10878
▁Fällen	-10879
▁Fässer	-10880
▁Fäuste	-10881
▁Gedenk	-10882
▁Geisha	-10883
▁Geräte	-10884
▁Glocke	-10885
▁Gläser	-10886
▁Halstü	-10887
▁Helfer	-10888
▁Hügeln	-10889
▁Hühner	-10890
▁Hütten	-10891
▁Island	-10892
▁Jahren	-10893
▁Jalous	-10894
▁Jongle	-10895
▁Junges	-10896
▁Kandid	-10897
▁Kassen	-10898
▁Khakis	-10899
▁Klötze	-10900
▁Kochen	-10901
▁Korken	-10902
▁Krabbe	-10903
▁Kugeln	-10904
▁Kultur	-10905
▁Lakers	-10906
▁Latein	-10907
▁Latten	-10908
▁Marine	-10909
▁Maurer	-10910
▁Medien	-10911
▁Mickey	-10912
▁Mitten	-10913
▁Mosaik	-10914
▁Mönche	-10915
▁Nahost	-10916
▁Netzen	-10917
▁Ordner	-10918
▁Pfauen	-10919
▁Pferds	-10920
▁Poncho	-10921
▁Pulver	-10922
▁Punkte	-10923
▁Puzzle	-10924
▁Radweg	-10925
▁Reiher	-10926
▁Ritter	-10927
▁School	-10928
▁Silber	-10929
▁Skates	-10930
▁Sketch	-10931
▁Speerw	-10932
▁Spiele	-10933
▁Spuren	-10934
▁Steaks	-10935
▁Stoffe	-10936
▁Säcken	-10937
▁Söhnen	-10938
▁Taille	-10939
▁Tambur	-10940
▁Tandem	-10941
▁Termin	-10942
▁Toyota	-10943
▁Tunika	-10944
▁Vierer	-10945
▁Vorbei	-10946
▁Walkie	-10947
▁Warten	-10948
▁Weizen	-10949
▁Zahlen	-10950
▁Zirkus	-10951
▁Zweige	-10952
▁albert	-10953
▁angeln	-10954
▁anhält	-10955
▁arrang	-10956
▁aufwir	-10957
▁backen	-10958
▁bergab	-10959
▁beugen	-10960
▁bitten	-10961
▁bittet	-10962
▁blasen	-10963
▁bleckt	-10964
▁bloßen	-10965
▁brennt	-10966
▁danach	-10967
▁denken	-10968
▁divers	-10969
▁drehen	-10970
▁drängt	-10971
▁durchn	-10972
▁dünner	-10973
▁eingeb	-10974
▁eingeh	-10975
▁entsch	-10976
▁ernten	-10977
▁falsch	-10978
▁finden	-10979
▁flache	-10980
▁gefert	-10981
▁geholt	-10982
▁gehört	-10983
▁gelang	-10984
▁geschw	-10985
▁gigant	-10986
▁hacken	-10987
▁hellem	-10988
▁jedoch	-10989
▁kaltes	-10990
▁klarem	-10991
▁kniend	-10992
▁knurrt	-10993
▁latein	-10994
▁lauter	-10995
▁lesend	-10996
▁messen	-10997
▁metall	-10998
▁modern	-10999
▁müssen	-11000
▁prahlt	-11001
▁proben	-11002
▁qualmt	-11003
▁rasten	-11004
▁rastet	-11005
▁redend	-11006
▁räumen	-11007
▁sausen	-11008
▁schräg	-11009
▁skaten	-11010
▁spülen	-11011
▁stemmt	-11012
▁stramm	-11013
▁streut	-11014
▁stutzt	-11015
▁testen	-11016
▁transp	-11017
▁trübes	-11018
▁umgibt	-11019
▁unüber	-11020
▁verreg	-11021
▁vieler	-11022
▁warmer	-11023
▁weicht	-11024
▁weiten	-11025
▁winter	-11026
▁wollen	-11027
▁wärmen	-11028
▁zerren	-11029
▁zielen	-11030
▁zwickt	-11031
▁ändert	-11032
Flugzeug	-11033
Pullover	-11034
akulären	-11035
anhänger	-11036
aufdruck	-11037
bereichs	-11038
betriebs	-11039
bärtiger	-11040
dentisch	-11041
ettboden	-11042
farbiger	-11043
fransten	-11044
fußboden	-11045
förmiges	-11046
gehenden	-11047
händlers	-11048
häuschen	-11049
hörnchen	-11050
ifornien	-11051
leinwand	-11052
lichkeit	-11053
liegende	-11054
läuferin	-11055
marathon	-11056
mestudio	-11057
monitore	-11058
objektiv	-11059
onisches	-11060
personen	-11061
pflegter	-11062
piercing	-11063
rädrigen	-11064
scheiben	-11065
sprenger	-11066
sstation	-11067
stlingen	-11068
strecken	-11069
strümpfe	-11070
ständigt	-11071
terrasse	-11072
torhüter	-11073
training	-11074
uadraten	-11075
ungsraum	-11076
ungsvoll	-11077
willigen	-11078
zestatue	-11079
zukommen	-11080
▁Abfluss	-11081
▁Abfälle	-11082
▁Agility	-11083
▁Apparat	-11084
▁Ausland	-11085
▁Balance	-11086
▁Baseman	-11087
▁Bassist	-11088
▁Beamten	-11089
▁Besteck	-11090
▁Blonder	-11091
▁Blondes	-11092
▁Bootsan	-11093
▁Bretter	-11094
▁British	-11095
▁Bustier	-11096
▁Bändern	-11097
▁Campern	-11098
▁Curling	-11099
▁Designs	-11100
▁Diashow	-11101
▁Drummer	-11102
▁Eiskrem	-11103
▁Enkelin	-11104
▁Erinner	-11105
▁Farbspr	-11106
▁Fechter	-11107
▁Filmset	-11108
▁Fließen	-11109
▁Fässern	-11110
▁Galerie	-11111
▁Gastron	-11112
▁Gebirge	-11113
▁Gebüsch	-11114
▁Gefährt	-11115
▁Gegners	-11116
▁Gewehre	-11117
▁Gärtner	-11118
▁Haustür	-11119
▁Headset	-11120
▁Hintern	-11121
▁Hispano	-11122
▁Hörnern	-11123
▁Inderin	-11124
▁Kabinen	-11125
▁Karaoke	-11126
▁Keramik	-11127
▁Kiesweg	-11128
▁Kitesur	-11129
▁Klippen	-11130
▁Kneipen	-11131
▁Laterne	-11132
▁Lenkrad	-11133
▁Leotard	-11134
▁Machete	-11135
▁Magazin	-11136
▁Mascara	-11137
▁Matador	-11138
▁Megafon	-11139
▁Mexikan	-11140
▁Minivan	-11141
▁Monster	-11142
▁Moschee	-11143
▁Mündern	-11144
▁Ohrring	-11145
▁Parkweg	-11146
▁Passant	-11147
▁Pelikan	-11148
▁Platzes	-11149
▁Problem	-11150
▁Propang	-11151
▁Reagenz	-11152
▁Rentier	-11153
▁Rüschen	-11154
▁Rüstung	-11155
▁Samurai	-11156
▁Sandale	-11157
▁Schluck	-11158
▁Schreib	-11159
▁Schwamm	-11160
▁Schwarm	-11161
▁Seesack	-11162
▁Serviet	-11163
▁Skelett	-11164
▁Spanien	-11165
▁Sprungs	-11166
▁Ständen	-11167
▁Tattoos	-11168
▁Torwart	-11169
▁Treffen	-11170
▁Ukulele	-11171
▁Unkraut	-11172
▁Urlaubs	-11173
▁Viertel	-11174
▁Wäldern	-11175
▁Zombies	-11176
▁Zukunft	-11177
▁Zweigen	-11178
▁Zweirad	-11179
▁abseits	-11180
▁basteln	-11181
▁bemalte	-11182
▁bergauf	-11183
▁betreut	-11184
▁breites	-11185
▁breitet	-11186
▁buddelt	-11187
▁bummeln	-11188
▁chirurg	-11189
▁durchge	-11190
▁einfach	-11191
▁einhänd	-11192
▁einsame	-11193
▁erinner	-11194
▁flachem	-11195
▁gebräun	-11196
▁gebückt	-11197
▁gekauft	-11198
▁geometr	-11199
▁gesenkt	-11200
▁getraut	-11201
▁gewandt	-11202
▁gewinnt	-11203
▁glätten	-11204
▁glättet	-11205
▁hellros	-11206
▁hintere	-11207
▁hämmert	-11208
▁italien	-11209
▁kleinem	-11210
▁lebhaft	-11211
▁leisten	-11212
▁lümmelt	-11213
▁modisch	-11214
▁neugier	-11215
▁oranges	-11216
▁patriot	-11217
▁prallen	-11218
▁quadrat	-11219
▁rosarot	-11220
▁schickt	-11221
▁schöpft	-11222
▁stoppen	-11223
▁strömen	-11224
▁säubern	-11225
▁tackeln	-11226
▁tauchen	-11227
▁tauscht	-11228
▁tragend	-11229
▁urbanen	-11230
▁veranst	-11231
▁vervoll	-11232
▁verwahr	-11233
▁zerlump	-11234
Spielerin	-11235
Spielzeug	-11236
Unterteil	-11237
Wettkampf	-11238
abteilung	-11239
afarbenen	-11240
angestell	-11241
arbeitung	-11242
asenmäher	-11243
berschlag	-11244
eisenbahn	-11245
gestreckt	-11246
ianischer	-11247
karierten	-11248
leitungen	-11249
leppwagen	-11250
orchester	-11251
passenden	-11252
schlüssel	-11253
skünstler	-11254
spolizist	-11255
techniker	-11256
tethoskop	-11257
wanderung	-11258
örderband	-11259
▁Abschlag	-11260
▁Angriffs	-11261
▁Anziehen	-11262
▁Athleten	-11263
▁Aufsicht	-11264
▁Ausstell	-11265
▁Barriere	-11266
▁Bergpfad	-11267
▁Brettern	-11268
▁Business	-11269
▁Bücherei	-11270
▁Chefkoch	-11271
▁Chinesen	-11272
▁Designer	-11273
▁Dragster	-11274
▁Dutzende	-11275
▁Eiskunst	-11276
▁Eisstand	-11277
▁Eistüten	-11278
▁Erhebung	-11279
▁Fahrgast	-11280
▁Feinkost	-11281
▁Fensters	-11282
▁Frühling	-11283
▁Fußballs	-11284
▁Gasmaske	-11285
▁Gerüsten	-11286
▁Gesteins	-11287
▁Gewänder	-11288
▁Haarnetz	-11289
▁Handvoll	-11290
▁Handwerk	-11291
▁Hunderte	-11292
▁Internet	-11293
▁Jonglier	-11294
▁Karneval	-11295
▁Karussel	-11296
▁Kaugummi	-11297
▁Latzhose	-11298
▁Limonade	-11299
▁Luftmatr	-11300
▁Lutscher	-11301
▁Mariachi	-11302
▁Markisen	-11303
▁Maultier	-11304
▁Megaphon	-11305
▁Minirock	-11306
▁Mischung	-11307
▁Nintendo	-11308
▁Objektiv	-11309
▁Ohrhörer	-11310
▁Personal	-11311
▁Perücken	-11312
▁Prinzess	-11313
▁Protestk	-11314
▁Reporter	-11315
▁Schiffes	-11316
▁Schneest	-11317
▁Schnüren	-11318
▁Schweine	-11319
▁Smokings	-11320
▁Sombrero	-11321
▁Sprechen	-11322
▁Springen	-11323
▁Stadions	-11324
▁Steigung	-11325
▁Stoffhut	-11326
▁Styropor	-11327
▁Substanz	-11328
▁Tabletts	-11329
▁Tanktops	-11330
▁Tarnhose	-11331
▁Tastatur	-11332
▁Umhänget	-11333
▁Ungefähr	-11334
▁Vielzahl	-11335
▁Waldhorn	-11336
▁Wanderin	-11337
▁Weinglas	-11338
▁Zauberer	-11339
▁abgelegt	-11340
▁anbietet	-11341
▁angelegt	-11342
▁angucken	-11343
▁aufgereg	-11344
▁aufnimmt	-11345
▁aufregen	-11346
▁ausführt	-11347
▁auswirft	-11348
▁bedruckt	-11349
▁beruhigt	-11350
▁beschlie	-11351
▁besetzte	-11352
▁betreibt	-11353
▁bevölker	-11354
▁bewachen	-11355
▁bewertet	-11356
▁dasselbe	-11357
▁deutlich	-11358
▁drängeln	-11359
▁eingesch	-11360
▁entdeckt	-11361
▁erkundet	-11362
▁farbiger	-11363
▁farblich	-11364
▁frisches	-11365
▁gebauten	-11366
▁geblockt	-11367
▁gedruckt	-11368
▁gehenden	-11369
▁gehendes	-11370
▁gelandet	-11371
▁geparkte	-11372
▁gesicher	-11373
▁gestellt	-11374
▁gestürzt	-11375
▁getaucht	-11376
▁gewunden	-11377
▁gitarren	-11378
▁größerer	-11379
▁hübscher	-11380
▁hübsches	-11381
▁korpulen	-11382
▁kuscheln	-11383
▁lauschen	-11384
▁majestät	-11385
▁mehrerer	-11386
▁merkwürd	-11387
▁moderner	-11388
▁nachdenk	-11389
▁pflücken	-11390
▁plaudern	-11391
▁prächtig	-11392
▁rechteck	-11393
▁riesiges	-11394
▁sauberen	-11395
▁schreien	-11396
▁schubsen	-11397
▁schulter	-11398
▁schwerem	-11399
▁schwitzt	-11400
▁sprintet	-11401
▁stricken	-11402
▁stämmige	-11403
▁tauschen	-11404
▁unechten	-11405
▁unterird	-11406
▁verläuft	-11407
▁versenkt	-11408
▁versetzt	-11409
▁vielfält	-11410
▁vierbein	-11411
▁weiteres	-11412
▁überlegt	-11413
Bekleidung	-11414
Kunststück	-11415
brechenden	-11416
gelassenen	-11417
größerungs	-11418
intergrund	-11419
kunststück	-11420
otorrädern	-11421
sammensein	-11422
utensilien	-11423
verschluss	-11424
vorführung	-11425
▁Anleitung	-11426
▁Asiatisch	-11427
▁Aufkleber	-11428
▁Außenwand	-11429
▁Backwaren	-11430
▁Baseballs	-11431
▁Bildhauer	-11432
▁Blickfeld	-11433
▁Blutdruck	-11434
▁Brustkorb	-11435
▁Cafeteria	-11436
▁Camcorder	-11437
▁Challenge	-11438
▁Chinatown	-11439
▁Collegest	-11440
▁Computers	-11441
▁Dokumente	-11442
▁Drahtseil	-11443
▁Drahtzaun	-11444
▁Dreiräder	-11445
▁Einkaufsk	-11446
▁Eiswagens	-11447
▁Explosion	-11448
▁Fahrgäste	-11449
▁Festumzug	-11450
▁Haarsalon	-11451
▁Handgerät	-11452
▁Handgriff	-11453
▁Herbsttag	-11454
▁Heuballen	-11455
▁Hollister	-11456
▁Holzhütte	-11457
▁Karnevals	-11458
▁Kassierer	-11459
▁Kickboxer	-11460
▁Kochjacke	-11461
▁Korbstuhl	-11462
▁Künstlern	-11463
▁Laderampe	-11464
▁Landebahn	-11465
▁Lächelnde	-11466
▁Marathons	-11467
▁Medaillen	-11468
▁Menschenm	-11469
▁Nagellack	-11470
▁Patientin	-11471
▁Produkten	-11472
▁Rennautos	-11473
▁Rennhunde	-11474
▁Retriever	-11475
▁Sanddünen	-11476
▁Sandplatz	-11477
▁Sattelzug	-11478
▁Schichten	-11479
▁Schindeln	-11480
▁Schleifen	-11481
▁Schlepper	-11482
▁Schlägern	-11483
▁Schlüssel	-11484
▁Schmerzen	-11485
▁Schnürsen	-11486
▁Schulband	-11487
▁Schwarzen	-11488
▁Skiläufer	-11489
▁Softdrink	-11490
▁Sonnentag	-11491
▁Spitzbart	-11492
▁Sporthose	-11493
▁Sprinkler	-11494
▁Stadtbild	-11495
▁Stadtteil	-11496
▁Strümpfen	-11497
▁Sturzhelm	-11498
▁Stückchen	-11499
▁Säuglings	-11500
▁Teppichen	-11501
▁Tonstudio	-11502
▁Totenkopf	-11503
▁Trompeter	-11504
▁Verlassen	-11505
▁Vorderrad	-11506
▁Vorschlag	-11507
▁Wanderern	-11508
▁Wasserspr	-11509
▁Wasserstr	-11510
▁Wasserweg	-11511
▁Weibliche	-11512
▁Whirlpool	-11513
▁Würstchen	-11514
▁Zeltplatz	-11515
▁Zugabteil	-11516
▁angeleint	-11517
▁aufgebaut	-11518
▁aufgehäng	-11519
▁aufgemalt	-11520
▁aufgewühl	-11521
▁aufhalten	-11522
▁aufnehmen	-11523
▁auftreten	-11524
▁ausgelegt	-11525
▁beleibter	-11526
▁besteigen	-11527
▁betreiben	-11528
▁bewölktem	-11529
▁darstellt	-11530
▁deutschen	-11531
▁dreckigen	-11532
▁errichten	-11533
▁errichtet	-11534
▁erscheint	-11535
▁fallenden	-11536
▁formellen	-11537
▁fremdländ	-11538
▁frischgeb	-11539
▁gedeckten	-11540
▁geduckter	-11541
▁gefrorene	-11542
▁gefüttert	-11543
▁getupften	-11544
▁gezogenen	-11545
▁gleichauf	-11546
▁hellbraun	-11547
▁hölzernes	-11548
▁hügeligen	-11549
▁ignoriert	-11550
▁indisches	-11551
▁informell	-11552
▁kleinerer	-11553
▁komischen	-11554
▁kopfstein	-11555
▁laufender	-11556
▁liegender	-11557
▁meditiert	-11558
▁modischen	-11559
▁operieren	-11560
▁patrouill	-11561
▁renoviert	-11562
▁rotweißen	-11563
▁rundherum	-11564
▁rötlichen	-11565
▁schnitzen	-11566
▁schreitet	-11567
▁schweißen	-11568
▁schützend	-11569
▁seltsamer	-11570
▁senkrecht	-11571
▁silbernes	-11572
▁spanische	-11573
▁tanzenden	-11574
▁traurigen	-11575
▁täglichen	-11576
▁tätowiert	-11577
▁umgedreht	-11578
▁verborgen	-11579
▁verletzte	-11580
▁verstreut	-11581
▁vorführen	-11582
▁wartenden	-11583
▁werdender	-11584
▁ähnlicher	-11585
▁übergeben	-11586
▁übersäten	-11587
Maskottchen	-11588
angehöriger	-11589
ausstattung	-11590
betriebenen	-11591
einrichtung	-11592
fahrtschiff	-11593
hallenboden	-11594
radfahrzeug	-11595
schnittenen	-11596
schuhlaufen	-11597
spaziergang	-11598
städtischen	-11599
unterwäsche	-11600
zeichnungen	-11601
▁Actionfoto	-11602
▁Arbeitstag	-11603
▁Attraktion	-11604
▁Autofahrer	-11605
▁Baserunner	-11606
▁Baumgruppe	-11607
▁Bestellung	-11608
▁Broschüren	-11609
▁Butterbrot	-11610
▁Champagner	-11611
▁Couchtisch	-11612
▁Dalmatiner	-11613
▁Eierkuchen	-11614
▁Einzelhand	-11615
▁Ellenbogen	-11616
▁Fahrersitz	-11617
▁Fahrgästen	-11618
▁Fechtkampf	-11619
▁Flughafens	-11620
▁Frankreich	-11621
▁Geldbörsen	-11622
▁Großmutter	-11623
▁Hasenohren	-11624
▁Heimatland	-11625
▁Heimwerker	-11626
▁Hochdruckr	-11627
▁Holzfäller	-11628
▁Hundeschau	-11629
▁Kartoffeln	-11630
▁Kokosnüsse	-11631
▁Kundschaft	-11632
▁Kürbisfeld	-11633
▁Lagerhalle	-11634
▁Mechaniker	-11635
▁Mikroskope	-11636
▁Musikstück	-11637
▁Müllhaufen	-11638
▁Obdachlose	-11639
▁Oberhemden	-11640
▁Obstkarren	-11641
▁Paddelboot	-11642
▁Papiertüte	-11643
▁Pappkarton	-11644
▁Prozession	-11645
▁Ringträger	-11646
▁Rollkoffer	-11647
▁Rollkragen	-11648
▁Sandwiches	-11649
▁Schläuchen	-11650
▁Schneefall	-11651
▁Schriftzug	-11652
▁Schwestern	-11653
▁Schwimmern	-11654
▁Sonnenanbe	-11655
▁Spielgerät	-11656
▁Spielhalle	-11657
▁Spruchband	-11658
▁Sprungwurf	-11659
▁Steinboden	-11660
▁Stofftiere	-11661
▁Stroboskop	-11662
▁Sumoringer	-11663
▁Tarnmuster	-11664
▁Teddybären	-11665
▁Trauzeugen	-11666
▁Turnschuhe	-11667
▁Töpferware	-11668
▁Unterlagen	-11669
▁Verkleiden	-11670
▁Verwendung	-11671
▁Volkswagen	-11672
▁Wassernähe	-11673
▁Wildblumen	-11674
▁Windsurfer	-11675
▁Wohngegend	-11676
▁Zahnspange	-11677
▁abgeschirm	-11678
▁abzufangen	-11679
▁abzunehmen	-11680
▁angebunden	-11681
▁angekettet	-11682
▁angemalten	-11683
▁angeschaut	-11684
▁arabischer	-11685
▁aufgehängt	-11686
▁aufgeregte	-11687
▁aufgesetzt	-11688
▁ausstreckt	-11689
▁auszuruhen	-11690
▁berittener	-11691
▁beschmiert	-11692
▁bespritzen	-11693
▁bezeichnet	-11694
▁blaugrünem	-11695
▁brechenden	-11696
▁bäuchlings	-11697
▁entfernten	-11698
▁erfahrener	-11699
▁erklettert	-11700
▁ethnischer	-11701
▁festlichen	-11702
▁förmlichen	-11703
▁galoppiert	-11704
▁gefließten	-11705
▁gekreuzten	-11706
▁gemusterte	-11707
▁geselligen	-11708
▁getrocknet	-11709
▁geworfenen	-11710
▁halbwilden	-11711
▁hellblauem	-11712
▁hellblauer	-11713
▁herunterzu	-11714
▁hingesetzt	-11715
▁hinunterzu	-11716
▁kanadische	-11717
▁kostenlose	-11718
▁leuchtende	-11719
▁lindgrünen	-11720
▁ländlicher	-11721
▁malerische	-11722
▁manövriert	-11723
▁marineblau	-11724
▁matschigen	-11725
▁niedliches	-11726
▁religiösen	-11727
▁rotbraunen	-11728
▁schlachtet	-11729
▁schleudert	-11730
▁schmettern	-11731
▁schnüffeln	-11732
▁schwangere	-11733
▁sichtbaren	-11734
▁transparen	-11735
▁verletzten	-11736
▁vermähltes	-11737
▁verrichtet	-11738
▁verrückter	-11739
▁verzerrtes	-11740
▁weiblicher	-11741
▁zahlreiche	-11742
▁zotteliger	-11743
▁zubereiten	-11744
▁zusammenzu	-11745
▁ärmelloses	-11746
▁übergroßen	-11747
▁überreicht	-11748
fußballspiel	-11749
spielerinnen	-11750
▁Afrikanerin	-11751
▁Astronauten	-11752
▁Außentreppe	-11753
▁Basketbälle	-11754
▁Biergläsern	-11755
▁Blumendruck	-11756
▁Briefkasten	-11757
▁Bürogebäude	-11758
▁Cowboyhüten	-11759
▁Fallschirme	-11760
▁Farbstiften	-11761
▁Fußballnetz	-11762
▁Gastronomie	-11763
▁Gemüsestand	-11764
▁Gewächshaus	-11765
▁Gruppenbild	-11766
▁Handtüchern	-11767
▁Handzeichen	-11768
▁Hindernisse	-11769
▁Hinterbeine	-11770
▁Holzgebäude	-11771
▁Hunderennen	-11772
▁Imbissstand	-11773
▁Information	-11774
▁Jogginghose	-11775
▁Kaffeetisch	-11776
▁Kalifornien	-11777
▁Kapuzenteil	-11778
▁Kartoffelch	-11779
▁Kirchenchor	-11780
▁Kostümierte	-11781
▁Küchenboden	-11782
▁Küstenlinie	-11783
▁Landschafts	-11784
▁Marktstraße	-11785
▁Metallstück	-11786
▁Mikrophonen	-11787
▁Mittelalter	-11788
▁Münztelefon	-11789
▁Oberkörpern	-11790
▁Pfannkuchen	-11791
▁Polospieler	-11792
▁Radsportler	-11793
▁Rampenlicht	-11794
▁Rastalocken	-11795
▁Rollschuhen	-11796
▁Rummelplatz	-11797
▁Schießstand	-11798
▁Schildkappe	-11799
▁Schneemobil	-11800
▁Schneeschuh	-11801
▁Schnellboot	-11802
▁Schubkarren	-11803
▁Schutzweste	-11804
▁Sicherungss	-11805
▁Spirituosen	-11806
▁Sprungtritt	-11807
▁Stadtgebiet	-11808
▁Sumpfgebiet	-11809
▁Sweatshirts	-11810
▁Tennisspiel	-11811
▁Unternehmen	-11812
▁Wakeboarden	-11813
▁Wandgemälde	-11814
▁Wasserfalls	-11815
▁Werferhügel	-11816
▁Wochenmarkt	-11817
▁Wunderkerze	-11818
▁Zeichnungen	-11819
▁Zeigefinger	-11820
▁Ziegelstein	-11821
▁akustischen	-11822
▁altmodische	-11823
▁angegriffen	-11824
▁attackieren	-11825
▁ausgelassen	-11826
▁ausgetragen	-11827
▁auszuziehen	-11828
▁außergewöhn	-11829
▁baumbestand	-11830
▁beleuchtete	-11831
▁bestehenden	-11832
▁bewachsenen	-11833
▁bräunlichen	-11834
▁eingerahmte	-11835
▁entscheiden	-11836
▁gelangweilt	-11837
▁gemeinsamen	-11838
▁geschminkte	-11839
▁geschnitzte	-11840
▁glücklichen	-11841
▁herabhängen	-11842
▁heranrollen	-11843
▁hergestellt	-11844
▁herumlaufen	-11845
▁hinterlässt	-11846
▁hochzuheben	-11847
▁interagiert	-11848
▁kaukasische	-11849
▁langärmigen	-11850
▁mittelgroße	-11851
▁offiziellen	-11852
▁prunkvollen	-11853
▁schlammiges	-11854
▁sonnendurch	-11855
▁stacheligen	-11856
▁stattfinden	-11857
▁stattfindet	-11858
▁städtischer	-11859
▁umgekippten	-11860
▁unbekannten	-11861
▁vollständig	-11862
▁voneinander	-11863
▁vornübergeb	-11864
▁vorübergeht	-11865
▁weißhaarige	-11866
▁zahlreichen	-11867
Schwimmbecken	-11868
gepflasterten	-11869
verkaufsstand	-11870
▁Arbeitsplatz	-11871
▁Bahnarbeiter	-11872
▁Bandkollegen	-11873
▁Bauarbeitern	-11874
▁Baumaschinen	-11875
▁Bereitschaft	-11876
▁Bronzestatue	-11877
▁Bürgerkriegs	-11878
▁Bürgersteigs	-11879
▁Cheerleaders	-11880
▁Choreografie	-11881
▁Fallschirmen	-11882
▁Fotoshooting	-11883
▁Friseursalon	-11884
▁Fußgängerweg	-11885
▁Golfschläger	-11886
▁Gottesdienst	-11887
▁Hochzeitstag	-11888
▁Hängegleiter	-11889
▁Kampfrichter	-11890
▁Kapuzenjacke	-11891
▁Knieschonern	-11892
▁Kochkleidung	-11893
▁Krankenwagen	-11894
▁Küchenarbeit	-11895
▁Meeresstrand	-11896
▁Monstertruck	-11897
▁Musikkapelle	-11898
▁Parkettboden	-11899
▁Pferderücken	-11900
▁Picknickbank	-11901
▁Plastikstuhl	-11902
▁Plastiktüten	-11903
▁Rennkleidung	-11904
▁Schlammgrube	-11905
▁Schottenrock	-11906
▁Schutthaufen	-11907
▁Schwimmanzug	-11908
▁Schülerinnen	-11909
▁Seitenstraße	-11910
▁Sonnenschild	-11911
▁Spielzeugzug	-11912
▁Steindenkmal	-11913
▁Stirnbändern	-11914
▁Straßenlampe	-11915
▁Straßenstand	-11916
▁Strumpfhosen	-11917
▁Teamkollegen	-11918
▁Teammitglied	-11919
▁Teppichboden	-11920
▁Theaterstück	-11921
▁Topfpflanzen	-11922
▁Trikotnummer	-11923
▁Uniformierte	-11924
▁Vogelschwarm	-11925
▁Vortragssaal	-11926
▁Wanderstöcke	-11927
▁Wartebereich	-11928
▁Wasserpfütze	-11929
▁Werbeanzeige	-11930
▁Winterjacken	-11931
▁Wunderkerzen	-11932
▁Ziegelstraße	-11933
▁abgestimmten	-11934
▁angeschnallt	-11935
▁aufgesetzten	-11936
▁ausgestopfte	-11937
▁beschädigtes	-11938
▁eingepacktes	-11939
▁entschlossen	-11940
▁europäisches	-11941
▁gegnerischer	-11942
▁gepolsterten	-11943
▁gestrichenen	-11944
▁herzförmigen	-11945
▁hochgehalten	-11946
▁hochgelegten	-11947
▁hochspringen	-11948
▁irgendwelche	-11949
▁jugendlicher	-11950
▁kahlköpfigen	-11951
▁kaukasischer	-11952
▁kommuniziert	-11953
▁kontrolliert	-11954
▁kurzhaariger	-11955
▁marineblauer	-11956
▁mechanischen	-11957
▁mehrfarbigem	-11958
▁menschlichen	-11959
▁präsentieren	-11960
▁schottischer	-11961
▁senffarbenen	-11962
▁umgefallenen	-11963
▁ungewöhnlich	-11964
▁verheiratete	-11965
▁verkleidetes	-11966
▁vorüberfährt	-11967
▁winterlichen	-11968
amerikanischen	-11969
amerikanischer	-11970
▁Asphaltstraße	-11971
▁Baseballplatz	-11972
▁Beisammensein	-11973
▁Doppeldeckerb	-11974
▁Drachenkostüm	-11975
▁Eingangshalle	-11976
▁Gepäckstücken	-11977
▁Gummistiefeln	-11978
▁Herrenfriseur	-11979
▁Interessantes	-11980
▁Knieschützern	-11981
▁Kniestrümpfen	-11982
▁Lederkleidung	-11983
▁Marschkapelle	-11984
▁Meeresfrüchte	-11985
▁Mountainbikes	-11986
▁Musikfestival	-11987
▁Picknickdecke	-11988
▁Planschbecken	-11989
▁Polizeibeamte	-11990
▁Rasensprenger	-11991
▁Regenstiefeln	-11992
▁Schlafanzügen	-11993
▁Schlammpfütze	-11994
▁Schutzbrillen	-11995
▁Seilspielzeug	-11996
▁Sonnenaufgang	-11997
▁Straßenschild	-11998
▁Telefonzellen	-11999
▁Treppenhauses	-12000
▁Ureinwohnerin	-12001
▁Vergrößerungs	-12002
▁Wasserpistole	-12003
▁Zementmischer	-12004
▁aufgestellten	-12005
▁ausgefransten	-12006
▁ausgestopften	-12007
▁beigefarbener	-12008
▁braunhaarigen	-12009
▁einzigartigen	-12010
▁französischen	-12011
▁geometrischen	-12012
▁hochgeschoben	-12013
▁irgendwelchen	-12014
▁kommunizieren	-12015
▁komplizierten	-12016
▁kontrollieren	-12017
▁kurzärmeligen	-12018
▁militärischer	-12019
▁motorisierten	-12020
▁spektakulären	-12021
▁unüberdachten	-12022
▁wunderschönes	-12023
▁Abschleppwagen	-12024
▁Aufnahmestudio	-12025
▁Aussichtspunkt	-12026
▁Berufskleidung	-12027
▁Bowlingspieler	-12028
▁Bühnenauftritt	-12029
▁Cowboykleidung	-12030
▁Cowboystiefeln	-12031
▁Fabrikarbeiter	-12032
▁Fechtwettkampf	-12033
▁Fußballtrikots	-12034
▁Gartenwerkzeug	-12035
▁Gebäudeeingang	-12036
▁Geschirrspüler	-12037
▁Gesichtsmasken	-12038
▁Gesichtsschutz	-12039
▁Gitarrespieler	-12040
▁Handbewegungen	-12041
▁Holzkohlegrill	-12042
▁Hundeschlitten	-12043
▁Irokesenfrisur	-12044
▁Jahrmarktspiel	-12045
▁Laufbekleidung	-12046
▁Leichtathletik	-12047
▁Meeresfrüchten	-12048
▁Metallarbeiter	-12049
▁Metallgeländer	-12050
▁Metallschüssel	-12051
▁Mittelstreifen	-12052
▁Neoprenanzügen	-12053
▁Ohrenschützern	-12054
▁Plastikrutsche	-12055
▁Plattenspieler	-12056
▁Schlauchbooten	-12057
▁Schlittenhunde	-12058
▁Schottenröcken	-12059
▁Schreibtischen	-12060
▁Schultertasche	-12061
▁Schwimmbeckens	-12062
▁Schwimmbrillen	-12063
▁Softballspiels	-12064
▁Sommerkleidung	-12065
▁Spazierstöcken	-12066
▁Spielautomaten	-12067
▁Straßenansicht	-12068
▁Straßenlaterne	-12069
▁Transportwagen	-12070
▁Verkehrsmittel	-12071
▁Wasserpistolen	-12072
▁Weihnachtszeit	-12073
▁Werkzeuggürtel	-12074
▁beeindruckende	-12075
▁dunkelhaarigen	-12076
▁dunkelhäutiges	-12077
▁herauszufinden	-12078
▁herunterhängen	-12079
▁hintereinander	-12080
▁interessierten	-12081
▁landwirtschaft	-12082
▁selbstgebauten	-12083
▁transportieren	-12084
▁übergewichtige	-12085
▁Bauarbeiterhelm	-12086
▁Essensverkäufer	-12087
▁Felsformationen	-12088
▁Feuerwehrleuten	-12089
▁Freiheitsstatue	-12090
▁Freiluftkonzert	-12091
▁Fußballspielern	-12092
▁Geländemaschine	-12093
▁Gitarrenspieler	-12094
▁Kettenkarussell	-12095
▁Militärkleidung	-12096
▁Musikausrüstung	-12097
▁Picknicktischen	-12098
▁Plastikflaschen	-12099
▁Softballspieler	-12100
▁Sportbekleidung	-12101
▁Steinoberfläche	-12102
▁Straßenkleidung	-12103
▁Touristengruppe	-12104
▁Transportmittel	-12105
▁Vorschlaghammer	-12106
▁abgeschnittenen	-12107
▁ausgeschnittene	-12108
▁professioneller	-12109
▁reflektierender	-12110
▁schneebedecktem	-12111
▁schwarzhaarigen	-12112
▁verkehrsreichen	-12113
▁vervollständigt	-12114
OM	-12115
Art	-12116
Auf	-12117
MCA	-12118
OME	-12119
ave	-12120
eed	-12121
eys	-12122
gek	-12123
höl	-12124
iac	-12125
ipl	-12126
kup	-12127
mob	-12128
mög	-12129
ruf	-12130
täg	-12131
tüm	-12132
vid	-12133
yny	-12134
you	-12135
önt	-12136
ühm	-12137
▁ek	-12138
Down	-12139
Free	-12140
Jump	-12141
Pool	-12142
Vide	-12143
awks	-12144
base	-12145
cons	-12146
cool	-12147
crab	-12148
ctor	-12149
eget	-12150
fans	-12151
genö	-12152
gewä	-12153
gles	-12154
hday	-12155
hmte	-12156
ican	-12157
ideo	-12158
ield	-12159
ignt	-12160
ique	-12161
irup	-12162
isco	-12163
ixer	-12164
koli	-12165
kons	-12166
kret	-12167
krug	-12168
laib	-12169
ließ	-12170
ogar	-12171
oppt	-12172
owlt	-12173
phab	-12174
phäe	-12175
pong	-12176
sarm	-12177
sive	-12178
slam	-12179
spar	-12180
stif	-12181
trib	-12182
turn	-12183
uftr	-12184
umpe	-12185
ushi	-12186
uven	-12187
ware	-12188
ways	-12189
yros	-12190
ysur	-12191
zial	-12192
zwei	-12193
zöne	-12194
züge	-12195
äfte	-12196
över	-12197
ümpf	-12198
▁Atl	-12199
AI	-12200
ND	-12201
edi	-12202
fsm	-12203
mwe	-12204
arke	-12205
here	-12206
hone	-12207
uthä	-12208
wegt	-12209
▁Alp	-12210
▁Boa	-12211
▁Cor	-12212
▁Den	-12213
▁Det	-12214
▁Dri	-12215
▁Eng	-12216
▁Gäs	-12217
▁Huf	-12218
▁Iow	-12219
▁Leb	-12220
▁Log	-12221
▁MMA	-12222
▁Mof	-12223
▁Mög	-12224
▁NER	-12225
▁Nyl	-12226
▁Orn	-12227
▁Pee	-12228
▁Roh	-12229
▁Tae	-12230
▁Unr	-12231
▁Völ	-12232
▁adr	-12233
▁are	-12234
▁cha	-12235
▁nöt	-12236
▁röt	-12237
▁sal	-12238
▁wod	-12239
▁wür	-12240
▁you	-12241
▁öst	-12242
▁übr	-12243
Coach	-12244
Dance	-12245
Figur	-12246
Grand	-12247
Kampf	-12248
Lager	-12249
Motiv	-12250
Mouse	-12251
Pierc	-12252
Rampe	-12253
Skate	-12254
Stunt	-12255
Trick	-12256
Trock	-12257
Video	-12258
World	-12259
adens	-12260
aggon	-12261
ancer	-12262
apper	-12263
arrer	-12264
ative	-12265
ayola	-12266
behör	-12267
belag	-12268
berry	-12269
blüte	-12270
dächt	-12271
edale	-12272
effer	-12273
eißel	-12274
esota	-12275
etall	-12276
eziel	-12277
falle	-12278
felds	-12279
field	-12280
fried	-12281
fsmäß	-12282
füllt	-12283
garde	-12284
gehör	-12285
gleit	-12286
große	-12287
gturm	-12288
halte	-12289
ibbon	-12290
iesel	-12291
ilian	-12292
imore	-12293
indel	-12294
inium	-12295
insel	-12296
ippie	-12297
irway	-12298
ispla	-12299
▁It	-12300
aris	-12301
hill	-12302
ives	-12303
ivil	-12304
ivor	-12305
äckt	-12306
ärzt	-12307
▁Nes	-12308
ammut	-12309
iving	-12310
katze	-12311
kontr	-12312
kranz	-12313
kshow	-12314
leuch	-12315
lfass	-12316
liner	-12317
läden	-12318
match	-12319
oalie	-12320
ograp	-12321
olymp	-12322
ongol	-12323
onial	-12324
organ	-12325
osmet	-12326
otive	-12327
peier	-12328
perrt	-12329
pickn	-12330
prech	-12331
probe	-12332
pseln	-12333
pumpe	-12334
reizt	-12335
ringe	-12336
rolet	-12337
rztin	-12338
räfte	-12339
seilt	-12340
shänd	-12341
ssteg	-12342
szöne	-12343
uddel	-12344
udelt	-12345
ultiv	-12346
ummes	-12347
umpen	-12348
unekl	-12349
valen	-12350
vater	-12351
veter	-12352
wägen	-12353
ylist	-12354
ynyrd	-12355
ywood	-12356
zaust	-12357
öckel	-12358
önten	-12359
ötigt	-12360
übers	-12361
ülern	-12362
ümpfe	-12363
ündin	-12364
ünste	-12365
üssen	-12366
▁Alas	-12367
▁Alum	-12368
▁Antw	-12369
▁Balt	-12370
▁Banj	-12371
▁Bann	-12372
▁Bist	-12373
▁Brok	-12374
▁Bröt	-12375
▁Budd	-12376
▁Burr	-12377
▁Calv	-12378
▁Cape	-12379
▁Chan	-12380
▁Circ	-12381
▁Comp	-12382
▁Cost	-12383
▁Croc	-12384
▁Cycl	-12385
▁Deli	-12386
▁Edel	-12387
▁Eide	-12388
▁Eiff	-12389
▁Ents	-12390
▁Erdn	-12391
▁Erfr	-12392
▁Ethn	-12393
▁Etwa	-12394
▁Glüh	-12395
▁Good	-12396
▁Hilf	-12397
▁Komb	-12398
▁Kond	-12399
Lig	-12400
egal	-12401
illi	-12402
äfel	-12403
▁Emp	-12404
▁Flö	-12405
▁Käf	-12406
▁LeB	-12407
▁Pri	-12408
▁Süd	-12409
▁Ves	-12410
▁abm	-12411
▁tes	-12412
▁ves	-12413
ampel	-12414
rasse	-12415
stahl	-12416
▁Beat	-12417
▁Bott	-12418
▁Bras	-12419
▁Brut	-12420
▁Eisz	-12421
▁Hill	-12422
▁Kräu	-12423
▁Kühe	-12424
▁Kürb	-12425
▁Lead	-12426
▁Lehn	-12427
▁Lift	-12428
▁Lila	-12429
▁Louv	-12430
▁Läng	-12431
▁Mode	-12432
▁Mole	-12433
▁Need	-12434
▁Pitb	-12435
▁Pont	-12436
▁Prin	-12437
▁Pulk	-12438
▁Reiß	-12439
▁Situ	-12440
▁Slal	-12441
▁Slum	-12442
▁Snap	-12443
▁Soße	-12444
▁Stew	-12445
▁Styl	-12446
▁Takt	-12447
▁Teer	-12448
▁Test	-12449
▁Tont	-12450
▁Trad	-12451
▁Trei	-12452
▁Tuba	-12453
▁Vase	-12454
▁Verz	-12455
▁Warm	-12456
▁Wimp	-12457
▁Wink	-12458
▁Zune	-12459
▁drap	-12460
▁drit	-12461
▁döst	-12462
▁eien	-12463
▁eilt	-12464
▁ekst	-12465
▁erfr	-12466
▁gekn	-12467
▁haut	-12468
▁jede	-12469
▁kalt	-12470
▁kill	-12471
▁kore	-12472
▁kupp	-12473
▁kühl	-12474
▁kürz	-12475
▁mult	-12476
▁priv	-12477
▁prov	-12478
▁träg	-12479
▁töpf	-12480
▁umzu	-12481
▁watt	-12482
▁zerf	-12483
▁zuer	-12484
▁zufr	-12485
▁ärzt	-12486
Aufkle	-12487
Banner	-12488
Guitar	-12489
Kamera	-12490
Laptop	-12491
Nummer	-12492
Röcken	-12493
School	-12494
Skates	-12495
Tennis	-12496
ablett	-12497
addelt	-12498
agerer	-12499
Ar	-12500
Prä	-12501
aki	-12502
bre	-12503
izz	-12504
ves	-12505
able	-12506
abst	-12507
akte	-12508
ingo	-12509
lear	-12510
quir	-12511
quis	-12512
räte	-12513
öche	-12514
▁Equ	-12515
▁Krä	-12516
▁WAR	-12517
Arbei	-12518
break	-12519
ckten	-12520
eltes	-12521
quent	-12522
quert	-12523
▁Seel	-12524
▁holz	-12525
▁kurv	-12526
▁roll	-12527
▁trag	-12528
▁wald	-12529
affner	-12530
ahawks	-12531
ahmten	-12532
akland	-12533
akteen	-12534
alters	-12535
amarin	-12536
amilie	-12537
ampfen	-12538
anadas	-12539
ansäss	-12540
atcher	-12541
atoren	-12542
attenh	-12543
aubern	-12544
aufahr	-12545
babies	-12546
bauten	-12547
bewegt	-12548
bilder	-12549
braten	-12550
bärten	-12551
cherin	-12552
ckeren	-12553
clowns	-12554
collie	-12555
curity	-12556
dbrett	-12557
drehen	-12558
dreher	-12559
dusche	-12560
ebenen	-12561
eidung	-12562
einhal	-12563
eliner	-12564
ellift	-12565
eminar	-12566
erbsen	-12567
erseys	-12568
ertage	-12569
etztes	-12570
fekten	-12571
furcht	-12572
fällig	-12573
garage	-12574
gehend	-12575
gelbem	-12576
gemach	-12577
gerido	-12578
grenze	-12579
haften	-12580
halter	-12581
helden	-12582
hepaar	-12583
hinder	-12584
ickten	-12585
iemand	-12586
iffern	-12587
ikaner	-12588
ildren	-12589
imeter	-12590
isplay	-12591
ittert	-12592
itzelt	-12593
jektiv	-12594
jenige	-12595
kabine	-12596
katern	-12597
kegeln	-12598
knäuel	-12599
Cow	-12600
bom	-12601
flä	-12602
rüm	-12603
iefl	-12604
iter	-12605
izer	-12606
koll	-12607
renn	-12608
stes	-12609
zugs	-12610
▁Mex	-12611
▁Rev	-12612
▁sei	-12613
ascht	-12614
eidet	-12615
kelle	-12616
mikro	-12617
nacht	-12618
rümmt	-12619
swürd	-12620
ussab	-12621
weite	-12622
ätigt	-12623
▁Spre	-12624
▁Voll	-12625
▁gefl	-12626
▁holl	-12627
▁russ	-12628
▁saft	-12629
Cowboy	-12630
binden	-12631
einert	-12632
elturm	-12633
genöss	-12634
ihosen	-12635
immung	-12636
kollet	-12637
kretär	-12638
kränze	-12639
krügen	-12640
kurses	-12641
kästen	-12642
köpfen	-12643
kühlen	-12644
kühler	-12645
lampen	-12646
lenker	-12647
leppen	-12648
locken	-12649
masken	-12650
nassen	-12651
neidet	-12652
ogerät	-12653
ologie	-12654
onders	-12655
packen	-12656
pflege	-12657
pfoten	-12658
phabet	-12659
quirlt	-12660
reativ	-12661
riftet	-12662
sarmee	-12663
schbom	-12664
schule	-12665
schwer	-12666
segeln	-12667
seiten	-12668
serven	-12669
sessel	-12670
singen	-12671
sjacke	-12672
smarkt	-12673
smotiv	-12674
sparty	-12675
spause	-12676
spuren	-12677
stheke	-12678
stunde	-12679
stürzt	-12680
sweise	-12681
transp	-12682
treter	-12683
tricks	-12684
ulisse	-12685
unfall	-12686
unnels	-12687
utique	-12688
uvenir	-12689
viewen	-12690
wasaki	-12691
wellen	-12692
wendig	-12693
wirren	-12694
wolken	-12695
wässer	-12696
würfel	-12697
zeiten	-12698
zäunen	-12699
Ges	-12700
iri	-12701
ory	-12702
spe	-12703
ylt	-12704
ikop	-12705
inky	-12706
kant	-12707
obus	-12708
sion	-12709
trop	-12710
ärbt	-12711
▁Cad	-12712
▁Hip	-12713
▁abs	-12714
▁grö	-12715
Touch	-12716
after	-12717
astet	-12718
cings	-12719
erkel	-12720
hound	-12721
inkan	-12722
ision	-12723
ägten	-12724
▁Pion	-12725
▁hung	-12726
▁sech	-12727
deckel	-12728
eigtem	-12729
erndes	-12730
ipment	-12731
kronen	-12732
lasten	-12733
seraum	-12734
yhound	-12735
ßenden	-12736
ämmten	-12737
ängtes	-12738
ärztin	-12739
öchelt	-12740
öchter	-12741
önheit	-12742
öpfung	-12743
örpern	-12744
ühmten	-12745
ützten	-12746
▁Akrob	-12747
▁Aktiv	-12748
▁Alarm	-12749
▁Angst	-12750
▁Anspr	-12751
▁Anste	-12752
▁Armut	-12753
▁Astro	-12754
▁Audio	-12755
▁Aufst	-12756
▁Autom	-12757
▁Baden	-12758
▁Bagel	-12759
▁Bande	-12760
▁Bears	-12761
▁Belag	-12762
▁Bergs	-12763
▁Biene	-12764
▁Biers	-12765
▁Bikes	-12766
▁Binde	-12767
▁Bodys	-12768
▁Bunte	-12769
▁Burka	-12770
▁Busse	-12771
▁Bögen	-12772
▁Cadil	-12773
▁Chefs	-12774
▁Cockt	-12775
▁Court	-12776
▁Crocs	-12777
▁Darth	-12778
▁Delph	-12779
▁Dober	-12780
▁Dogge	-12781
▁Eiste	-12782
▁Elfen	-12783
▁Enden	-12784
▁Expon	-12785
▁Falke	-12786
▁Farbt	-12787
▁Farbw	-12788
▁FedEx	-12789
▁Field	-12790
▁Flyer	-12791
▁Folkl	-12792
▁Fotol	-12793
▁Foyer	-12794
▁Franc	-12795
▁Freue	-12796
▁Fäden	-12797
▁Fülle	-12798
▁Geist	-12799
Last	-12800
Ston	-12801
ahns	-12802
alze	-12803
erus	-12804
hahn	-12805
kamm	-12806
▁unk	-12807
Clown	-12808
agere	-12809
angem	-12810
dogge	-12811
egway	-12812
erkan	-12813
eulen	-12814
gabel	-12815
päckt	-12816
stalt	-12817
stren	-12818
ucker	-12819
ßiger	-12820
▁Cell	-12821
▁Guck	-12822
▁Halt	-12823
▁Samm	-12824
▁gart	-12825
▁halt	-12826
▁ritt	-12827
Stones	-12828
Wasser	-12829
altanz	-12830
erusal	-12831
utiger	-12832
zelten	-12833
zucker	-12834
▁Baumw	-12835
▁Gelbe	-12836
▁Glühb	-12837
▁Goldt	-12838
▁Haube	-12839
▁Heine	-12840
▁Hitze	-12841
▁Hoops	-12842
▁Ihrem	-12843
▁Johns	-12844
▁Kebab	-12845
▁Kiosk	-12846
▁Klebe	-12847
▁Kopie	-12848
▁Korbs	-12849
▁Light	-12850
▁Linse	-12851
▁Lolli	-12852
▁MacBo	-12853
▁Mardi	-12854
▁Mehrf	-12855
▁Memor	-12856
▁Micha	-12857
▁Moves	-12858
▁Ninja	-12859
▁Notre	-12860
▁Oriol	-12861
▁Orten	-12862
▁Pabst	-12863
▁Papag	-12864
▁Parka	-12865
▁Pedal	-12866
▁Perle	-12867
▁Pfote	-12868
▁Piano	-12869
▁Pools	-12870
▁Portr	-12871
▁Pucks	-12872
▁Reden	-12873
▁Repor	-12874
▁Röcke	-12875
▁Sauer	-12876
▁Scoob	-12877
▁Scrab	-12878
▁Sehen	-12879
▁Seils	-12880
▁Sense	-12881
▁Sieht	-12882
▁South	-12883
▁Space	-12884
▁Spagh	-12885
▁Spare	-12886
▁Sperr	-12887
▁Sprun	-12888
▁Still	-12889
▁Story	-12890
▁Sträu	-12891
▁Stäbe	-12892
▁Sushi	-12893
▁Säcke	-12894
▁Tageb	-12895
▁Tambo	-12896
▁Taxik	-12897
▁Tiefl	-12898
▁Tubas	-12899
Boy	-12900
▁Iz	-12901
▁ag	-12902
▁sk	-12903
ames	-12904
ampt	-12905
baus	-12906
ding	-12907
klat	-12908
mach	-12909
ühne	-12910
▁Ank	-12911
▁fin	-12912
▁tur	-12913
▁wag	-12914
▁wün	-12915
Bühne	-12916
agers	-12917
aming	-12918
ecken	-12919
gring	-12920
liegt	-12921
tasse	-12922
▁Crew	-12923
▁Fing	-12924
▁King	-12925
▁Komp	-12926
▁Song	-12927
▁Spur	-12928
▁baby	-12929
▁bock	-12930
▁paus	-12931
Mutter	-12932
brauch	-12933
netzen	-12934
roffen	-12935
teriel	-12936
uckelt	-12937
▁Bügel	-12938
▁James	-12939
▁Marsh	-12940
▁Taste	-12941
▁Töpfe	-12942
▁Union	-12943
▁Vader	-12944
▁Veget	-12945
▁Vorsp	-12946
▁Wells	-12947
▁Wolke	-12948
▁Wrest	-12949
▁Zivil	-12950
▁Zuges	-12951
▁abend	-12952
▁aktiv	-12953
▁alles	-12954
▁anspr	-12955
▁atmet	-12956
▁bejub	-12957
▁berät	-12958
▁beton	-12959
▁blinz	-12960
▁bowlt	-12961
▁brust	-12962
▁bäckt	-12963
▁chaot	-12964
▁dahin	-12965
▁fehlt	-12966
▁filet	-12967
▁flank	-12968
▁folkl	-12969
▁fried	-12970
▁geern	-12971
▁grell	-12972
▁guter	-12973
▁hawai	-12974
▁herzu	-12975
▁heute	-12976
▁hungr	-12977
▁immer	-12978
▁islam	-12979
▁jeden	-12980
▁karge	-12981
▁kegel	-12982
▁kippt	-12983
▁lachs	-12984
▁leder	-12985
▁leich	-12986
▁medit	-12987
▁meist	-12988
▁melkt	-12989
▁natur	-12990
▁natür	-12991
▁rasch	-12992
▁rauen	-12993
▁reckt	-12994
▁reiht	-12995
▁rings	-12996
▁salut	-12997
▁scher	-12998
▁schön	-12999
ost	-13000
▁Ey	-13001
Zeit	-13002
etta	-13003
rett	-13004
spat	-13005
▁Abl	-13006
▁Ans	-13007
▁Bou	-13008
▁DJs	-13009
▁Rec	-13010
▁erd	-13011
Truck	-13012
antas	-13013
börse	-13014
elfer	-13015
omate	-13016
oster	-13017
reien	-13018
zeugr	-13019
änzen	-13020
üster	-13021
▁Grem	-13022
▁Hoff	-13023
▁Ohio	-13024
▁abpr	-13025
▁erhö	-13026
▁erre	-13027
▁fort	-13028
▁hant	-13029
▁heft	-13030
▁orig	-13031
ametta	-13032
enster	-13033
leiten	-13034
ungert	-13035
üstert	-13036
▁Oster	-13037
▁nähen	-13038
▁sogar	-13039
▁sorgt	-13040
▁speit	-13041
▁stern	-13042
▁stoch	-13043
▁süßer	-13044
▁techn	-13045
▁toben	-13046
▁tollt	-13047
▁unkon	-13048
▁versp	-13049
▁wagem	-13050
▁wehen	-13051
▁wehrt	-13052
▁welch	-13053
▁wälzt	-13054
▁zapft	-13055
▁üppig	-13056
Airways	-13057
Familie	-13058
Gesicht	-13059
Kämpfer	-13060
Schrift	-13061
Sooners	-13062
Spielen	-13063
Steinen	-13064
Strecke	-13065
abenden	-13066
agazine	-13067
ahenden	-13068
allenen	-13069
ampiert	-13070
angebot	-13071
anlagen	-13072
apelten	-13073
apelter	-13074
apparat	-13075
artiger	-13076
artikel	-13077
aschlik	-13078
asilian	-13079
ausgang	-13080
azieren	-13081
behörde	-13082
berhang	-13083
bildung	-13084
blicken	-13085
blondem	-13086
bretter	-13087
builder	-13088
chsiger	-13089
dehnten	-13090
derseit	-13091
ementar	-13092
erabend	-13093
etching	-13094
fahrene	-13095
flaggen	-13096
flächen	-13097
ganlage	-13098
geblich	-13099
üg	-13100
Hot	-13101
Swe	-13102
equ	-13103
▁CD	-13104
▁ud	-13105
Pfer	-13106
nerg	-13107
omat	-13108
ornt	-13109
rads	-13110
uern	-13111
ühle	-13112
▁Igl	-13113
▁Set	-13114
anges	-13115
eiber	-13116
equin	-13117
igung	-13118
leppe	-13119
motor	-13120
ängel	-13121
▁Cand	-13122
▁Care	-13123
▁Chip	-13124
▁Gehe	-13125
▁Hoop	-13126
▁Iglu	-13127
▁Play	-13128
▁Skis	-13129
▁mach	-13130
▁rest	-13131
elpfad	-13132
esters	-13133
ganges	-13134
ieller	-13135
marsch	-13136
plakat	-13137
uschef	-13138
ächern	-13139
▁Barbe	-13140
▁Krieg	-13141
▁würzt	-13142
▁zertr	-13143
artiges	-13144
emberau	-13145
gehende	-13146
geregte	-13147
gespann	-13148
gestarr	-13149
gressiv	-13150
haltern	-13151
helmter	-13152
hockern	-13153
ickzack	-13154
igeuner	-13155
igieren	-13156
ikopter	-13157
ikultur	-13158
inierte	-13159
ionette	-13160
ioniken	-13161
irthday	-13162
itronen	-13163
itzerei	-13164
kantine	-13165
klötzen	-13166
konsole	-13167
kräften	-13168
kulisse	-13169
kutsche	-13170
kämpfer	-13171
ladenen	-13172
lastern	-13173
lichten	-13174
llbogen	-13175
löchern	-13176
mension	-13177
mustern	-13178
mwedeln	-13179
nerstag	-13180
okument	-13181
ollegin	-13182
oranger	-13183
organis	-13184
osmetik	-13185
outfits	-13186
perücke	-13187
planken	-13188
portler	-13189
reibung	-13190
rolling	-13191
sammelt	-13192
schacht	-13193
schanze	-13194
scheine	-13195
schiebt	-13196
schiene	-13197
schiffs	-13198
schlagt	-13199
AG	-13200
FC	-13201
nd	-13202
vt	-13203
Top	-13204
esp	-13205
mos	-13206
mus	-13207
▁SW	-13208
▁to	-13209
Loch	-13210
delt	-13211
ntag	-13212
oner	-13213
sung	-13214
ulch	-13215
welt	-13216
▁Lux	-13217
▁UFC	-13218
aftet	-13219
denkt	-13220
eltem	-13221
stoch	-13222
▁SWAT	-13223
▁Spül	-13224
▁Tang	-13225
▁gere	-13226
▁neun	-13227
▁zelt	-13228
Makeup	-13229
decker	-13230
ennten	-13231
ickeln	-13232
ladung	-13233
leisen	-13234
otisch	-13235
utigen	-13236
▁Gangs	-13237
▁Leuch	-13238
▁Lunch	-13239
▁Luxus	-13240
▁Mulch	-13241
▁Probe	-13242
▁allem	-13243
▁hütet	-13244
▁kauen	-13245
▁klare	-13246
ammkopf	-13247
oranges	-13248
schland	-13249
schrank	-13250
schritt	-13251
schwemm	-13252
schwert	-13253
schürze	-13254
spapier	-13255
sperren	-13256
sperson	-13257
spiegel	-13258
sstelle	-13259
staunen	-13260
stocher	-13261
straßen	-13262
strengt	-13263
student	-13264
stunden	-13265
stungen	-13266
ständen	-13267
sängern	-13268
tablett	-13269
teilung	-13270
tenhund	-13271
tmetall	-13272
treffer	-13273
treiben	-13274
tribüne	-13275
uadbike	-13276
uppiger	-13277
ursacht	-13278
veranda	-13279
verband	-13280
verschm	-13281
violett	-13282
vitrine	-13283
vorlage	-13284
wasserr	-13285
weifelt	-13286
zeption	-13287
ziegeln	-13288
zimmers	-13289
äfelten	-13290
äologen	-13291
üfteten	-13292
ühenden	-13293
▁Abente	-13294
▁Abflug	-13295
▁Afrika	-13296
▁Alaska	-13297
▁Antiqu	-13298
▁Apothe	-13299
EP	-13300
abl	-13301
dis	-13302
ehn	-13303
gre	-13304
gur	-13305
lac	-13306
red	-13307
▁DI	-13308
abol	-13309
etür	-13310
rill	-13311
rümm	-13312
▁Jim	-13313
▁Nik	-13314
Kiste	-13315
ampoo	-13316
attet	-13317
beauf	-13318
ichts	-13319
▁Beil	-13320
▁Hell	-13321
▁Jagd	-13322
▁Orch	-13323
▁Tage	-13324
▁Wenn	-13325
▁feil	-13326
▁jähr	-13327
▁zehn	-13328
anzüge	-13329
blüten	-13330
gurten	-13331
presso	-13332
smütze	-13333
uerten	-13334
wetter	-13335
▁Bilds	-13336
▁Dachs	-13337
▁Dachz	-13338
▁Einge	-13339
▁Handm	-13340
▁Kanne	-13341
▁Nägel	-13342
▁Unrat	-13343
▁gerät	-13344
▁Araber	-13345
▁Auswir	-13346
▁Außenb	-13347
▁Barrik	-13348
▁Batter	-13349
▁Bauten	-13350
▁Beanie	-13351
▁Benzin	-13352
▁Berlin	-13353
▁Betten	-13354
▁Bissen	-13355
▁Blonde	-13356
▁Bodysu	-13357
▁Bohnen	-13358
▁Bonbon	-13359
▁Bongos	-13360
▁Brieft	-13361
▁Brüder	-13362
▁Buches	-13363
▁Bukett	-13364
▁Bussen	-13365
▁Bänder	-13366
▁Cabrio	-13367
▁Calvin	-13368
▁Campen	-13369
▁Canyon	-13370
▁Casino	-13371
▁Cheese	-13372
▁Chemie	-13373
▁Chemik	-13374
▁Circus	-13375
▁Coffee	-13376
▁Dackel	-13377
▁Dienst	-13378
▁Drache	-13379
▁Einkäu	-13380
▁Entert	-13381
▁Extrem	-13382
▁Factor	-13383
▁Falken	-13384
▁Fantas	-13385
▁Felder	-13386
▁Felsab	-13387
▁Ferkel	-13388
▁Feucht	-13389
▁Feuerh	-13390
▁Flucht	-13391
▁Flößen	-13392
▁Formal	-13393
▁Forsch	-13394
▁Fragen	-13395
▁Frisör	-13396
▁Führer	-13397
▁Garnel	-13398
▁Gehege	-13399
De	-13400
Dr	-13401
IS	-13402
Bus	-13403
bow	-13404
hin	-13405
pse	-13406
ury	-13407
äus	-13408
äuß	-13409
ürr	-13410
Renn	-13411
ayer	-13412
berg	-13413
emde	-13414
esus	-13415
hrit	-13416
ipst	-13417
oder	-13418
ohin	-13419
pfei	-13420
rang	-13421
rüpp	-13422
unik	-13423
webe	-13424
zers	-13425
▁Zun	-13426
▁dom	-13427
Shrit	-13428
afeln	-13429
boxer	-13430
eltet	-13431
entil	-13432
euder	-13433
▁Iowa	-13434
▁Jury	-13435
▁Mang	-13436
▁Sekt	-13437
▁Tort	-13438
▁bern	-13439
▁mürr	-13440
▁uner	-13441
drucks	-13442
netzes	-13443
presst	-13444
schten	-13445
ungene	-13446
▁Dünen	-13447
▁Glück	-13448
▁Heels	-13449
▁Jacht	-13450
▁Jesus	-13451
▁Puten	-13452
▁Socke	-13453
▁behel	-13454
Musiker	-13455
ballons	-13456
dgerido	-13457
▁Formen	-13458
▁Gelbes	-13459
▁Geräts	-13460
▁Gewalt	-13461
▁Giants	-13462
▁Globus	-13463
▁Goalie	-13464
▁Golfen	-13465
▁Grafik	-13466
▁Grouch	-13467
▁Großel	-13468
▁Großes	-13469
▁Grünes	-13470
▁Hantel	-13471
▁Harlem	-13472
▁Hecken	-13473
▁Hopper	-13474
▁Hundem	-13475
▁Hügels	-13476
▁Hündin	-13477
▁Insekt	-13478
▁Kanada	-13479
▁Kanals	-13480
▁Kappen	-13481
▁Kasino	-13482
▁Knöpfe	-13483
▁Kombis	-13484
▁Krügen	-13485
▁Landes	-13486
▁Lanzen	-13487
▁LeBron	-13488
▁Lineal	-13489
▁Louvre	-13490
▁Makeup	-13491
▁Mammut	-13492
▁Mandel	-13493
▁Marker	-13494
▁Mauern	-13495
▁Meißel	-13496
▁Mexiko	-13497
▁Morgan	-13498
▁Muslim	-13499
LO	-13500
Fro	-13501
läu	-13502
yle	-13503
beil	-13504
free	-13505
ikas	-13506
imen	-13507
irne	-13508
isor	-13509
lege	-13510
lehr	-13511
läuf	-13512
orse	-13513
äule	-13514
▁Air	-13515
▁Gef	-13516
▁Gru	-13517
▁Stö	-13518
▁Wik	-13519
▁anb	-13520
▁kah	-13521
aniel	-13522
bögen	-13523
ieger	-13524
kuppe	-13525
misch	-13526
verse	-13527
▁Lein	-13528
▁Pant	-13529
▁dann	-13530
▁wack	-13531
estand	-13532
ussion	-13533
wenden	-13534
▁Algen	-13535
▁Eleph	-13536
▁Stall	-13537
▁Suppe	-13538
▁überr	-13539
atteten	-13540
eitigen	-13541
gemacht	-13542
schenle	-13543
▁Center	-13544
▁Engine	-13545
▁Kimono	-13546
▁Needle	-13547
▁Nische	-13548
▁Ohrstö	-13549
▁Oliven	-13550
▁Pakete	-13551
▁Parken	-13552
▁Pedale	-13553
▁Pferch	-13554
▁Preise	-13555
▁Presse	-13556
▁Profil	-13557
▁Profir	-13558
▁Profis	-13559
▁Rauchf	-13560
▁Rechen	-13561
▁Regeng	-13562
▁Requis	-13563
▁Ribbon	-13564
▁Rinder	-13565
▁Rocker	-13566
▁Rockst	-13567
▁Sarong	-13568
▁Schalt	-13569
▁Schiri	-13570
▁Scooby	-13571
▁Segway	-13572
▁Selbst	-13573
▁Series	-13574
▁Sieger	-13575
▁Signal	-13576
▁Skispr	-13577
▁Slalom	-13578
▁Statur	-13579
▁Stocks	-13580
▁Streit	-13581
▁Stromk	-13582
▁Stromm	-13583
▁Stunde	-13584
▁Stände	-13585
▁Summer	-13586
▁Suppen	-13587
▁Tackle	-13588
▁Tasten	-13589
▁Teilen	-13590
▁Themen	-13591
▁Tomate	-13592
▁Trader	-13593
▁Tragen	-13594
▁Tümpel	-13595
▁Umfeld	-13596
▁Umzugs	-13597
▁Urinal	-13598
▁Ventil	-13599
Wh	-13600
Bar	-13601
Fil	-13602
Rot	-13603
ffe	-13604
not	-13605
Five	-13606
Thom	-13607
bees	-13608
fort	-13609
uman	-13610
üsen	-13611
▁Dol	-13612
▁Hol	-13613
▁Häl	-13614
▁Lad	-13615
▁Mut	-13616
▁Ris	-13617
▁bin	-13618
▁end	-13619
court	-13620
immte	-13621
insen	-13622
zange	-13623
änner	-13624
ärmer	-13625
▁Kais	-13626
▁Pfau	-13627
▁Vans	-13628
▁Wurz	-13629
▁west	-13630
Goalie	-13631
Thomas	-13632
ankees	-13633
förmig	-13634
wender	-13635
▁Boxen	-13636
▁Düsen	-13637
▁Gyros	-13638
▁Lagen	-13639
▁Ringe	-13640
▁schar	-13641
Traktor	-13642
packung	-13643
putztes	-13644
▁Delfin	-13645
▁Entsch	-13646
▁Flöten	-13647
▁Ladent	-13648
▁Risiko	-13649
▁Teichs	-13650
▁Verand	-13651
▁Visier	-13652
▁Vorges	-13653
▁Völker	-13654
▁Waggon	-13655
▁Warter	-13656
▁Weißes	-13657
▁Wonder	-13658
▁Worten	-13659
▁Wälder	-13660
▁Würste	-13661
▁Zombie	-13662
▁Zungen	-13663
▁abhebt	-13664
▁achten	-13665
▁aufgeb	-13666
▁aufrei	-13667
▁ausger	-13668
▁auszus	-13669
▁auszut	-13670
▁bausch	-13671
▁behaar	-13672
▁beigem	-13673
▁bekann	-13674
▁besser	-13675
▁besten	-13676
▁bevölk	-13677
▁bewaff	-13678
▁breite	-13679
▁coolen	-13680
▁dahing	-13681
▁dehnen	-13682
▁dickem	-13683
▁dummes	-13684
▁dunekl	-13685
▁dunkle	-13686
▁dünnes	-13687
▁düster	-13688
▁eifrig	-13689
▁eingef	-13690
▁eingel	-13691
▁einmal	-13692
▁einzut	-13693
▁entspr	-13694
▁erfolg	-13695
▁ergrau	-13696
▁erhöht	-13697
▁erkenn	-13698
▁erregt	-13699
AH	-13700
CK	-13701
Men	-13702
pon	-13703
täu	-13704
ugh	-13705
▁wi	-13706
Stil	-13707
blen	-13708
down	-13709
esam	-13710
hend	-13711
iosk	-13712
shop	-13713
tage	-13714
ustr	-13715
wall	-13716
▁Fau	-13717
▁Fee	-13718
▁Tät	-13719
▁erf	-13720
▁kat	-13721
Kiosk	-13722
arfes	-13723
gebir	-13724
lache	-13725
äulen	-13726
▁Dung	-13727
▁vors	-13728
buffet	-13729
otiven	-13730
skraft	-13731
▁Cater	-13732
▁Hacke	-13733
▁Laken	-13734
▁Minir	-13735
▁Sesam	-13736
▁Strei	-13737
▁Weide	-13738
▁abgew	-13739
▁kniel	-13740
▁meine	-13741
▁nutzt	-13742
auerten	-13743
kolonne	-13744
sstunde	-13745
sstätte	-13746
▁Border	-13747
▁Jünger	-13748
▁Lichts	-13749
▁Segeln	-13750
▁Streik	-13751
▁Strich	-13752
▁Truthä	-13753
▁errich	-13754
▁erwart	-13755
▁faltet	-13756
▁fassen	-13757
▁faszin	-13758
▁festzu	-13759
▁feuern	-13760
▁filmen	-13761
▁flickt	-13762
▁frisst	-13763
▁frühen	-13764
▁furcht	-13765
▁geball	-13766
▁geform	-13767
▁gefähr	-13768
▁gelock	-13769
▁geneig	-13770
▁gewick	-13771
▁grasen	-13772
▁halben	-13773
▁halbwü	-13774
▁handge	-13775
▁heißes	-13776
▁helles	-13777
▁herann	-13778
▁herbst	-13779
▁himmel	-13780
▁hispan	-13781
▁inspir	-13782
▁intern	-13783
▁knipst	-13784
▁kultiv	-13785
▁kultur	-13786
▁kuppel	-13787
▁kurzes	-13788
▁kühlen	-13789
▁leeres	-13790
▁leucht	-13791
▁lieben	-13792
▁lilane	-13793
▁lässig	-13794
▁mobile	-13795
▁modell	-13796
▁platzt	-13797
▁presst	-13798
▁primit	-13799
AM	-13800
AS	-13801
Am	-13802
Ra	-13803
Um	-13804
ts	-13805
Man	-13806
afe	-13807
nie	-13808
ols	-13809
▁Du	-13810
▁LA	-13811
▁Tu	-13812
▁us	-13813
amer	-13814
aubt	-13815
irmt	-13816
önen	-13817
▁Tat	-13818
Staub	-13819
beißt	-13820
bewer	-13821
elige	-13822
kraft	-13823
netes	-13824
zeile	-13825
▁Beut	-13826
▁Cher	-13827
▁Fers	-13828
▁Petr	-13829
▁arme	-13830
▁flex	-13831
holfen	-13832
ordnet	-13833
ündeln	-13834
▁Amput	-13835
▁Kaffe	-13836
▁Miene	-13837
▁Stolz	-13838
▁Zange	-13839
▁betag	-13840
▁dient	-13841
▁freie	-13842
▁stets	-13843
dersitz	-13844
nehmern	-13845
ometern	-13846
waggons	-13847
▁Abwehr	-13848
▁Fersen	-13849
▁Tatort	-13850
▁Videom	-13851
▁Windel	-13852
▁einarm	-13853
▁projiz	-13854
▁pusten	-13855
▁reihen	-13856
▁reißen	-13857
▁rettet	-13858
▁riecht	-13859
▁riesen	-13860
▁rodelt	-13861
▁schert	-13862
▁schlür	-13863
▁schock	-13864
▁schürt	-13865
▁sechsk	-13866
▁seilen	-13867
▁sendet	-13868
▁sorgen	-13869
▁speist	-13870
▁spinnt	-13871
▁später	-13872
▁stillt	-13873
▁stürmt	-13874
▁testet	-13875
▁textet	-13876
▁trennt	-13877
▁trotzt	-13878
▁umrand	-13879
▁verbir	-13880
▁verein	-13881
▁vierte	-13882
▁volles	-13883
▁weiche	-13884
▁wiegen	-13885
▁worauf	-13886
▁wütend	-13887
▁zuerst	-13888
▁zugekn	-13889
▁zuhält	-13890
▁überdi	-13891
Badehose	-13892
Fahrzeug	-13893
Objektiv	-13894
Piercing	-13895
Sandwich	-13896
Schaukel	-13897
Schienen	-13898
Torhüter	-13899
Cr	-13900
äh	-13901
aie	-13902
das	-13903
ded	-13904
ppt	-13905
ums	-13906
▁Gü	-13907
▁Ps	-13908
Stop	-13909
Zwei	-13910
getr	-13911
mund	-13912
rael	-13913
▁Bag	-13914
▁Bie	-13915
▁Fes	-13916
▁Fäh	-13917
▁Für	-13918
▁Nur	-13919
▁Rin	-13920
▁Ros	-13921
▁anm	-13922
▁zul	-13923
Maske	-13924
anter	-13925
gebot	-13926
nungs	-13927
äuche	-13928
▁Dojo	-13929
▁Fort	-13930
▁Penn	-13931
▁Putz	-13932
▁fügt	-13933
▁köst	-13934
auntes	-13935
gepäck	-13936
impert	-13937
▁Allee	-13938
▁Corgi	-13939
▁Force	-13940
▁Räder	-13941
▁Samen	-13942
▁Unsch	-13943
▁Wegen	-13944
▁vorzu	-13945
eckigen	-13946
fischen	-13947
kletter	-13948
▁Stewar	-13949
▁linkes	-13950
▁sticht	-13951
▁warmem	-13952
▁zement	-13953
Trockner	-13954
achteten	-13955
astelten	-13956
berreste	-13957
derseits	-13958
designer	-13959
ditorium	-13960
eligiöse	-13961
elsteine	-13962
eltasche	-13963
ementary	-13964
erbissen	-13965
erusalem	-13966
espieler	-13967
ettessen	-13968
fernrohr	-13969
ffnungen	-13970
formator	-13971
frorenen	-13972
früchten	-13973
fuhrwerk	-13974
gefahren	-13975
gelaufen	-13976
gemachte	-13977
gestarrt	-13978
gewiesen	-13979
gleitung	-13980
hauseweg	-13981
ichtigen	-13982
iedewerk	-13983
ietnames	-13984
ießkanne	-13985
ilbernen	-13986
ischuhen	-13987
isierung	-13988
itterten	-13989
itzender	-13990
itzendes	-13991
kanister	-13992
klapptem	-13993
künstler	-13994
lichtern	-13995
personal	-13996
pfostens	-13997
polizist	-13998
ppentopf	-13999
AL	-14000
GO	-14001
GT	-14002
ij	-14003
rr	-14004
EGO	-14005
aat	-14006
cen	-14007
füß	-14008
lab	-14009
siv	-14010
zul	-14011
zum	-14012
▁Em	-14013
▁Wo	-14014
gebl	-14015
herr	-14016
hlte	-14017
ijab	-14018
imin	-14019
sler	-14020
ulen	-14021
▁Fin	-14022
▁Shr	-14023
▁Sin	-14024
▁dro	-14025
Obama	-14026
abell	-14027
kanal	-14028
neter	-14029
oodle	-14030
point	-14031
pphut	-14032
▁Hind	-14033
▁Liga	-14034
Frisur	-14035
agerin	-14036
blocks	-14037
fabrik	-14038
ppchen	-14039
spring	-14040
ungern	-14041
▁David	-14042
▁Hijab	-14043
▁Houst	-14044
▁Insel	-14045
▁Masse	-14046
▁Papas	-14047
▁gebau	-14048
▁heiße	-14049
▁toten	-14050
eyhound	-14051
skegeln	-14052
veteran	-14053
▁Bauvor	-14054
▁Camper	-14055
▁Capris	-14056
▁Feuert	-14057
▁Geigen	-14058
▁Hüften	-14059
▁Runden	-14060
▁Röhren	-14061
▁Würfel	-14062
▁alltäg	-14063
▁ebenso	-14064
▁könnte	-14065
▁verlie	-14066
▁wenden	-14067
prechung	-14068
produkte	-14069
programm	-14070
rochenen	-14071
rutschen	-14072
sbereich	-14073
schalten	-14074
schaufen	-14075
schießen	-14076
schilder	-14077
schleier	-14078
schminke	-14079
schreibt	-14080
schritte	-14081
schwelle	-14082
schwimmt	-14083
schützer	-14084
sesorten	-14085
skörpern	-14086
spritzen	-14087
spurigen	-14088
steppich	-14089
trommeln	-14090
uerflöte	-14091
ungsbetr	-14092
vorspiel	-14093
wechseln	-14094
wohnheim	-14095
zeichnen	-14096
zusetzen	-14097
ängstigt	-14098
▁Abfahrt	-14099
El	-14100
No	-14101
Zug	-14102
eue	-14103
ual	-14104
ulk	-14105
vul	-14106
▁Av	-14107
▁Je	-14108
▁My	-14109
Buch	-14110
bock	-14111
bund	-14112
chem	-14113
fter	-14114
iade	-14115
lade	-14116
lied	-14117
orth	-14118
urst	-14119
ztes	-14120
▁Gen	-14121
▁Ken	-14122
▁Ras	-14123
Court	-14124
Linie	-14125
emmen	-14126
▁Gips	-14127
▁Hulk	-14128
▁Jump	-14129
▁Pand	-14130
▁Sein	-14131
▁Star	-14132
▁kenn	-14133
▁leht	-14134
▁spät	-14135
▁teur	-14136
grenzt	-14137
hender	-14138
nackte	-14139
▁Faden	-14140
▁Männe	-14141
▁Nähen	-14142
▁Opfer	-14143
▁Schar	-14144
▁angen	-14145
▁start	-14146
ersonen	-14147
immungs	-14148
▁Garden	-14149
▁Gewebe	-14150
▁Sportr	-14151
▁Tresen	-14152
▁angene	-14153
▁gesatt	-14154
▁kahlem	-14155
▁stiert	-14156
Maschine	-14157
underung	-14158
▁Angehör	-14159
▁Angeles	-14160
▁Ankunft	-14161
▁Anspiel	-14162
▁Atlanta	-14163
▁Aufsitz	-14164
▁Auswirk	-14165
▁Auszeit	-14166
▁Basecap	-14167
▁Baufahr	-14168
▁Beamter	-14169
▁Bechern	-14170
▁Begleit	-14171
▁Bergweg	-14172
▁Blicken	-14173
▁Bottich	-14174
▁Boxring	-14175
▁Boxsack	-14176
▁Brauner	-14177
▁Brezeln	-14178
▁Brüsten	-14179
▁Büchert	-14180
▁Chinese	-14181
▁Chirurg	-14182
▁Company	-14183
▁Crayola	-14184
▁Deckeln	-14185
▁Defense	-14186
▁Display	-14187
▁Drahtge	-14188
▁Dutzend	-14189
▁Ehepaar	-14190
▁Elefant	-14191
▁Engelsk	-14192
▁Exponat	-14193
▁Express	-14194
▁Factory	-14195
▁Fairway	-14196
▁Farbton	-14197
▁Feldern	-14198
▁Flannel	-14199
Do	-14200
IR	-14201
Sh	-14202
vo	-14203
Ich	-14204
Per	-14205
Ste	-14206
oks	-14207
▁Ad	-14208
▁PC	-14209
▁Sy	-14210
▁ad	-14211
ores	-14212
rank	-14213
sker	-14214
▁Dur	-14215
▁Gur	-14216
▁Lav	-14217
Kitty	-14218
ktion	-14219
ydrau	-14220
▁Keks	-14221
▁Kurz	-14222
▁Soda	-14223
▁entr	-14224
▁laut	-14225
▁läng	-14226
winkel	-14227
▁Blüte	-14228
▁Grass	-14229
▁Hunds	-14230
▁Manns	-14231
▁Näher	-14232
▁Sitze	-14233
▁Tiers	-14234
▁qualm	-14235
fassade	-14236
trinken	-14237
▁Beeren	-14238
▁Burrit	-14239
▁Eistee	-14240
▁braust	-14241
▁kaltem	-14242
▁zeltet	-14243
atischer	-14244
▁Flossen	-14245
▁Frauenb	-14246
▁Freibad	-14247
▁Gebiets	-14248
▁Gebilde	-14249
▁Gebirgs	-14250
▁Gedicht	-14251
▁Gefälle	-14252
▁Gegnern	-14253
▁Gehende	-14254
▁Gepäckt	-14255
▁Gestalt	-14256
▁Gewürze	-14257
▁Gipfeln	-14258
▁Grabung	-14259
▁Grasweg	-14260
▁Heimweg	-14261
▁Hockern	-14262
▁Holzsch	-14263
▁Hütchen	-14264
▁Infield	-14265
▁Italien	-14266
▁Jerseys	-14267
▁Kakteen	-14268
▁Kapitän	-14269
▁Karatet	-14270
▁Kassier	-14271
▁Kinders	-14272
▁Kitteln	-14273
▁Kleides	-14274
▁Koffern	-14275
▁Kreuzen	-14276
▁Lacross	-14277
▁Lametta	-14278
▁Leckerl	-14279
▁Leitung	-14280
▁Looping	-14281
▁Längsst	-14282
▁Löffeln	-14283
▁Marines	-14284
▁Meister	-14285
▁Messern	-14286
▁Metallg	-14287
▁Michael	-14288
▁Mitfahr	-14289
[...]
